#version: 0.2
e n</w>
e r
i n
t h
c h
e n
e r</w>
u n
a n
t i
th e</w>
d i
r e
s t
o n</w>
o n
a r
l i
o r
e i
e s</w>
r o
s i
a l
i n</w>
d er</w>
c h</w>
i s
e l
e s
di e</w>
w i
a u
an d</w>
o f</w>
a t
e in
un d</w>
t o</w>
o m
e d</w>
a ti
in g</w>
d en</w>
a s</w>
u r
i s</w>
s ch
i t
b e
un g</w>
g e
a n</w>
d e
a t</w>
r a
o r</w>
a s
a l</w>
r i
o u
g en</w>
t en</w>
m en
t e</w>
p o
a b
v er
o l
@ -
@- @</w>
u s
t er
i t</w>
o t
l e
q u
l e</w>
p ro
d er
f ü
n e
a m
a c
v e</w>
t s</w>
h r
g e</w>
e c
ati on</w>
om m
ch en</w>
v i
s p
z u</w>
f or</w>
d e</w>
n i
l y</w>
h i
f f
e m
v on</w>
th at</w>
e t
n o
en t
ch t</w>
l o
u ro
c on
fü r</w>
s u
uro p
z u
w er
e h
qu ot
t h</w>
f or
c e</w>
po s
quot ;</w>
& quot;</w>
g i
l a
c i
men t</w>
ti on</w>
d as</w>
t e
o p
ein e</w>
d es</w>
is t</w>
g en
i l
E urop
ar e</w>
m a
S t
si on</w>
V er
ati on
au f</w>
d en
s e</w>
m it</w>
b er
ch e</w>
b er</w>
h a
b e</w>
ei n</w>
ei t</w>
di es
d a
u l
wi th</w>
un gen</w>
th is</w>
c o
s t</w>
el l
i m</w>
u t
e x
e m</w>
d u
a h
i m
e l</w>
c om
a pos
& apos
a f
r u
f i
a r</w>
omm is
s er
i e</w>
I n
s o</w>
a d
t er</w>
t a
ti on
w e</w>
de m</w>
s o
wi r
c k
p or
un g
s h
z i
an d
w h
R e
ou r</w>
ä n
li ch</w>
w ei
a g
s e
b y</w>
u m</w>
l l</w>
wer den</w>
w or
m o
wi r</w>
i ch</w>
r an
er i
at e</w>
a p
A n
n en</w>
s en</w>
l d</w>
as s</w>
e d
m en</w>
al l</w>
s in
ommis sion</w>
is chen</w>
t ra
w e
2 0
ni cht</w>
al s</w>
p ar
no t</w>
g es
d ass</w>
g h
S ie</w>
en t</w>
wi ll</w>
b u
m e
y o
p re
m e</w>
b i
ung s
ch t
t u
si ch</w>
er e</w>
ha ve</w>
a li
w hi
f in
al l
&apos ;
yo u</w>
sch af
u m
k e</w>
au ch</w>
au s
w as</w>
ou ld</w>
w en
S ch
re i
P ro
t z
i r
b es
e st
ro m</w>
g li
er s</w>
f rom</w>
g t</w>
t o
a ch</w>
a ch
whi ch</w>
ü ber</w>
E n
l u
e b
ei t
wir d</w>
wi e</w>
e an</w>
sin d</w>
h o
e t</w>
s ol
g r
th er</w>
ur e</w>
l ei
s ti
E U</w>
for m
ein er</w>
&apos; s</w>
h ab
po li
h al
t y</w>
P ar
Europ ean</w>
r ä
in ter
h as</w>
in g
p er
p l
a hr
ein en</w>
be i</w>
it y</w>
g an
in i
d ur
es s</w>
ab le</w>
20 0
v or
d s</w>
au s</w>
st en</w>
st ell
ä r
A r
com p
si den
s a
d o
on e</w>
ou t</w>
ü r
t ed</w>
ö n
w el
g u
st a
li e
et z
E r
g el
g ra
c an</w>
ar k
m an
M it
zu r</w>
ge b
v er</w>
s en
U n
B e
er t</w>
al so</w>
o der</w>
A us
t en
e u
U ni
it s</w>
h at</w>
be t
st r
eh r</w>
. .
au f
k an
o o
men ts</w>
hab en</w>
er n</w>
re c
a k
m i
at es</w>
n ation
sch en</w>
un d
s el
u s</w>
ti c
er en</w>
e k
li chen</w>
A u
al ly</w>
m m
H er
at ed</w>
si on
at en</w>
k ön
or e</w>
a m</w>
is che</w>
er ung</w>
ation s</w>
du c
o h
C ommission</w>
l en</w>
n u
us t</w>
d ar
tion s</w>
e y</w>
e p
an t</w>
si e</w>
g ro
w a
Uni on</w>
co un
l in
i e
ti ve</w>
g er</w>
K ommission</w>
f ol
dies e</w>
Europ ä
re s</w>
b ei
t ri
r it
m ö
V or
P re
por t</w>
c es</w>
w ur
der n</w>
M a
em ber</w>
siden t</w>
y st
ti es</w>
w ar
v el
b li
ö r
C o
an ce</w>
d ing</w>
ü n
a ge</w>
1 9
en d</w>
t s
bu t</w>
E in
p ri
dur ch</w>
ein em</w>
p e
i hr
f t</w>
n ach</w>
ar y</w>
t r
in c
p u
ch ti
m ore</w>
o ff
m it
i c
gh t</w>
ch te</w>
&apos ;</w>
k eit</w>
k en</w>
un ser
ne h
li che</w>
En t
b r
c y</w>
fü hr
un ter
f er
n ah
t ei
A b
an der
i li
ge h
o m</w>
kön nen</w>
es t</w>
th ei
es s
h e</w>
m in
l an
0 0</w>
thei r</w>
ot el</w>
ar i
h in
u p</w>
g er
g re
pre s
Un ter
or i
ver y</w>
g h</w>
c k</w>
o b
schaf t</w>
st ru
p r
k ing</w>
y our</w>
ch er
ch er</w>
zu m</w>
s sen</w>
g o
ne u
v or</w>
te t</w>
p p
as t</w>
v en</w>
c omm
st ri
g ung</w>
m er</w>
K on
es e</w>
t ur
m ark
t ro
por t
w ould</w>
F ra
wen n</w>
ü ber
z ei
as e</w>
p f
D i
th ere</w>
o ther</w>
G e
st e</w>
l ung</w>
z w
ou s</w>
omm en</w>
s on
st eh
B er
be en</w>
dies er</w>
f re
G es
S p
w ä
sp ec
at e
s ec
or d
t el
h e
Mit gli
t re
g n
ci al</w>
ac c
G r
s am
di s
ch n
v ol
ge m
a re
h eit</w>
h er
th ey</w>
k t</w>
l t</w>
ei ten</w>
i f</w>
f ac
nu r</w>
t ing</w>
k on
a v
sh ould</w>
m an</w>
M r</w>
wi ck
kan n</w>
e ff
y e
l and</w>
ne w</w>
n e</w>
t ä
v en
a i
b le</w>
w n</w>
f en</w>
en s
a d</w>
b en</w>
us s</w>
as s
al en</w>
th ese</w>
i el
j ec
al e</w>
am p
l ä
v es</w>
t ran
en s</w>
s om
un s</w>
poli ti
t w
s yst
f u
no ch</w>
m ü
st er</w>
i c</w>
b le
con c
b o
m on
b t</w>
ü ck
en ce</w>
is e</w>
In ter
d o</w>
di es</w>
sch e</w>
F or
wor k</w>
f o
an y</w>
ol o
ab er</w>
us am
wei ter
k l
or t</w>
d ed</w>
ges ch
re gi
k s</w>
p le
Co un
d ung</w>
men t
fi r
m s</w>
ati ve</w>
b en
t n
pro duc
vel op
m u
al le</w>
da y</w>
ü tz
ut z
no w</w>
op er
ar d</w>
U m
qu i
wur de</w>
nation al</w>
m ust</w>
ti me</w>
Mitgli ed
in n
f ahr
ci l</w>
da ß</w>
i h
le g
neh men</w>
P rä
M ember</w>
Europä ischen</w>
Coun cil</w>
D e
on ly</w>
ing s</w>
d an
Re gi
d es
el t</w>
ch an
pu bli
pro vi
s s</w>
P o
.. .</w>
j e
ein es</w>
f ra
ex p
s ein</w>
St ates</w>
su p
c u
in form
Mitglied sta
on om
in e</w>
c re
con t
gra m
t ung</w>
s etz
on g</w>
f e
or s</w>
R i
on der
er n
c al</w>
en den</w>
b a
an t
ation en</w>
Ar b
mü ssen</w>
usam men
th er
Pre sident</w>
la r</w>
e urop
a ff
ab out</w>
de velop
A l
g y</w>
Au f
B es
g keit</w>
wi th
d a</w>
ar s</w>
li ke</w>
w s</w>
B eri
de t</w>
Her r</w>
st at
m ehr</w>
un i
M e
y s</w>
h er</w>
ser vi
k ommen</w>
th o
J ahr
pro c
re l
n o</w>
un ter</w>
s ehr</w>
g es</w>
wh at</w>
r on
Europ e</w>
v ed</w>
ac e</w>
li ch
man y</w>
re g
po si
im mer</w>
Z u
h and
c ri
g lei
wa y</w>
dies em</w>
el y</w>
ar b
f e</w>
ein i
for e</w>
sti tu
ne t</w>
& 9
ec onom
Mitgliedsta aten</w>
C omm
tri es</w>
su b
re d</w>
mo st</w>
eit s
sol l
f un
il li
Par la
st än
li a
S o
st ütz
su ch</w>
d am
an s</w>
1 0</w>
k e
im port
vi e
pro pos
H otel</w>
coun tries</w>
t schaf
e ment</w>
em p
oo d</w>
M en
Ent wick
ihr e</w>
ri e
ti gen</w>
ch ten</w>
fin an
wh en</w>
b is</w>
S i
eh en</w>
19 9
p h
v ing</w>
lie ß
at ing</w>
el le</w>
in to</w>
w ar</w>
dies es</w>
ä l
en z
ro u
I h
un der
h el
op le</w>
Ü ber
us e</w>
an i
wh o</w>
ber ei
r e</w>
inc lu
w is
l as
europ ä
wi chti
vi el
ab ili
nah men</w>
wer e</w>
wel l</w>
au se</w>
bes onder
ti m
t or</w>
com e</w>
zw ischen</w>
s s
d re
d r
si ble</w>
bi li
pe ople</w>
so wie</w>
ag re
en de</w>
L i
stell en</w>
for der
li c
en n
spec i
hal ten</w>
si s</w>
lia ment</w>
we en</w>
bet ween</w>
tion en</w>
di ff
m p
v om</w>
b re
en er
l ar
som e</w>
C h
sion s</w>
fir st</w>
Z usammen
th an</w>
Par liament</w>
sch ließ
l au
j o
F in
m y</w>
ti g</w>
inform ation</w>
st s</w>
ap p
b ar
for m</w>
an n
den en</w>
stell t</w>
c le
l än
a il
ti mm
or y</w>
ell en</w>
ag a
wä hr
t es</w>
ne ed</w>
el e
In form
re port</w>
r ü
in u
de ut
ö ff
hi er</w>
l at
c ent
r au
r is
g lich</w>
an k</w>
J ah
in v
f ten</w>
m at
t ure</w>
f ul
Europä ische</w>
ac k
o ver</w>
tic al</w>
fi c
I hr
en g
M ini
in t</w>
C on
w er</w>
ver n
un ity</w>
w oh
ge t</w>
it e</w>
s ch</w>
R at</w>
geb en</w>
st e
c ul
h is</w>
st and
etz t</w>
qu ali
tä t</w>
di rec
gi bt</w>
unser e</w>
in s
m is
ta ke</w>
W ir
stru c
u p
k o
syst em</w>
O r
Vor sch
c ause</w>
k te</w>
ß nahmen</w>
re sp
or gan
mö chte</w>
l l
ma ke</w>
ar t</w>
sup port</w>
sp e
K o
gh ts</w>
hal b</w>
M o
ge gen</w>
co ur
c ur
h eu
de ci
gro ß
sam e</w>
import ant</w>
i d</w>
h ere</w>
k om
it ä
ap pro
b in
p a
f ur
sh o
z eu
w al
publi c</w>
m er
L än
el s</w>
H au
Ber ei
gel e
l es</w>
G em
s er</w>
s hi
wh ere</w>
or der</w>
et t
fu l</w>
es ti
ge ment</w>
tw o</w>
r ati
re as
n at
ti ge</w>
dam it</w>
ex c
in s</w>
sp re
th rou
wir k
th em</w>
s at
Prä sident</w>
x t</w>
chn olo
me di
u res</w>
h otel</w>
B ei
gem ein
ver sch
poli cy</w>
w ür
an g</w>
mark et</w>
s k
ä u
i l</w>
b ein
le v
G er
in di
k eine</w>
resp on
b ar</w>
st er
ar bei
Europ a</w>
ä tz
pro ble
on s</w>
lin e</w>
an ge
m uss</w>
sch ei
ne c
z ah
g n</w>
ch ä
ma de</w>
en ti
par tic
o k
n ach
Q u
g ab
f ri
a ir
g s</w>
le tz
con si
ar ly</w>
lo c
f all
us s
y p
is su
c ol
ac k</w>
i el</w>
t ec
k eiten</w>
gli ch
f t
Gem ein
be cause</w>
a st
M on
A m
z e</w>
tra g</w>
ander en</w>
V i
el l</w>
n um
eb en</w>
lo w
ye ars</w>
wi e
Beri cht</w>
s m
si ve</w>
n ung</w>
af ter</w>
cht s
Fin an
tho se</w>
P er
te l</w>
r en
un der</w>
econom ic</w>
ä ch
si te</w>
y ing</w>
j ust</w>
lo w</w>
b ot
sol u
p en
M i
aus ge
bes ser
th ing</w>
wur den</w>
St a
lo b
fin den</w>
Pro du
er te</w>
M ark
wei se</w>
develop ment</w>
h um
be wer
b il
l er</w>
tr y</w>
steh t</w>
ommis sion
n t</w>
c an
Parla ment</w>
ther e
tion al</w>
v o
v al
la ge</w>
ho w</w>
e ti
em s</w>
me as
g ent
m ini
ß er
ha d</w>
re ad
un den</w>
stän di
se e</w>
we ver</w>
ye ar</w>
ho wever</w>
Po li
wor ld</w>
vie w</w>
su l
z en</w>
oper ation</w>
gi e</w>
ma y</w>
k ti
2 0</w>
c er
fahr en</w>
0 00</w>
ac t</w>
g a
gen er
B et
am e</w>
T ei
s c
S er
dies en</w>
st an
c lo
f as
ri ght</w>
o ch</w>
Pro ble
ci p
dan n</w>
mit tel
Entwick lung</w>
heu te</w>
eff ec
öff ent
j ek
en en</w>
n er</w>
be g
M ar
gram me</w>
ta in</w>
si tu
w är
o s</w>
e ven</w>
R ah
T h
Ma ßnahmen</w>
c c
du stri
F ran
bein g</w>
ff en</w>
steh en</w>
neu e</w>
Ri cht
vi ron
th en</w>
B ür
bi e
wir tschaf
par t</w>
as ed</w>
te e</w>
chä f
k tion</w>
j ed
throu gh</w>
g ten</w>
Ih nen</w>
Gr und
n is
diff er
pro tec
at er</w>
ä m
Jah r</w>
ent ly</w>
tran sp
T e
er ten</w>
v e
us in
u r</w>
so ur
pl ace</w>
jec t</w>
s or
p la
s eine</w>
br au
si gn
et y</w>
are a</w>
there fore</w>
d at
Unter nehmen</w>
jed och</w>
st re
de mo
E x
de l</w>
pos sible</w>
om s</w>
politi k</w>
f f</w>
un kt</w>
ch ts</w>
us ed</w>
with in</w>
tran s
en z</w>
g ood</w>
ter s</w>
S u
ar ds</w>
gen en</w>
st and</w>
on en</w>
abili ty</w>
comp le
h ol
bot h</w>
g ri
p ra
ä h
ge gen
L u
G ro
nah me</w>
d ra
20 1
st o
m al</w>
ö ß
W e
l ungen</w>
h ö
europä ischen</w>
Si cher
woh l</w>
neu en</w>
ein f
ihr er</w>
lo o
to day</w>
servi ces</w>
arb eit</w>
inter national</w>
av ail
cont inu
en d
k re
qu es
im ple
besonder e</w>
ti k
las sen</w>
berei ts</w>
nation alen</w>
lei st
go vern
se t</w>
ti al</w>
p i
der ung</w>
ta in
c ap
unter stütz
au th
poli tical</w>
N e
sp iel
ro om</w>
s h</w>
a u</w>
conc ern
c li
Z eit</w>
S yst
st u
so ci
i ce</w>
th re
l and
ou s
in st</w>
str ate
il l
wen i
c or
si cher
soll te</w>
ch ar
B u
T o
c ould</w>
aga inst</w>
le gen</w>
s ur
k tion
p er</w>
i de
en viron
bi et
ä hr
bes ch
la g</w>
bili ty</w>
ou gh</w>
l ü
el n</w>
1 ;</w>
&9 1;</w>
führ t</w>
R o
te gr
be d
5 0</w>
en st
read y</w>
cur r
W ei
St r
g ar
3 ;</w>
&9 3;</w>
Fra u</w>
U S
Men schen</w>
pres ent
t ors</w>
z wei
f est
B il
val u
ul ation</w>
k un
En er
ad op
ter n</w>
b ur
Inform ationen</w>
der s</w>
p s</w>
da zu</w>
unser er</w>
al o
coun try</w>
.. ..
h än
t ly</w>
im pro
kl är
ö l
we i</w>
ri ghts</w>
sel b
sch n
e f
er k
ent r
meas ures</w>
so cial</w>
1 2
ment al</w>
el d</w>
l ungs
in stitu
ou t
ag es</w>
geh en</w>
st au
st ar
as si
bu il
t schaft</w>
oh ne</w>
dur ch
in gen</w>
n te</w>
z wei</w>
per son
re qui
emp lo
s ei
no v
hi gh</w>
L e
h ar
rei chen</w>
in de
ne ed
be lie
num ber</w>
it ed</w>
at s
g lob
Jahr en</w>
t t
avail able</w>
li cher</w>
sch i
men d
z us
ru pp
u lar</w>
P ri
ation s
soll ten</w>
C ommission
S e
R ei
do es</w>
son dern</w>
o wn</w>
al le
B o
ander e</w>
hab e</w>
pri v
em ber
mö gli
b usin
tur al</w>
en th
lev el</w>
ch es</w>
el ec
w in
ur o</w>
si de</w>
Rah men</w>
le c
w es
quali ty</w>
ö s
K ol
chan ge</w>
wirtschaf t
Her r
finan cial</w>
g o</w>
sin ce</w>
f ut
so zi
it al</w>
comp eti
ett bewer
Mini ster</w>
geh t</w>
ar ch</w>
shi p</w>
Ä n
f am
z ur
b el
K om
n ot
C hin
ac ti
sel f</w>
st är
pr in
gra mm
de b
fre e</w>
f is
3 0</w>
0 0
m ar
ou se</w>
ß en</w>
E R
amp ;</w>
& amp;</w>
hi l
with out</w>
ai d</w>
sat z</w>
stell ung</w>
l ast</w>
c ar
lin ie</w>
c ed</w>
eb en
am en</w>
all en</w>
produc ts</w>
ver si
y ment</w>
setz ung</w>
ab li
Commission er</w>
fi ed</w>
a gement</w>
ter n
h in</w>
N or
in ten
h en</w>
i ci
la gen</w>
it tee</w>
fut ure</w>
zi eh
E U
b oo
sh al
b al
glei ch
versch ie
Berei ch</w>
w ol
posi tion</w>
mu ch</w>
s se</w>
tra gen</w>
führ en</w>
viel e</w>
ins besondere</w>
gan g</w>
l ong</w>
servi ce</w>
cle ar</w>
for t
Comm unity</w>
ges am
ur ity</w>
illi on</w>
ma in</w>
v ari
i st
w ant</w>
w n
fall s</w>
g ni
in k</w>
dur ing</w>
Zusammen arbeit</w>
p ec
er ungs
s eit</w>
fur ther</w>
lie gt</w>
M ö
g s
is l
hi st
R es
s ed</w>
au ßer
con di
be fore</w>
t om
H and
W or
ai r</w>
fin d</w>
ma chen</w>
qu e</w>
z ep
T re
gan z</w>
ch en
sti ll</w>
ch ni
ac tion</w>
k ur
s af
ent wick
z eit</w>
ne t
gen ommen</w>
gram m</w>
gr öß
c ase</w>
regi on
hi gh
weiter e</w>
proc ess</w>
c a</w>
con tro
cht ung</w>
eini ge</w>
al ready</w>
us ti
k es</w>
on d</w>
stau ran
st ra
sch ri
ge stellt</w>
bu d
ant wor
m ul
bie ten</w>
m ich</w>
ommis s
Fra ge</w>
st al
d ru
Arb eits
h eits
währ end</w>
e ts</w>
T a
ali si
ch ter
h eiten</w>
Um wel
par tn
do ch</w>
l a</w>
ä hi
ad t</w>
po int</w>
b ri
ul es</w>
an ti
at te</w>
z el
F re
differ ent</w>
j etzt</w>
Ihr e</w>
f il
si cht</w>
m ei
o ver
partic ular</w>
T ran
p ur
biet et</w>
inclu ding</w>
Re chts
organ is
est abli
S it
h ä
l ess</w>
K in
k ün
200 9</w>
k omm
e ach</w>
dar auf</w>
cu st
ol d</w>
N ach
propos al</w>
in ing</w>
wa ys</w>
b ased</w>
bes timm
te chnolo
ad di
ih r</w>
Mö glich
dat a</w>
or ity</w>
T ra
o b</w>
ut z</w>
da her</w>
a b</w>
d y</w>
k no
o v
gre at</w>
ener gy</w>
s on</w>
fi c</w>
w an
pro gramme</w>
t al
e v
I N
app lic
tra c
re spec
g in
al th</w>
B eh
z un
h ei
whi le</w>
Pro jek
c ity</w>
t sch
H o
ma j
ke hr
ihr en</w>
ori ties</w>
vi du
ti z
s einer</w>
U N
est s</w>
U S</w>
ach ie
s ehen</w>
L and
da für</w>
wä h
den n</w>
sa id</w>
B ar
ens ure</w>
N i
y n
itä t</w>
p rä
are as</w>
Unter stütz
is ti
K ommiss
Me di
L age</w>
f ast</w>
l ed</w>
M an
str y</w>
ful ly</w>
ch i
W ettbewer
e ver
exp eri
W eb
rit t</w>
agre ement</w>
st ance</w>
H in
sol l</w>
or en</w>
al er</w>
su cc
j u
acc ess</w>
de m
hum an</w>
B ed
n ten</w>
Hau shal
ci es</w>
situ ation</w>
Wir tschaf
es sen
ck en</w>
da bei</w>
ti g
f äl
D at
k a</w>
is m</w>
te xt</w>
co operation</w>
ra l</w>
dis c
W elt</w>
ut es</w>
B el
is cher</w>
f rei
con su
fin det</w>
ad v
In v
leg al</w>
b ro
fac t</w>
ta ken</w>
low ing</w>
gen den</w>
c all
rei ch
f er</w>
hel p</w>
nec ess
wei l</w>
T er
indi vidu
l uss</w>
b it
ac coun
in f
ro oms</w>
pu t</w>
St ra
f tw
Län der</w>
Th em
E C
nu n</w>
wen di
vel y</w>
ftw are</w>
se arch</w>
Unterstütz ung</w>
gro w
comm on</w>
ember s</w>
zei ch
leg isl
Bes ch
ah l</w>
schaf t
St and
1 5</w>
k ey</w>
cour se</w>
sp ra
i es</w>
be gr
s si
Aus sch
o d</w>
ob jec
ord nung</w>
k now</w>
op e</w>
wie der</w>
I s
w ach
20 10</w>
Jahr e</w>
p eri
solu tion</w>
k ten</w>
f ör
re qu
selb st</w>
Par tn
St ate</w>
gr und</w>
busin ess</w>
m eine</w>
por ts</w>
H il
ass ung</w>
to o</w>
c l
Än der
ur s</w>
sch en
sa y</w>
S te
provi de</w>
ma cht</w>
al y
war d</w>
A N
thre e</w>
J u
la w</w>
ci tiz
e very</w>
F un
t yp
inv est
b an
Arb eit
führ ung</w>
f te</w>
tu r</w>
ra p
Z eit
can not</w>
De ut
bes t</w>
wor den</w>
dar über</w>
on i
pro du
inc reas
t ary</w>
sch on</w>
wür de</w>
pr ü
Richt linie</w>
G re
str eng
Finan z
Am eri
at ely</w>
o c
1 .
k er</w>
at t
pro f
sm all</w>
som e
n or
t rä
ch il
g le</w>
a z
mö glich</w>
en ts</w>
necess ary</w>
w o</w>
x i
amp le</w>
ver fü
bei m</w>
syst ems</w>
T he</w>
ges etzt</w>
D em
par ti
m ä
comp ani
n ing</w>
belie ve</w>
E N
kun ft</w>
et ing</w>
n is</w>
po in
gen d</w>
Str ate
in nen</w>
si mp
aff en</w>
Z iel
D is
tra de</w>
V ol
con tri
de fin
L and</w>
en e</w>
d ungen</w>
d ri
t ru
me ans</w>
Arb eit</w>
tra di
us si
g ed</w>
un ic
vi ce</w>
Inter net</w>
g rei
Z iel</w>
sec urity</w>
P or
r ules</w>
vi si
ar t
Comm ittee</w>
si gn</w>
ti k</w>
politi schen</w>
k ed</w>
B a
nat ür
p unkt</w>
citiz ens</w>
Chin a</w>
is ch</w>
h an
r in
F lu
b s
alle m</w>
ei li
schließ lich</w>
w o
U r
W i
spe zi
i zi
pres ent</w>
ques tion</w>
1 2</w>
lich keit</w>
ini ti
en ces</w>
ne xt</w>
di g
ü h
mi r</w>
E S
200 7</w>
issu e</w>
Vorsch lag</w>
war en</w>
off ers</w>
protec tion</w>
P al
200 8</w>
ex ample</w>
L eb
er fol
Per son
th ink</w>
vi el</w>
di re
200 0</w>
Di rec
lo ssen</w>
deb ate</w>
br ingen</w>
z ü
A T
si c</w>
wen dung</w>
m a</w>
cust om
Wirtschaf ts
si chti
gab en</w>
g ing</w>
Län dern</w>
pra c
G u
de li
L ei
in tegr
g eri
ali tät</w>
d ings</w>
p t
gi ven</w>
de u
ven tion</w>
1 8
z ed</w>
tro l
Ener gi
tei lung</w>
Ent schei
k tur
f ähi
d ate</w>
ment ation</w>
im p
C om
wh e
spre ch
demo c
1 0
e k</w>
comm it
schaf ten</w>
f le
th ough</w>
es en</w>
T i
gn is
loc ated</w>
l s</w>
ar o
a de</w>
wol len</w>
lar ge</w>
L ös
ation al</w>
eit ung</w>
vol l
th ir
den ti
geh ör
rec ei
Or gan
sa gen</w>
st en
gu t</w>
deci sion</w>
si cht
tei l</w>
wh y</w>
war ds</w>
er halten</w>
des halb</w>
acc ep
consi der
ess es</w>
S a
G ener
nis se</w>
dre i</w>
v öl
co m</w>
as es</w>
C O
sec tor</w>
arbei ten</w>
re co
der t</w>
in vol
pres s</w>
establi sh
comp any</w>
b in</w>
ec t</w>
ch tet</w>
rit te</w>
ti n</w>
r än
St u
op port
B est
p as
men te</w>
gen de</w>
d el
b ack</w>
Herr n</w>
si bility</w>
F is
em e</w>
st ate</w>
ta li
sch er</w>
sp ar
ful l</w>
ur al</w>
c o</w>
gre ss</w>
ge führt</w>
z o
ti eren</w>
au en</w>
Er geb
E uro</w>
f a
R om
man agement</w>
me work</w>
es sen</w>
er sten</w>
all er</w>
sam en</w>
inn er
conc lu
gi ve</w>
Fra gen</w>
ti c</w>
ever y
curr ent</w>
A R
re m</w>
de c
f ar</w>
da m</w>
b lei
us ing</w>
me hr
Tei l</w>
gab e</w>
ß t</w>
m or
al t</w>
cul tural</w>
g ar</w>
unser en</w>
fol lowing</w>
finan zi
all er
si tz
zu g</w>
ba sis</w>
at s</w>
ma in
M r
wel che</w>
Pro z
or ts</w>
er forder
R ol
sa m</w>
bet ter</w>
E N</w>
proble m</w>
off er</w>
m illion</w>
B i
M illi
pl an
un ser</w>
ul arly</w>
compani es</w>
e qui
der en</w>
o l</w>
mo der
fer ence</w>
Un ited</w>
op p
l er
a k</w>
ing ungen</w>
proble ms</w>
ie der
k ra
t z</w>
i ly</w>
te chni
need s</w>
in nov
Ver fü
ver wen
du stry</w>
Bür ger</w>
h om
s es</w>
wor king</w>
om en</w>
go ti
ß e</w>
Be deut
äm pf
in dustri
B r
se ver
l ab
v ot
s y
ro ss</w>
Sicher heit</w>
utz en</w>
se qu
d ge</w>
f li
r ise</w>
to ge
produc tion</w>
adop ted</w>
Bedeut ung</w>
E R</w>
s ure</w>
setz en</w>
ell schaft</w>
E I
Men schen
F o
geb o
A ut
toge ther</w>
li fe</w>
C ent
su pp
we gen</w>
tre ten</w>
us e
sti mm
sour ces</w>
r y</w>
be steht</w>
h ang</w>
G o
w w
et was</w>
ver k
an other</w>
re sul
L o
enst leist
wei ter</w>
ß i
jec ts</w>
fe w</w>
he alth</w>
ti gung</w>
F rei
in es</w>
k tionen</w>
For sch
as k</w>
ge währ
ti ves</w>
condi tions</w>
issu es</w>
sch ein
g ation</w>
t ot
g än
c tion</w>
is m
g te</w>
de ta
at y</w>
gele gt</w>
Mit tel
enz en</w>
do wn</w>
a in</w>
ur t</w>
hän gi
ne goti
Syst em</w>
cht ungen</w>
emplo yment</w>
ent schei
re su
le a
et er</w>
R u
ti ert</w>
k t
cer tain</w>
au tom
whe ther</w>
ord in
R O
F all</w>
ad dre
re al</w>
wichti g</w>
op en</w>
Ver brau
g ran
M u
al ten</w>
j a</w>
letz ten</w>
um fas
so li
d i</w>
ei te</w>
200 6</w>
ma king</w>
Re cht</w>
parti cip
lo s</w>
n on</w>
Z immer</w>
d u</w>
Ar t</w>
ti gt</w>
g ern</w>
Re gel
T ur
re s
grow th</w>
priv ate</w>
EU R</w>
H ot
aga in</w>
gro up</w>
le t</w>
Ar tik
schaf ts
ali ty</w>
s einen</w>
regi on</w>
re search</w>
men s</w>
l ing</w>
h ör
In stitu
US A</w>
we b
un de</w>
pro gramm
re duc
v is
t ation</w>
sp ek
ro le</w>
h au
W in
mat eri
sec ond</w>
gu ar
p ack
gi en</w>
w rit
rau m</w>
b is
ate g
es se</w>
K re
ol e</w>
con nec
ch o
D aten</w>
J un
ter m</w>
th s</w>
C H
c ing</w>
G eri
fac ili
Regi erung</w>
transp ort</w>
n ess</w>
ou th</w>
Parla ments</w>
2 5</w>
ple ase</w>
ic al</w>
D ur
Ges und
hal f</w>
stauran t</w>
re chte</w>
aro und</w>
so wohl</w>
at ten
on ds</w>
o ur
n äch
inner halb</w>
Gro up</w>
er mögli
ec k</w>
ben e</w>
tei l
in dustry</w>
k ämpf
s ha
st ed</w>
ge w
vie ws</w>
komm t</w>
L an
den t</w>
P ol
a mend
Gemein schaft</w>
en jo
Leb ens
air s</w>
sh all</w>
stri c
ti l</w>
lo cal</w>
da ys</w>
A fri
ec ted</w>
speci al</w>
contro l</w>
er st
en nen</w>
l en
is h</w>
zur ück
Sta aten</w>
. com</w>
re cht
pl ac
wär e</w>
acti vi
gener al</w>
1 1</w>
gni fic
Pro gramm</w>
continu e</w>
di d</w>
ben ef
ati ves</w>
contri bu
I P</w>
speci fic</w>
accoun t</w>
es sion</w>
groß e</w>
partic ularly</w>
Ger many</w>
G rupp
organ i
außer dem</w>
y er</w>
ver b
g sten</w>
es sion
bur g</w>
ous ly</w>
st ä
natür lich</w>
fi zi
u al</w>
zei gt</w>
inter nation
ati ven</w>
d ungs
t ungs
inc re
t on</w>
ab o
kön nte</w>
O p
gen heit</w>
ver besser
si eh
thir d</w>
I S
vo te</w>
K ar
I tali
bli ck</w>
In dustri
R ussi
ap pe
environ ment</w>
reg ul
be kan
Ste u
ag t</w>
a gen
W el
s ing</w>
e p</w>
tu n</w>
n a
w ater</w>
mä ßi
i ous</w>
sta in
hand elt</w>
cul ture</w>
ex ten
S ec
en ter
L is
F ol
glei ch</w>
mini str
fra mework</w>
B an
al es</w>
com es</w>
k ung</w>
dr en</w>
G ar
4 0</w>
besonder s</w>
auth orities</w>
gen e</w>
x im
z usammen
Gr ün
govern ment</w>
I I</w>
S k
spre chen</w>
Co urt</w>
F ör
Verfü gung</w>
Kommiss ar</w>
Flu g
po wer</w>
sta y</w>
G eb
Entwick lungs
ter ms</w>
glob al</w>
at er
activi ties</w>
Änder ungs
An t
en cy</w>
an zu
wis sen</w>
einf ach</w>
sta at
ri chti
gr und
re f
rei gn</w>
da von</w>
bit te</w>
resu lt</w>
bud get</w>
d ly</w>
En de</w>
Prä siden
inter nationalen</w>
y ed</w>
com ing</w>
Hau pt
t ungen</w>
ic ul
ser v
1 00</w>
B en
not wendi
L a
pro gress</w>
w a</w>
sp iel</w>
Proble m</w>
wor k
T ex
in st
W oh
Inv esti
wi de</w>
gu e</w>
n al</w>
diff icul
po ten
2 .
Poli tik</w>
m ers</w>
Möglich keit</w>
al ways</w>
M E
f y</w>
Tre aty</w>
fic ation</w>
land s</w>
K li
be come</w>
itä ten</w>
h and</w>
de st
pro jects</w>
viel en</w>
Rol le</w>
z e
ent ru
R ück
w eit</w>
i eren</w>
v ement</w>
unterstütz en</w>
200 5</w>
F rau
Hil fe</w>
clo se</w>
sch ie
Artik el</w>
loc ation</w>
ein mal</w>
s ation</w>
groß en</w>
ni ti
ein zel
er ungen</w>
ent sprech
go ing</w>
maj or</w>
St adt</w>
F ahr
politi sche</w>
wir tschaft</w>
i ert</w>
er h
ha pp
ein zi
in a</w>
legisl ation</w>
ab hängi
respec t</w>
ß en
Dur ch
O ff
g lau
E uro
E i
ex ist
pro ject</w>
bet ri
f ood</w>
Deut sch
12 4
chil dren</w>
ba u</w>
I niti
in tro
tim es</w>
R ates</w>
li n</w>
des sen</w>
on ce</w>
o gra
r or
f an
h ope</w>
k m</w>
E m
lie gen</w>
rü h
Regi on</w>
P i
Bes chäf
P u
t an
at or</w>
S eite</w>
N amen</w>
k in
Ges chäf
d ür
er zi
imple mentation</w>
c el
p t</w>
F am
M ein
b or
t ar
europä ische</w>
Proble me</w>
th em
ü hr
A S
ran ge</w>
k ein</w>
h atte</w>
fü l
ü ck</w>
eff ici
w ahr
op en
experi ence</w>
do cu
zw ar</w>
tur n</w>
ak tu
ff t</w>
gegen über</w>
er klär
t lich</w>
are d</w>
200 4</w>
all es</w>
ism us</w>
pec i
gro und</w>
w omen</w>
Ger man</w>
Zusammen hang</w>
sever al</w>
guar an
lan g</w>
&apos; t</w>
gen ann
ein bar
cri sis</w>
auf ge
f ar
Wei se</w>
r o</w>
öffent lichen</w>
h r</w>
competi tion</w>
G en
124 ;</w>
& 124;</w>
li ght</w>
ta king</w>
si gnific
v al</w>
pl at
r a</w>
i a</w>
af f</w>
di en
bre it
por te
bi et</w>
So zi
vari ous</w>
Them a</w>
Te chnolo
m einer</w>
es peci
chter stat
W er
Di enstleist
loo k</w>
Zu kunft</w>
N at
to wards</w>
1 6
ff e</w>
mu ß</w>
G i
e duc
st ei
peri od</w>
ach st
el s
ur y</w>
de sign
incre ase</w>
verschie denen</w>
in e
per f
Sp iel
N utz
For tsch
op ini
Mit tel</w>
er reichen</w>
re present
wei sen</w>
o th
region al</w>
zi ehen</w>
ex tre
especi ally</w>
Um setzung</w>
ent fer
m et
zah l
n ei
u e</w>
e li
begr ü
den ce</w>
m ot
dar f</w>
ab ly</w>
p at
D ec
cre ate</w>
J usti
sin gle</w>
3 2</w>
200 3</w>
rit eri
du e</w>
t able</w>
W o
ir e</w>
be l</w>
vi l
re gel
J an
de f
ei genen</w>
In di
I r
Organ is
Sch l
su chen</w>
lan g
ge l</w>
f lo
for t</w>
sub ject</w>
co ver
forder ungen</w>
vi sion</w>
St ell
St ru
institu tions</w>
sol len</w>
s ci
i denti
w are</w>
2 4</w>
wi eri
lan gu
vi a</w>
effec tive</w>
comm unic
P ra
call ed</w>
F u
fo und</w>
fi eld</w>
H ouse</w>
E bene</w>
lä ge</w>
ih nen</w>
cent re</w>
lei sten</w>
schri ften</w>
.... ....
Wir tschaft</w>
1 5
adv an
stand ards</w>
econom y</w>
a si
st aff</w>
to ur
f av
19 8
f ris
wh ole</w>
d ort</w>
c ally</w>
Kol legen</w>
d on</w>
su ff
re it
weiter hin</w>
an it
bei den</w>
mit tel</w>
Sch utz</w>
d ou
st art</w>
Ver hand
proc e
th ank</w>
poli cies</w>
ut er</w>
ell er</w>
g l
b ank</w>
rei cht</w>
p hi
i ma
au m</w>
H e
zun eh
B al
in stru
m b
1 7
är e</w>
W achst
er ste</w>
ag ri
inn en
r ate</w>
appro ach</w>
ein ge
fo c
sel ves</w>
mi li
provi ded</w>
d lich</w>
K ul
mark t</w>
ver s
aller dings</w>
wor ks</w>
y et</w>
all gem
c a
W ar
pf li
Ver tra
We g</w>
o un
p age</w>
is ed</w>
P lat
ti schen</w>
siden cy</w>
su stain
prof ession
Beri chterstat
l an</w>
ad ing</w>
form s</w>
an aly
propos ed</w>
K unden</w>
propos als</w>
A ff
or ding</w>
je der</w>
sicht lich</w>
re sources</w>
Ver besser
A L
ra cht</w>
mat ter</w>
exc ell
di sp
200 2</w>
Frau en</w>
Deutsch land</w>
bet re
l ini
zei tig</w>
Direc tive</w>
N ov
200 1</w>
mo dern</w>
T ag
lä u
te chn
pri ce</w>
saf ety</w>
pro mo
tr on
k ri
A d
all en
ter min
Fam ili
aus sch
e ven
Ver eini
d om
B eit
kün f
m embers</w>
re li
requi re
K ap
as ser
bre ak
er st</w>
s ätz
P h
ein zu
reg ard</w>
ger e
en ten</w>
mul ti
Sit u
ges t</w>
inter est</w>
rei b
rap porte
for ward</w>
pl es</w>
le ben</w>
transp ar
fac e</w>
auf grund</w>
entru m</w>
I C
W est
M in
d one</w>
m el
z ation</w>
k rati
wirtschaft lichen</w>
wel come</w>
Mr s</w>
ar ch
zus ätz
f ung</w>
ad ministr
uss es</w>
re com
ti v
ück sichti
b ut
t a</w>
ge f
ol s</w>
li st</w>
dru ck</w>
gu i
Bei spiel</w>
environ mental</w>
hist or
ver fahren</w>
con struc
ö h
for ce</w>
her vor
ck s</w>
appro pri
si erung</w>
be findet</w>
pr o</w>
st off
me tho
schi ed
gr ün
an im
lei ch
O R
strate gy</w>
lich es</w>
st ing</w>
ne ten</w>
der zeit</w>
neh mer</w>
si ert</w>
G ä
pl an</w>
di o</w>
völ k
Ser vice</w>
be au
Sch ul
Milli onen</w>
S ep
e qu
M är
am ong</w>
Dem ok
S eiten</w>
Sch i
in gt</w>
us sel
ge ord
le ar
I T
ei g
concern ed</w>
sion en</w>
zieh ungen</w>
hi er
L in
1 3</w>
ori es</w>
S ek
Fra ktion</w>
f all</w>
ges ehen</w>
invest ment</w>
w le
sa ge</w>
en der</w>
f l
et wa</w>
K un
il s</w>
Haushal ts
sp r
le ast</w>
un til</w>
lo s
Geschäf ts
berei ch</w>
gen d
A t
man u
Strate gie</w>
web site</w>
er ing</w>
e ar
re cht</w>
wes ent
chn ung</w>
autom ati
inclu de</w>
C ar
Ver fahren</w>
st ers</w>
0 .
prin cip
fe at
hin aus</w>
ah n
Beh ör
m ati
te te</w>
m ember</w>
ge t
spra che</w>
J o
verschie den
t te</w>
an der</w>
weni ger</w>
direc tive</w>
f el
vor schriften</w>
th e
and s</w>
mark ets</w>
und ing</w>
wis h</w>
fra ge</w>
stat t</w>
o ften</w>
eff orts</w>
it self</w>
mö chten</w>
sp ä
dire kt</w>
mer k
l on
Web site</w>
a im
b lo
N ot
re ally</w>
gem ä
posi tive</w>
wirk lich</w>
ed ure</w>
tra ining</w>
1 4</w>
an s
Sicher heits
k u
dr ück
buil ding</w>
unterstütz t</w>
struc ture</w>
z entr
Pro gramme</w>
B innen
In stru
us er</w>
on line</w>
en te</w>
Ver wal
auf en</w>
er war
gi cal</w>
co sts</w>
di c
För derung</w>
Ihr er</w>
valu e</w>
g al</w>
1 8</w>
import ance</w>
1 4
tu res</w>
pla y</w>
g keiten</w>
z er
ge wi
Sp ra
mon ey</w>
o ff</w>
Ver k
wor d</w>
me eting</w>
an y
po p
M al
wie der
s ön
at ten</w>
produc t</w>
n ame</w>
al low</w>
Mitgli e
Me hr
stimm ung</w>
Finan zi
f ron
mit t
ständi g</w>
re du
k ul
en i
in dem</w>
el ek
- -
An gele
Ta g</w>
ha ving</w>
li es</w>
3 .
at ors</w>
ti gkeit</w>
D u
ver sion</w>
tic le</w>
con fi
Wettbewer bs
applic ation</w>
individu al</w>
6 0</w>
um s</w>
so ftware</w>
sti m
B au
resul ts</w>
per form
uni ties</w>
O N</w>
I m
sh e</w>
Aff airs</w>
Zu gang</w>
ah r</w>
Ziel e</w>
excell ent</w>
inv esti
h eri
Grund lage</w>
S ü
Sep t
entfer nt</w>
F ir
be deu
Lös ung</w>
pos e</w>
R E
gesch lossen</w>
h t</w>
gi lt</w>
alisi erung</w>
wirk ungen</w>
E le
gu te</w>
sch affen</w>
A C
am oun
vor gesch
D o
h ing</w>
L ie
ch s</w>
to p</w>
Sept ember</w>
provi des</w>
acc ording</w>
person al</w>
ta ge</w>
e hr
gr enz
b ack
ai l</w>
reg ar
me chan
z ö
to ber</w>
at ory</w>
col lec
re le
re st</w>
rä ge</w>
Ch ar
hom e</w>
Europ as</w>
soci ety</w>
ber i
kno wn</w>
opini on</w>
fle xi
E C</w>
tot al</w>
di t</w>
fam ily</w>
Demok rati
D ok
re solution</w>
f ang</w>
B ank</w>
eben falls</w>
Produ kte</w>
fra gen</w>
re form</w>
Partn er
gi es</w>
up s</w>
dar in</w>
on n
intro duc
oo l</w>
j e</w>
si ch
S T
tic s</w>
Sozi al
P ak
pf eh
Fran ce</w>
ei cht</w>
z eit
sh ort</w>
e der
o bli
pro z
ch allen
ak ti
Jan u
aus zu
si schen</w>
N a
impro ve</w>
m ate</w>
technolo gy</w>
opport unity</w>
ra ft</w>
Z i
G el
Mark t</w>
h eit
some thing</w>
dar an</w>
a way</w>
Sta ats
T V</w>
custom ers</w>
kti v
. .</w>
enn tn
an c
Situ ation</w>
al though</w>
s weise</w>
ci vi
k ol
er a</w>
A s
Go vern
e as
z eh
Is ra
imple men
1 6</w>
Ver antwor
n am
bar en</w>
addi tion</w>
B .</w>
inter nal</w>
e ver</w>
B em
ro ad</w>
do wn
Er fahr
Ver tre
tei len</w>
etz en</w>
mar k</w>
ti ce</w>
enjo y</w>
ur ing</w>
abo ve</w>
cont act</w>
us sion</w>
W is
techni cal</w>
Dat en
Bei hil
ch ung</w>
c all</w>
te x
vol l</w>
Inter national</w>
ari an</w>
re lev
pre v
l ack</w>
T O</w>
li tt
rapporte ur</w>
ris k</w>
th us</w>
Wor ld</w>
c s</w>
z usam
par ties</w>
ra ther</w>
aff ung</w>
lo ws</w>
ac tions</w>
Por tu
rec ent</w>
h under
K omm
educ ation</w>
G ra
rei ben</w>
Umwel t
umfas sen
lo t</w>
kehr s
da r</w>
ac tu
b zw
ori gin
unter schied
mö glich
st eu
bzw .</w>
in ed</w>
hal t</w>
Lei st
O b
J ap
kämpf ung</w>
An wendung</w>
a y</w>
zusam men</w>
re ali
zu stellen</w>
Ihr en</w>
ta ins</w>
curr ently</w>
N eu
z a</w>
le t
vi ol
äch lich</w>
negoti ations</w>
forder t</w>
to wn</w>
regi ons</w>
on es</w>
ad s</w>
litt le</w>
Person en</w>
ra cy</w>
ta x</w>
programm es</w>
ag ed</w>
H an
ge macht</w>
exc lu
tei le</w>
de sign</w>
pro per
d lichen</w>
alo g</w>
respon sible</w>
ex am
respon sibility</w>
hal tung</w>
ck t</w>
bei spiel
le men</w>
mon ths</w>
un ver
ri cht</w>
o d
versi ty</w>
rati c</w>
gemein samen</w>
poin ts</w>
mo d
li g</w>
trol le</w>
is es</w>
F il
Mein ung</w>
solu tions</w>
Fis cher
ste p</w>
er neu
par t
y a</w>
Kon ta
U hr</w>
Z ah
zah l</w>
gleich zeitig</w>
d ro
Ih r</w>
si tion</w>
la dies</w>
k o</w>
eini gen</w>
ü l
u te</w>
wor t</w>
uni k
fin ally</w>
con trac
Berei chen</w>
Dok u
S y
arbei tet</w>
bin dung</w>
Aus wirkungen</w>
L eben</w>
den ken</w>
wichti ge</w>
di stri
For m</w>
vol u
mon it
Be zug</w>
zeich net</w>
hum anit
m om
betri fft</w>
St abili
so gar</w>
h ouse</w>
un kte</w>
D rit
gent lemen</w>
th ings</w>
rel ated</w>
e ments</w>
Ko sten</w>
sol che</w>
ac tive</w>
require ments</w>
lini en</w>
vi er</w>
Regi onen</w>
k rä
Ver trag</w>
agre e</w>
w ing</w>
chan ges</w>
C or
ten s</w>
ag o</w>
geb racht</w>
cri min
ri chtung</w>
eff izi
e i</w>
g ischen</w>
o k</w>
ep t</w>
v el</w>
Ab kommen</w>
fer enz</w>
mei sten</w>
Tei l
f our</w>
ber u
th an
ih rem</w>
Nov ember</w>
ex pres
ges agt</w>
requi red</w>
So ftware</w>
A N</w>
fun da
Be völk
con sul
fre ed
alo gue</w>
i r</w>
unter nehmen</w>
Ver ordnung</w>
on a</w>
fähi gkeit</w>
i er
lin es</w>
Behör den</w>
princip le</w>
w ün
B ri
unser em</w>
or d</w>
an ts</w>
c ases</w>
cont ent</w>
län dern</w>
Arbeit sp
In tegr
Qu alität</w>
g rupp
c ro
addre ss</w>
j usti
or ing</w>
en cour
Ent schließ
b are</w>
qu ite</w>
ac i
K ö
p ic
proc edure</w>
nach hal
Hot els</w>
mm t</w>
D eb
Re chte</w>
succ ess
gro ups</w>
H ar
manu fac
ne te</w>
am eri
Wel t
appropri ate</w>
mi ght</w>
Vorsch ri
mo sp
si tes</w>
oo ds</w>
per sön
z es</w>
k tur</w>
tion s
develop ing</w>
A gen
por ted</w>
gre ater</w>
n utzen</w>
Verbesser ung</w>
F rüh
Ne w</w>
Kin der</w>
näch sten</w>
Lu x
d ent
pro gra
fü n
ani a</w>
beg inn
demo krati
Gr und</w>
gen au</w>
K an
ari a</w>
ho li
exist ing</w>
ger ade</w>
fun c
ran k
199 9</w>
in o</w>
Er klär
Er fol
indi c
A ir
zei gen</w>
Bür ger
1 .</w>
t ten</w>
gi c</w>
ques tions</w>
F l
el li
li mit
gemein same</w>
an stal
essen tial</w>
au t</w>
re ach
steh enden</w>
tei lt</w>
Ver pfli
K ü
ge geben</w>
hi m</w>
reg ulation</w>
Verhand lungen</w>
bo dy</w>
at h</w>
F est
do ws</w>
E S</w>
car ri
need ed</w>
po wer
Kli ma
o p</w>
comple te</w>
Ab geord
y ers</w>
k li
b ed</w>
se i</w>
A k
oth ers</w>
p ass
Vorsch läge</w>
t em
sp ru
Au ßen
z ung</w>
inde pen
atten tion</w>
M at
amend ments</w>
sho w</w>
ho ch
wür den</w>
ar ti
Ge gen
fi le</w>
mittel n</w>
Entschei dung</w>
ni mmt</w>
co st</w>
pri ces</w>
eas y</w>
li ber
n äm
Rei he</w>
te ten</w>
Präsiden tin</w>
Ab sch
sozi alen</w>
näm lich</w>
imp act</w>
direc t</w>
Ma dam</w>
br ing</w>
t ats
c ame</w>
b s</w>
ma kes</w>
dür fen</w>
ci r
achie ve</w>
po l
fun ds</w>
f ern</w>
bes ser</w>
Mark t
setz t</w>
h ed</w>
än der
A pri
vi c
s einem</w>
a th
net work</w>
difficul t</w>
lo ad</w>
gnis se</w>
C hi
Pre sidency</w>
gel ei
ur en</w>
vor sch
ma ßnahmen</w>
en ds</w>
Bes timm
H ei
Au ff
pre c
ktion s
h u
f ail
Pri v
concern ing</w>
r ates</w>
l ö
m ed</w>
ne ben</w>
si cher</w>
tion ed</w>
cer tain
ver fol
addi tional</w>
li ve</w>
wis sen
ih m</w>
str ong</w>
p tion</w>
Vorschri ften</w>
stand ing</w>
brau chen</w>
gre ich</w>
Apri l</w>
sustain able</w>
Gro ß
Bed ingungen</w>
wle dge</w>
sa che</w>
8 0</w>
se k
pos ed</w>
W ah
beispiel sweise</w>
Ber lin</w>
B ul
Hin blick</w>
gli chen</w>
F i
ven ess</w>
a de
T ür
beau ti
Russi a</w>
on g
no te</w>
ta x
en sive</w>
z immer</w>
Her aus
H aus</w>
nat ural</w>
mit ted</w>
je wei
1 3
f eh
Er weiter
sub stan
schn it
su cht</w>
st ates</w>
po ol</w>
Dienstleist ungen</w>
cle arly</w>
visi t</w>
char ac
1 ,
le ft</w>
C an
direc tly</w>
ad a</w>
her r
publi k</w>
as pec
F rie
gen heiten</w>
Inter esse</w>
gemä ß</w>
an gem
st y
Be ziehungen</w>
erforder lich</w>
pre sen
Aus sprache</w>
ber ücksichti
ber eit
develop ed</w>
M is
Unter neh
kön nten</w>
ma ch
eben so</w>
H inter
li eren</w>
ag ing</w>
lu b</w>
A D
ges timm
low ed</w>
c le</w>
deut lich</w>
O L
gen eh
objec tives</w>
w and
P la
op s</w>
Ges ellschaft</w>
G ol
Au stri
Ge biet</w>
al tern
Ö ff
yo ung</w>
li gen</w>
re la
cap ital</w>
be tra
reas on</w>
c are</w>
li ed</w>
hä lt</w>
W ieder
H i
sp ort</w>
re ma
k einen</w>
simp ly</w>
d au
z ent
fav our</w>
cli mate</w>
am bi
con f
ap art
fre und
kom ple
O n
In nov
har mon
C ol
h y
for men</w>
rel ations</w>
H al
pro gramm</w>
ser ious</w>
D ru
K l
dr in
u n</w>
E L
je den</w>
kom men
ih n</w>
ap er</w>
t in
inde ed</w>
und ed</w>
cent ral</w>
wel t
wer t</w>
ob s</w>
ell eicht</w>
inter est
con text</w>
ver s</w>
min utes</w>
z äh
signific ant</w>
e th
de pen
b an</w>
Steu er
1 7</w>
bi le</w>
wirtschaft liche</w>
vi elleicht</w>
Or t</w>
t or
län der</w>
fort able</w>
Ri si
Grupp e</w>
medi a</w>
de al</w>
c al
A spek
su g
tern al</w>
An sicht</w>
mis sion</w>
utz t</w>
ch ed</w>
s et
M or
S lo
gehör t</w>
bedeu tet</w>
o w</w>
M embers</w>
er reicht</w>
ein ander</w>
d d
assi stance</w>
ex per
mo ve</w>
ach ten</w>
e di
erh eb
H ol
Fortsch ritte</w>
de o</w>
concern s</w>
co ordin
I S</w>
se a</w>
ma il</w>
ben ö
I T</w>
sh are</w>
me et</w>
fri end
N etz
c y
D ie</w>
Re g
ani en</w>
arb eitung</w>
bo ur
ac ross</w>
k lar</w>
Com p
ou ght</w>
en ing</w>
an trag</w>
En gli
pre vi
us es</w>
zü glich</w>
wor ds</w>
re fer
Ges am
ko sten
T at
agre ed</w>
ide al</w>
pe ace</w>
bu s</w>
O N
break fast</w>
al ong</w>
loo king</w>
ni chts</w>
ange si
bil dung</w>
pre p
gesam t</w>
min im
ün sti
stat t
2 2
H ö
P unkt</w>
ec e</w>
Di en
lo k
invol ved</w>
deci sions</w>
p ast</w>
e asi
lä tz
fü r
k ar
be hin
I ra
we der</w>
s ab
con sequ
7 0</w>
hel d</w>
zo gen</w>
di st
up on</w>
kon kre
S al
com bin
Bes u
hal te</w>
wer de</w>
ti veness</w>
ing ly</w>
langu age</w>
ob wohl</w>
Kö ni
ti sche</w>
ma xim
initi ative</w>
äch st</w>
pro mis
kin d</w>
gr ation</w>
Menschen rechte</w>
pro chen</w>
b ark
r ing
ac ts</w>
er hö
F äl
B li
er fül
s po
si eren</w>
ati sti
Ab stimmung</w>
ins gesamt</w>
N ä
ass er</w>
Z us
lon ger</w>
Möglich keiten</w>
e uro</w>
Bei trag</w>
poten tial</w>
ge ts</w>
B ra
mo un
st ation</w>
blei ben</w>
b ra
be half</w>
m ing</w>
stand ard</w>
ch s
internation ale</w>
St ad
work ers</w>
sion s
bet eili
ant ly</w>
zun ächst</w>
av o
U kra
U N</w>
des cri
si a</w>
establish ed</w>
de termin
be sten</w>
stru ktur
Ges etz
tu rel
Ar ticle</w>
Pri or
g ische</w>
ro w</w>
as soci
a di
inter ests</w>
fo reign</w>
it ali
kom p
fre u
pp ed</w>
acti v
integr ation</w>
De velop
Ein zel
s wi
nat ure</w>
ass ess
An gebo
beauti ful</w>
geb ung</w>
em is
ne l</w>
Gemein schafts
ni en</w>
ren ch</w>
fi ve</w>
bal d</w>
freed om</w>
gesam ten</w>
S in
Pro to
. e
yn am
EI B</w>
sch ul
at trac
gemein sam</w>
Forsch ung</w>
Umwel t</w>
objec tive</w>
kre ich</w>
stauran ts</w>
S ol
einzel nen</w>
Be wer
ber eit</w>
requ est</w>
20 0</w>
c ar</w>
tre at
gestimm t</w>
them selves</w>
A c
p an
m ut
m il
vel s</w>
h äl
st ly</w>
facili ties</w>
Ben utz
ent er</w>
Initi ative</w>
ges etz
communic ation</w>
Vereini gten</w>
agre ements</w>
Mu si
gr at
ri st
ver stär
consu mers</w>
tw eit</w>
v o</w>
partn ers</w>
to ok</w>
Ho ch
democ racy</w>
5 00</w>
v a</w>
I tal
g as</w>
a vi
W TO</w>
se en</w>
vot ed</w>
Fran kreich</w>
an a</w>
ac y</w>
Jahr hunder
se par
inst all
b order</w>
Ges chi
ati s
throu gh
Kom p
wel tweit</w>
N o
comm er
Ergeb nisse</w>
su mm
a im</w>
ri chtungen</w>
To ur
ab les</w>
fam ili
com b
notwendi g</w>
sch utz
pa y</w>
wi ll
schn ell</w>
g in</w>
Pro gramm
un a</w>
em er
si tz</w>
situ ated</w>
fin al</w>
f est</w>
ww w
ver stän
angesi chts</w>
F rench</w>
di gen</w>
Geri cht
dan ken</w>
democ ratic</w>
tain ed</w>
sh of</w>
Demokrati e</w>
k s
f onds</w>
g ungs
Mitglie der</w>
h ot
St re
d on
verwen det</w>
ser ve</w>
glau be</w>
r .</w>
even ts</w>
et te</w>
st et</w>
Verantwor tung</w>
op tim
A G</w>
re ly</w>
Justi ce</w>
F eh
m ern</w>
schließ en</w>
W ähr
E G</w>
B ro
sp ace</w>
consi der</w>
so on</w>
prü fen</w>
vor zu
st ate
Institu tionen</w>
K at
he art</w>
e arly</w>
1 9</w>
per son</w>
n ed</w>
Stru ktur
5 .
je des</w>
för dern</w>
P f
e ch
C as
hö ch
stan den</w>
Inform ations
j obs</w>
t liche</w>
bekan nt</w>
ta kes</w>
weiter en</w>
in te
de mon
cor rec
c ateg
partn er</w>
Ital y</w>
app ly</w>
ne ar</w>
ke ep</w>
c aus
al most</w>
Investi tionen</w>
fall en</w>
re staurant</w>
T ä
S ti
le ad</w>
ständi gen</w>
gu ests</w>
Verbrau cher</w>
P rü
Richt ung</w>
Dis k
jo int</w>
R at
fü h
ak zep
P lan
ä d
je de</w>
m es</w>
sm us</w>
vi ces</w>
sicher heit</w>
ne g
z one</w>
di alogue</w>
S or
entwick elt</w>
N ieder
ver antwor
ch e
c la
zu dem</w>
tä ts
Re public</w>
design ed</w>
ni ght</w>
Gener al</w>
Sch affung</w>
D ank</w>
mb H</w>
le b
c op
enn ung</w>
dar um</w>
through out</w>
a gi
ermögli cht</w>
s eh
f ran
Sp ain</w>
en lar
verschieden e</w>
sch t</w>
lan ge</w>
www .
p ment</w>
wi l
verbesser n</w>
S pe
li k
benef it</w>
en ough</w>
bed ingungen</w>
pri ority</w>
grei fen</w>
effec t</w>
sieh t</w>
Off ice</w>
ev ent</w>
t i</w>
sei ts</w>
funda mental</w>
In n
2 1</w>
K ommission
Be kämpfung</w>
4 .
gen u
st adt</w>
Wachst um</w>
ac ity</w>
t est</w>
amoun t</w>
T H
E M
D ar
Land wirtschaft</w>
relev ant</w>
glei chen</w>
da durch</w>
Develop ment</w>
Sch ritt</w>
in fra
co ver</w>
lu s</w>
mo di
friend ly</w>
la un
K ur
ger ä
Lu ft
con om
t ory</w>
bi g</w>
Bul g
off en
hel fen</w>
Energi e
h on
ti vely</w>
tr a</w>
ter ror
M inu
entschei den
hin sichtlich</w>
W asser
tr au
Govern ment</w>
f air</w>
vel op</w>
N et
ei ther</w>
deci ded</w>
p ages</w>
im medi
fe el</w>
R A
spe ak
fun ktion
ges ellschaft</w>
un abhängi
zi el
cre ated</w>
ru n</w>
emp ha
s atis
E conom
spiel en</w>
de velop</w>
Ge f
j eni
V iel
gegen wär
ell ing</w>
Ergeb nis</w>
sch wieri
ger ungen</w>
Win dows</w>
regar ding</w>
con ven
wes en</w>
Über ein
r und</w>
0 ,
G mbH</w>
häl tn
Bevölk erung</w>
ga b</w>
I M
hist ory</w>
extre m
an genommen</w>
gen ie
tre ffen</w>
ent sp
promo te</w>
materi al</w>
min d</w>
pop ulation</w>
A P</w>
wichti gsten</w>
Hand els
lat er</w>
kno wledge</w>
sch utz</w>
R uss
an o</w>
Re publik</w>
Inform ation</w>
de p
cent ury</w>
Ges ch
L on
sch ö
lä ssi
Ein k
s st</w>
Mit arbei
agri cultural</w>
O c
out side</w>
ne ver</w>
g ations</w>
m al
sh ed</w>
we den</w>
f unding</w>
Portu gal</w>
ge stal
succ ess</w>
sp or
f s
fol low</w>
K oh
le ading</w>
ex change</w>
bo ard</w>
sta ge</w>
K amp
er ed</w>
t är
fer ner</w>
ment ary</w>
ord ini
D E</w>
g ungen</w>
f rie
201 3</w>
lin ks</w>
an nu
g oods</w>
sour c
commit ment</w>
b on</w>
Wis sen
o ft</w>
Angele genheiten</w>
maj ority</w>
ständi ge</w>
Wettbewer b</w>
par ts</w>
Lux em
2 7</w>
Gesund heits
S am
schein t</w>
Ma il</w>
le vels</w>
Z w
Kon trolle</w>
Jah res</w>
ri ch</w>
pra kti
I de
Er zeu
g ei
ref lec
Ukra ine</w>
sour ce</w>
zuneh men</w>
An wen
Tur key</w>
än de</w>
rei che</w>
eb ru
Deb atte</w>
Li ste</w>
Rechts vorschriften</w>
kl einen</w>
Nä he</w>
re main</w>
Re staurant</w>
re p
su per
increas ed</w>
li ving</w>
b au
Gesund heit</w>
ic s</w>
Bestimm ungen</w>
recei ve</w>
ci ples</w>
te am</w>
Änderungs ant
inclu ded</w>
st ep
re ach</w>
every thing</w>
f lu
än dern</w>
cap acity</w>
be w
schri ft
W il
s ent</w>
ke i</w>
D ol
Beschäf tigung</w>
Jap an</w>
tats ächlich</w>
F ühr
sch ön
com fortable</w>
us ers</w>
mehr ere</w>
Ge or
T ri
sp rä
wichti gen</w>
sub si
Erweiter ung</w>
än dert</w>
con fir
du res</w>
c amp
ag er</w>
bark eit</w>
K or
k er
trä ge</w>
ar ing</w>
typ e</w>
li cht</w>
K rie
sam keit</w>
19 7
geri chtet</w>
ä lt</w>
F ebru
ho ffe</w>
lo se</w>
ein schließlich</w>
ah n</w>
Isra el</w>
ar ri
foc us</w>
pl ann
ge eig
ter rit
ges prochen</w>
F er
am es</w>
in ation</w>
ch ern</w>
cher weise</w>
boo k</w>
Integr ation</w>
ot s</w>
w at
S an
Mo d
gef ähr
K rise</w>
st elle</w>
h ard</w>
Projek t</w>
pack age</w>
off i
ta g</w>
ss el</w>
gan genen</w>
sci enti
me t</w>
h atten</w>
use um</w>
extrem ely</w>
Par is</w>
prac tice</w>
Pre is</w>
bu tion</w>
ver ur
Kol leg
Nutz ung</w>
fo re
perform ance</w>
et c</w>
proce dures</w>
in en</w>
E l
limit ed</w>
Han del</w>
d ele
Tür kei</w>
p e</w>
verfü gt</w>
betre ff
fort un
te m</w>
tru e</w>
P at
high er</w>
wo bei</w>
som it</w>
gri ff</w>
Projek te</w>
g a</w>
äh ri
st ern</w>
ter ran
äu ßer
kan ischen</w>
conf lic
re a</w>
H af
Jun e</w>
sen d</w>
9 0</w>
ch eck</w>
F ri
civi l</w>
be hör
h tt
c ru
A gre
jeni gen</w>
v in
gehör en</w>
s sel
sor gen</w>
gan gen</w>
acc ord
Ver einbar
weni g</w>
st a</w>
P rin
199 8</w>
Aussch uss</w>
guaran tee</w>
Geschi chte</w>
provi sions</w>
inclu des</w>
Li ber
Herr en</w>
prin ciples</w>
si dent
comm unity</w>
than ks</w>
er seits</w>
G ele
men d</w>
ex ternal</w>
ck ing</w>
ch oo
tion ing</w>
bel ow</w>
H om
is en</w>
ne u</w>
s la
c at
verk ehr</w>
g ers</w>
y si
sur ro
th ern</w>
ro ati
be finden</w>
2 2</w>
ander er</w>
is ches</w>
pre par
bi r
ber g</w>
redu ce</w>
enth ält</w>
g ur
G leich
construc tion</w>
Em pfeh
li ance</w>
S outh</w>
R au
fi ght</w>
treat ment</w>
Industri e</w>
o wn
tu al</w>
si bili
ermögli chen</w>
Ver sion</w>
c are
ac comm
gen der</w>
A ktiv
und es
ri chten</w>
sp i
ba sic</w>
bet ro
ar in</w>
zi ert</w>
we ek
blei bt</w>
H a
uni que</w>
F lü
öffent liche</w>
lei der</w>
den ts</w>
z .
gewähr leisten</w>
C hr
consu mer</w>
wer k</w>
A T</w>
syst em
Pu bli
ali sation</w>
genann ten</w>
sozi ale</w>
kom mens</w>
mini ster</w>
Ver wendung</w>
is ing</w>
mo bili
opport unities</w>
D I
conc ern</w>
z en
a da
ab zu
s em
supp ly</w>
B re
s ag
W al
pre h
j ähri
buil t</w>
cli ck</w>
war um</w>
Ameri can</w>
lä sst</w>
ch em
Ih rem</w>
Arbeitsp lätz
j un
Auf gabe</w>
ati v</w>
Lis bon</w>
F ern
stat tet</w>
sieh e</w>
manufac tur
über sch
Erklär ung</w>
K enntn
K am
kon nte</w>
ti v</w>
Erfol g</w>
Z ei
mu sic</w>
pr ise</w>
f al
Ein satz</w>
S at
dem and</w>
fol ge</w>
partn er
Qu ali
industri al</w>
je dem</w>
P a
men tioned</w>
htt p</w>
Mitgli ed</w>
hä tte</w>
organis ation</w>
actu ally</w>
T he
b ly</w>
m as
Ant wort</w>
wen den</w>
G lob
ür z
achie ved</w>
an ish</w>
s m</w>
le gung</w>
plat z</w>
Öff ent
fün f</w>
bestimm te</w>
Su b
ver bin
h ous
suff ici
recei ved</w>
Ein führung</w>
uni on</w>
cre ation</w>
Itali en</w>
B ur
demon str
S el
Lis sab
in tel
bes u
Jun i</w>
f s</w>
equi pment</w>
ei gent
ed ri
ung sp
rä u
li gh
M et
schaft lichen</w>
c ross</w>
ast ro
re stric
a den</w>
rec ently</w>
it ing</w>
un ds</w>
Regi on
present ed</w>
port ing</w>
M as
tei en</w>
w ahl</w>
kl eine</w>
cent er</w>
innov ative</w>
Aus druck</w>
ep tion</w>
u ally</w>
Ver kehrs
provi ding</w>
connec tion</w>
be deut
k or
ad ded</w>
we ek</w>
contribu tion</w>
ge ments</w>
mili tary</w>
h äu
ab led</w>
D amen</w>
Tat sache</w>
gli che</w>
reco gni
Woh n
Al l
bis her</w>
profession al</w>
inter net</w>
K ri
ru hi
l d
tradi tional</w>
Partn er</w>
Mit teilung</w>
rele ase</w>
ss es</w>
do ing</w>
ser ved</w>
o se</w>
Stell ung
enth alten</w>
b l
k i</w>
C u
20 20</w>
vol le</w>
c ard</w>
el ess</w>
con stitu
col le
P e
Ameri ca</w>
el ten</w>
sen den</w>
be ach</w>
lang fris
f rü
pf lich
re ports</w>
ide a</w>
li ert</w>
f lä
an no
al lows</w>
Con vention</w>
carri ed</w>
men ten</w>
bei tragen</w>
ke y
am a</w>
ph ot
increas ing</w>
di gung</w>
E ff
y l
su m
J oh
feat ures</w>
man n</w>
tra ff
under stand</w>
f assung</w>
Lon don</w>
I L
er c
m als</w>
gar anti
sourc en</w>
Kon zep
ad d</w>
Komm unik
ver hin
ve hi
proc ess
Bil dung</w>
Bet eili
b illion</w>
Berichterstat ter</w>
ne w
geh end</w>
x ed</w>
Wei ter
tig ungs
set ting</w>
s mo
applic ations</w>
effici ent</w>
for dern</w>
er lau
accep t</w>
er inn
success ful</w>
lan gen</w>
Mi ch
B us
Bar cel
gen t</w>
er le
z. B.</w>
4 5</w>
jo b</w>
Z ahl</w>
we b</w>
dra ft</w>
Regi erungen</w>
en or
B undes
t ent</w>
De z
Früh st
mi gration</w>
Lan des</w>
vi r
respon se</w>
A gr
Minu ten</w>
Z entrum</w>
consider ed</w>
Dec ember</w>
ver ti
inte gri
certain ly</w>
bal ance</w>
Sp anien</w>
G rie
E ast</w>
Unter su
E ra
h or
Di alog</w>
progra m</w>
3 0
ste ad</w>
me an
annu al</w>
re view</w>
c am
qui ck
n s</w>
w ed</w>
st ability</w>
des p
K rank
defin i
S an</w>
re ich</w>
H ung
par ty</w>
ho urs</w>
B rü
Re form</w>
effec ts</w>
201 1</w>
s ett
e e</w>
K ir
Z im
wei s</w>
guaran te
d or
C D</w>
speci ali
pur ch
c riteri
ru s</w>
ein g</w>
ti ger</w>
Ver bindung</w>
D en
re turn</w>
Re cht
z er</w>
ver einbar
g ol
ei en</w>
be züglich</w>
reas ons</w>
ch ter</w>
bi an</w>
z z
sch le
fam ous</w>
enlar gement</w>
Cent ral</w>
se ts</w>
Vor aus
l ation</w>
Au g
3 5</w>
199 7</w>
wäh len</w>
com preh
Mini ster
st or
reli gi
heri es</w>
ver öffent
re ad</w>
sch es</w>
On line</w>
Russ land</w>
prev ent</w>
nation ale</w>
Auff assung</w>
ati c</w>
Bli ck</w>
g ül
2 9
en able</w>
Ir an</w>
an ischen</w>
back ground</w>
le h
si ze</w>
valu es</w>
g t
sätz e</w>
pl ant</w>
Afri ca</w>
2 3</w>
sel ec
äh n
custom er</w>
P an
syst eme</w>
wä l
Hinter grund</w>
Bem üh
pro mot
ei gen
do m</w>
Not wendi
in stead</w>
Par k</w>
auf zu
europ a
Dez ember</w>
grund le
de ten</w>
ha ps</w>
ut y</w>
in ge</w>
Lös ungen</w>
be stä
a ware</w>
fi k
S E</w>
län di
cho ice</w>
j ün
kul turel
bestimm ten</w>
deta ils</w>
govern ments</w>
d est</w>
l auf
inten si
is on</w>
lat est</w>
ür f
über zeu
d aten</w>
stell ungen</w>
p le</w>
per haps</w>
wur f</w>
ver pflich
L eit
j ähr
co de</w>
St är
dd le</w>
O ber
Agre ement</w>
ren e
de si
So li
no thing</w>
cover ed</w>
le gi
mo del</w>
so ft</w>
ko sten</w>
m es
b a</w>
lu x
Ener gie</w>
rit ts
fil es</w>
aspec ts</w>
t oren</w>
E W
är en</w>
U R
h of</w>
Them en</w>
comp et
challen ges</w>
er wäh
n it
ra di
am s</w>
con duc
M il
g ste</w>
d ates</w>
ar d
Gr enz
verb unden</w>
be stehen</w>
form er</w>
In fra
c as
A f
Organis ation</w>
reach ed</w>
Ver anstal
lab our</w>
häu fi
sub mitted</w>
re mo
M al</w>
inf lu
Z wei
S en
verfü g
t lichen</w>
d liche</w>
e chti
perf ect</w>
P C</w>
sek tor</w>
setz ungen</w>
F ar
entwick eln</w>
Bemüh ungen</w>
M ot
tel y</w>
origin al</w>
rema ins</w>
ele gan
an ten</w>
par k</w>
selb st
o .</w>
Gi pf
la g
en ed</w>
ck e</w>
over all</w>
einf a
it able</w>
tim men</w>
saf e</w>
fol genden</w>
I ON</w>
t ol
d ynam
e vi
o u</w>
r un
zus etzen</w>
hand eln</w>
G eld</w>
tradi tion
t sp
Aug ust</w>
hin zu
Ko so
serv ation</w>
Änder ungen</w>
stell er</w>
desp ite</w>
accomm od
tro tz</w>
elec tri
Sch wei
ar ran
b auen</w>
Ge wal
H um
Bel gi
neu er</w>
sk i</w>
pre ci
U K</w>
mom ent</w>
innov ation</w>
previ ous</w>
Gele genheit</w>
F und</w>
nu clear</w>
w under
Lissab on</w>
ges ell
benef its</w>
boo k
ha f
Kon fli
o il</w>
mäßi g</w>
disc uss
den ke</w>
bie te</w>
si mi
step s</w>
Gericht shof</w>
er e
streng th
F ach
Ni cht
O k
Mitgliedsta at</w>
olo gical</w>
Kommiss arin</w>
li er</w>
er sch
Plat z</w>
x is</w>
Man agement</w>
po pu
organis ations</w>
Engli sh</w>
F eder
sti c</w>
er zeu
F ot
zeh n</w>
m ise</w>
st eri
Econom ic</w>
zur ück</w>
Notwendi gkeit</w>
E F
ge k
instru ments</w>
recom mend
sho ws</w>
comm ittee</w>
colle ag
Nat ur
as ked</w>
m ein</w>
rou ght</w>
Öffent lichkeit</w>
I D
e valu
frei en</w>
2 5
do or</w>
Reg ulation</w>
commer cial</w>
sec tors</w>
lo ss</w>
n a</w>
hr en</w>
M än
ger ne</w>
n er
H am
l y
an te</w>
Ur lau
ti ven</w>
t ari
sto p</w>
Barcel ona</w>
re chts
finan cing</w>
w inn
dou ble</w>
u es</w>
3 5
Drit t
sch ätz
anno un
m em
fun den</w>
di enen</w>
Proto kol
ni ce</w>
Austri a</w>
wal k</w>
A ra
writ ing</w>
richti g</w>
St at
Kul tur
terran ean</w>
unser es</w>
p al
ü bri
zah len</w>
be zieh
Gre ece</w>
p un
Ber at
comple tely</w>
ti sh</w>
Tran spar
be kommen</w>
every one</w>
M ad
acc ession</w>
Zeit punkt</w>
f ru
Tag es
medi um</w>
........ ........
r at</w>
mo bile</w>
wa ste</w>
Ma i</w>
ach es</w>
ra ce</w>
con ference</w>
ver letz
fis hing</w>
N ational</w>
Kolleg innen</w>
Beh and
choo se</w>
stru ktur</w>
Pro f
hei ßt</w>
et ary</w>
wan n</w>
Inter essen</w>
simp le</w>
D P</w>
quick ly</w>
Vol ks
An aly
fron t</w>
fur ther
er ster</w>
ss em
Kul tur</w>
Z entr
Forsch ungs
B ar</w>
w ise</w>
pur su
ein heit
Inv est
eff ek
europä ischer</w>
fre i</w>
ple as
Rah men
men sion</w>
con tains</w>
wei ß</w>
arch it
Grie chen
Kap it
h ung</w>
pos sibility</w>
f eld</w>
mat ters</w>
L a</w>
g ame</w>
sam m
S h
fran zö
it es</w>
Agr ar
mo vement</w>
sti e
g ünsti
ser ies</w>
bil ater
an gebo
gen au
Durch führung</w>
Hö he</w>
de te</w>
equi pped</w>
spezi f
m us
tra vel</w>
exp ected</w>
schließ end</w>
Auf enth
ap poin
nach dem</w>
We b</w>
ant i</w>
Kommission s
2 8</w>
E T
3 00</w>
stat us</w>
Konta kt</w>
beginn ing</w>
F a
Finanzi erung</w>
gesch i
h es</w>
los sen
high ly</w>
Schl uss
fortun ately</w>
sch lä
bei de</w>
il ed</w>
Grün den</w>
ver tre
ni edri
äu ß
t ritt</w>
holi day</w>
si x</w>
c les</w>
Änderungsant räge</w>
6 .
legisl ative</w>
agen da</w>
ho ben</w>
off ice</w>
m einen</w>
fol gerungen</w>
sen se</w>
S P
199 6</w>
hau p
pri m
enti re</w>
t le</w>
verfü gen</w>
Mar ch</w>
riteri en</w>
Änderungs antrag</w>
amend ment</w>
Schl ussel
ri eb
Koso vo</w>
si sche</w>
simi lar</w>
K u
ho hen</w>
S um
zwei ten</w>
Regel n</w>
tain ing</w>
A M
A P
Medi terranean</w>
ti mi
ba si
zahl reiche</w>
o cc
ff enen</w>
infra structure</w>
contribu te</w>
durch geführt</w>
conclu sions</w>
nei gh
indepen dent</w>
Aussch usses</w>
on nen</w>
protec t</w>
b ad</w>
ab solu
re land</w>
cle an</w>
gel ten</w>
reg ards</w>
Entschließ ung</w>
D ele
Ma ß
sup ported</w>
spru ch</w>
hot els</w>
sec on
pri orities</w>
bili tät</w>
Abgeord neten</w>
u ß</w>
Am ster
Verpfli chtungen</w>
Kon ferenz</w>
k ap
Gesam t
pro mise</w>
ru le</w>
Fo reign</w>
E G
C a
Fischer ei
spä ter</w>
zent ri
an ge</w>
Tex t</w>
pur pose</w>
fun ction</w>
ch sel
ba th
c ou
I reland</w>
Binnen markt</w>
stim men</w>
ra h
gt ;</w>
201 2</w>
& gt;</w>
b it</w>
Sec re
groß er</w>
bes chäf
N o</w>
ss ed</w>
O S</w>
st ar</w>
verwen den</w>
la den</w>
Ar bei
ill a</w>
ei gene</w>
ges p
del ines</w>
e y
ver ab
Ma y</w>
An fang</w>
In st
criteri a</w>
activ ity</w>
further more</w>
monit oring</w>
gan zen</w>
E D</w>
ri eben</w>
e .
verstän dlich</w>
mo re
gel an
let ter</w>
so und</w>
Proz ess</w>
Berei che</w>
vor han
sident schaft</w>
ur i
ord n
Geb äu
T ele
ab ge
busin esses</w>
at ure</w>
Soli dar
aus ch</w>
lo g
Ber u
ussel s</w>
zeu ge</w>
be vor</w>
le di
disp la
Ter ror
disc ussion</w>
Pre ise</w>
char ge</w>
reib ung</w>
Kre di
tro ll
con ver
l ing
re in
Mär z</w>
M ul
m y
in i</w>
reduc tion</w>
k it
W ert</w>
Angebo t</w>
bour g</w>
M ic
er kan
sty le</w>
Wo che</w>
s ent
ni e</w>
er enden</w>
Entschei dungen</w>
tr auen</w>
Sch wer
Re chn
Mi o.</w>
möglich keiten</w>
l te</w>
oc cu
em pf
Mon aten</w>
I N</w>
B usin
transpar ency</w>
Beihil fen</w>
Br ussels</w>
V en
star k</w>
ac qu
An forderungen</w>
di ent</w>
Poli cy</w>
Me tho
me an</w>
exp lo
integr ated</w>
sor gung</w>
effici ency</w>
er ter</w>
zwei te</w>
re gu
en gen</w>
den s</w>
Oc tober</w>
ent de
L auf
pas sen
ledi glich</w>
is se</w>
k a
s ou
sibili ties</w>
wir ken</w>
wi der
sh or
sp ac
materi als</w>
cre ating</w>
re si
Ö ster
en di
comp uter</w>
Mat eri
we g</w>
m m</w>
Spe zi
more over</w>
7 5</w>
st atisti
ver age</w>
stu dy</w>
ast ern</w>
s el</w>
Ei gen
cre dit</w>
199 5</w>
presen ts</w>
kon zentri
distri bution</w>
ati v
wh ose</w>
ima ge</w>
R ot
ori en</w>
S ter
di e
K a
prac tic
at mosp
ein deu
stric t</w>
sag te</w>
B ü
gi e
den noch</w>
s al
ec k
person s</w>
pa yment</w>
clo sed</w>
jo ur
S omm
ari es</w>
d .</w>
genie ßen</w>
gan ze</w>
docu ment</w>
ve ments</w>
implemen ted</w>
ri cht
m eines</w>
O per
A dre
Janu ary</w>
b rought</w>
hal ten
, 000</w>
shi ps</w>
ho he</w>
b ase</w>
P lan</w>
con grat
d rit
Syst ems</w>
se ems</w>
ac ks</w>
br ingt</w>
elec tron
An zahl</w>
Wettbewerbs fähigkeit</w>
St äd
Aktiv itäten</w>
tä ten</w>
dis crimin
zi eren</w>
W ahr
C ap
Vertre ter</w>
er weiter
plac ed</w>
congrat ul
b ür
F ak
ber s</w>
Heraus forderungen</w>
A S</w>
plac es</w>
stell ten</w>
ill s</w>
s cre
ar gu
imple ment</w>
publi shed</w>
gesam te</w>
G eh
ge m</w>
sho wn</w>
öff net</w>
call s</w>
an z</w>
A pp
t op
prep ared</w>
comple x</w>
zei chnung</w>
vo c
ver gangenen</w>
R aum</w>
pl ans</w>
si t
s ex
lin k</w>
fol gt</w>
Ju ly</w>
ade qu
St unden</w>
au di
Agen da</w>
k lu
gi ves</w>
K ra
der zei
compreh ensive</w>
appro ved</w>
wichti ger</w>
ec u
A ktion
re forms</w>
19 6
hu ge</w>
assess ment</w>
De sign</w>
c las
l ück
West ern</w>
behin d</w>
f air
s yn
R a
Af gh
ü b
gu ten</w>
ver se</w>
ul i</w>
ih res</w>
h äre</w>
po ver
pres sure</w>
Transpar enz</w>
dig ital</w>
a cht
c um
struc tural</w>
kli cken</w>
lar gest</w>
E st
H el
kon trol
F eri
can di
T ro
. h
i sts</w>
mit gli
st an</w>
ter in</w>
Mitarbei ter</w>
initi atives</w>
F le
ans wer</w>
n or</w>
di se
n ö
völ lig</w>
N ationen</w>
2 6</w>
writ ten</w>
streng ungen</w>
dra w</w>
eff ort</w>
Priv at
ge tary</w>
an g
zei chn
on t</w>
ein gesch
k an</w>
tig keiten</w>
ab kommen</w>
größ ten</w>
Ho st
angem essen
nah m</w>
pl om
produc ed</w>
w ander
p aid</w>
direc tion</w>
Kenntn is</w>
proz ess</w>
Aus wahl</w>
k at
app lied</w>
ent ed</w>
re sol
Über wach
Ok tober</w>
ph ysi
T age</w>
offi cial</w>
sch ütz
emplo ye
vorgesch la
dis ku
proper ty</w>
competi tive</w>
leist et</w>
requ ire</w>
erneu t</w>
un e</w>
verab schie
A p
Produ ktion</w>
al ing</w>
D F</w>
gu est</w>
D V
7 .
prü ft</w>
C re
ol l
sch wer
enn t</w>
I n</w>
docu ments</w>
Ver ein
V o
K ern
analy sis</w>
k eits
impro ving</w>
k i
ge funden</w>
elek tron
as su
Itali an</w>
f alt</w>
ver wal
reas on
geneh mi
Amster dam</w>
ne tz
minim um</w>
Bil d</w>
establi sh</w>
Innov ation</w>
N ation
Mehr heit</w>
ein gesetzt</w>
stell te</w>
re views</w>
ver treten</w>
för dert</w>
Erfahr ung</w>
administr ative</w>
A G
po st
ti li
a men
T ab
Griechen land</w>
Gener al
rel ation
wei s
Par teien</w>
Y or
Stellung nahme</w>
spe ed</w>
sol chen</w>
pro jek
besser e</w>
part ment</w>
ap i
Stand punkt</w>
y ond</w>
Bri tish</w>
geb aut</w>
Stu di
soli dar
Ser ver</w>
Poli tik
Sch la
requi res</w>
L eu
un mittel
sei te</w>
f lü
vi deo</w>
oper ating</w>
besch rän
erk ennen</w>
T im
p ul
Fol gen</w>
Per son</w>
Fäl len</w>
att emp
ob vi
c ell
l ate</w>
Organis ationen</w>
A K
fi el
on y</w>
ve au</w>
sch luss</w>
Er n
buil d</w>
te sten</w>
fre qu
auf genommen</w>
ter i
opp ing</w>
E ini
O st
v an</w>
sel y</w>
K raft</w>
lo wer</w>
st ausch</w>
b ran
M y
W ort</w>
technolo gies</w>
fas sen</w>
Nor th</w>
ser ver</w>
all ein</w>
fol gende</w>
k am</w>
So cial</w>
K ing
W asser</w>
T it
Nach bar
pos t</w>
re pe
Uni versi
m är
opp el
Famili e</w>
Än derung</w>
gn is</w>
Verbrau cher
äußer st</w>
lea ve</w>
W ahl</w>
regul ations</w>
sign ed</w>
si des</w>
Sp ei
comp on
bal an
einf ach
Regel ung</w>
to ols</w>
Janu ar</w>
Te am</w>
St o
stand s</w>
suffici ent</w>
Kamp f</w>
spr ün
grow ing</w>
pover ty</w>
W erk
kan n
key word</w>
H and</w>
J uli</w>
equ al</w>
kur z</w>
rel ation</w>
li eb
br ing
te i</w>
rie b</w>
ge wis
be yond</w>
stan ces</w>
scienti fic</w>
easi ly</w>
hi bi
Wir k
st ung</w>
Sch utz
Pre is
ele ments</w>
t ou
mu t</w>
por ate</w>
zi p</w>
entsprech enden</w>
ban ks</w>
altern ative</w>
.e u</w>
R ec
V is
wei st</w>
un fortunately</w>
ph one</w>
pos es</w>
e te</w>
E is
C ity</w>
wer s</w>
flo or</w>
E mis
accord ance</w>
An satz</w>
p ing</w>
S wi
summ er</w>
competi tiveness</w>
s äm
kur z
lik ely</w>
ge tro
as sen</w>
th y</w>
bew us
An strengungen</w>
gew öh
V al
se ek
erzi elt</w>
Spra che</w>
S onder
en ding</w>
As soci
Mic ro
Gr enzen</w>
bet rä
L es
L inu
eh em
stän de</w>
größ te</w>
2 ,
ander em</w>
produ ce</w>
ni em
Sp anish</w>
ek t</w>
le y</w>
Zeit raum</w>
pa y
accommod ation</w>
emis sions</w>
Te chni
ens uring</w>
Präsiden ten</w>
ó n</w>
sho p</w>
2 3
d an</w>
popu lar</w>
L ab
berücksichti gt</w>
Ch rist
D es
zu führen</w>
er ous</w>
li ge</w>
pro b
Verwal tungs
bi o
ari ly</w>
P ot
C am
ver stehen</w>
gen ce</w>
St elle</w>
wi esen</w>
state ment</w>
m and
pr ises</w>
s us
ur ance</w>
entsprech end</w>
Sch lü
avo id</w>
Brü ssel</w>
b ahn
B ot
Pol and</w>
cur ren
ö ri
gra phi
u l</w>
no ti
r ural</w>
particip ation</w>
facili t
h eb
ä st
verpflich tet</w>
kri mini
le gt</w>
inter pre
S A</w>
C ha
Res sourcen</w>
streng then</w>
por ary</w>
Aut om
Gef ahr</w>
sat z
n ommen</w>
H oh
wer t
par lia
b and</w>
fas st</w>
c ement</w>
Fran k
C i
fest gelegt</w>
us sions</w>
Vor sitz
8 .
Sch ritte</w>
instru ment</w>
agri culture</w>
en se</w>
bi a</w>
v ent
Gewal t</w>
Ver tei
lat er
fil m</w>
air port</w>
Po sition</w>
Verwal tung</w>
al lowed</w>
An nahme</w>
viol ence</w>
star ted</w>
Sel b
ver l
geh öri
be sitz
H y
S c
besch lossen</w>
ck er</w>
I F
conflic t</w>
elec tions</w>
exp la
S ing
b all</w>
P hi
Mittel me
D om
categ ories</w>
ver suchen</w>
Secre tary</w>
staat lichen</w>
vi er
lie genden</w>
p ati
ell a</w>
wi d
sta g</w>
man ent</w>
en a</w>
institu tion
ab sol
ill ed</w>
C ze
in en
Programm s</w>
aim s</w>
D ER</w>
Fun ktion</w>
m einem</w>
F ähi
T sch
strate gic</w>
gesch affen</w>
ori c</w>
bu ff
lei cht</w>
K op
Sch wieri
inf rin
s cri
auth or
z in
olo gy</w>
sta aten</w>
op tion</w>
Ser vices</w>
grupp e</w>
ur sprün
tar get</w>
P unkte</w>
st ens</w>
De bian</w>
wer te</w>
änder ungen</w>
ic k</w>
W est</w>
Vertra gs
inter ess
re ference</w>
di tion</w>
Ger ä
gi ving</w>
Auf merk
sc ope</w>
kon nten</w>
ob il
um s
pro fi
ju d
re siden
il legal</w>
allgem einen</w>
cru cial</w>
se chs</w>
qu ar
lich ung</w>
Milli ar
Um gebung</w>
men sch
gi gen</w>
Zentr al
wür di
Wah l
drück lich</w>
co he
Gel d
Busin ess</w>
is ation</w>
Ri ghts</w>
conc entr
ck et</w>
spe ak</w>
Bed ürf
ser i
Bu d
Me er</w>
techn ischen</w>
stoff e</w>
Ju gend
ir gend
Re formen</w>
3 1</w>
hervor ra
einzi ge</w>
sen si
Medi en</w>
Gä ste
Her zen</w>
t al</w>
f ts
vol len</w>
represent atives</w>
wei ten</w>
wei t
nis sen</w>
Linu x</w>
ges sen</w>
2 4
ge ogra
se kre
o ther
mp tion</w>
Aspek te</w>
atmosp here</w>
t au
si en</w>
er gän
humanit arian</w>
vor gelegt</w>
hol d</w>
Nat ur</w>
prac tical</w>
Hot el
or g</w>
O M
län g
open ing</w>
cre di
wün schen</w>
Aufmerk samkeit</w>
ch ing</w>
ex tra</w>
z ing</w>
die jenigen</w>
Arbeit nehmer</w>
kl ar
eh er</w>
accep table</w>
st ark
O pf
th ous
institu tional</w>
dam age</w>
to ol</w>
O ri
En ter
impro ved</w>
p lus</w>
Stad t
i erung</w>
King dom</w>
rel ating</w>
ob en</w>
ing .com</w>
typ es</w>
Behand lung</w>
ple ased</w>
Con ference</w>
u t</w>
sch ool</w>
schrift lich</w>
R O</w>
l ten</w>
ch em</w>
Ein richtung</w>
adop tion</w>
st able</w>
H aus
führ te</w>
L at
apart ment</w>
jewei ligen</w>
g yp
Köni greich</w>
maxim um</w>
krä f
l us
advan tage</w>
ehem ali
empha si
ci a</w>
TH E</w>
O S
speci fic
fi z
Cent re</w>
ci ties</w>
Sin ne</w>
2 9</w>
partner ship</w>
gri ffen</w>
au ber
fahr t</w>
develop ments</w>
Ne ther
prä sen
B as
region alen</w>
lab or
be stehenden</w>
ha fen</w>
techn ische</w>
off izi
aff ected</w>
C li
ateg orien</w>
es si
k ro
s th
far mers</w>
tra g
B lu
for ces</w>
Lin ie</w>
Sec urity</w>
re chts</w>
ti e
ausge stattet</w>
vari ety</w>
Schluss folgerungen</w>
Bet rieb
außer halb</w>
Mark et</w>
be ziehen</w>
v ali
Bür gern</w>
zu frie
Al b
l am
j ahr</w>
trans fer</w>
vorgesch lagen</w>
T u
hil fe</w>
a war
Frei heit</w>
fäl le</w>
P H
vor gesehen</w>
A B
m bo
L it
deut schen</w>
mes sage</w>
im pres
aim ed</w>
solidar ity</w>
wahr schein
hin ter</w>
O F</w>
k en
staat liche</w>
Erfahr ungen</w>
t ask</w>
b y
st lichen</w>
bud getary</w>
si gkeit</w>
ut ting</w>
Gä ste</w>
0 9</w>
sec tion</w>
terror ism</w>
commit ted</w>
gewöh n
st ab
c r
is land</w>
ei l</w>
mark s</w>
D ro
selbst verständlich</w>
cohe sion</w>
oper ate</w>
conven i
S onn
consequ ences</w>
down load</w>
I V</w>
Tran s
aktu ellen</w>
au er</w>
vic ti
read ing</w>
so fern</w>
star ting</w>
0 1</w>
zwei tens</w>
high est</w>
ro r</w>
Pal est
-- --
ätz e</w>
off ered</w>
b ru
o ber
Nether lands</w>
D or
erzi el
car ry</w>
ell es</w>
K M
D inge</w>
k ein
Beri chts</w>
a verage</w>
Yor k</w>
l ös
chan ged</w>
erklär te</w>
J av
In sel</w>
Arbeitsplätz e</w>
sh ops</w>
di stance</w>
adop t</w>
priv aten</w>
gui delines</w>
book ing.com</w>
Me er
k ungen</w>
f ying</w>
a .</w>
Afgh ani
erfül len</w>
encour age</w>
übersch reit
cir cum
Cze ch</w>
cl ass</w>
Z y
contro ll
M useum</w>
Rat sprä
tel l</w>
Verk ehr</w>
conc ept</w>
com promise</w>
wer k
fin e</w>
erfol gt</w>
be mü
9 .
Tele f
M and
t ac
wor ld
re staurants</w>
oni a</w>
en han
F inn
weni ge</w>
Öster reich</w>
ent al</w>
verhin dern</w>
Vertra gs</w>
Sp iel</w>
19 5
immedi ately</w>
go sla
sp rü
kon om
Er k
zusätz liche</w>
ar a</w>
inten ded</w>
employe es</w>
ander s</w>
gan gs
neu es</w>
s qu
lie f
Beschäf tigungs
voll ständig</w>
Ma sch
Vereinbar ung</w>
e ten</w>
Pol en</w>
grupp en</w>
un employment</w>
Unterneh men
cont acts</w>
r at
S af
einzi gar
EC U</w>
ge biet</w>
en h
Disk ussion</w>
üh m
some times</w>
establish ment</w>
ex erc
tim ate</w>
as h
K riterien</w>
u le</w>
ist an</w>
go t</w>
k rise</w>
be handelt</w>
eigent lich</w>
k ers</w>
as se</w>
Ges prä
sc ale</w>
challen ge</w>
s ales</w>
gele gten</w>
G ed
t t</w>
erk ennung</w>
dri ve</w>
ep h
künf tigen</w>
Associ ation</w>
Investi tions
B ran
z t</w>
begr enz
g g
ev ent
E mp
der ungen</w>
E P
Aktion sp
m ac
et z</w>
ate i</w>
bo t</w>
G ei
on s
bu ch</w>
N AT
häufi g</w>
ne y</w>
ab ri
europa .eu</w>
G DP</w>
en er</w>
ass ungs
min dest
cht ens</w>
ru ption</w>
il om
per c
camp ai
An ti
Res er
erwar ten</w>
Initi ativen</w>
nor m
199 4</w>
w ine</w>
h eben</w>
publi c
expres sed</w>
Ne w
le ge</w>
comp ati
steh ende</w>
Instru ment</w>
erwar tet</w>
un er
ori enti
Zi vil
benö tigen</w>
En viron
ca .</w>
heu tigen</w>
gu li
Ko ordini
interest ed</w>
Uni versity</w>
Era chtens</w>
mindest ens</w>
ali st</w>
um gesetzt</w>
Technolo gie</w>
proc esses</w>
all s</w>
be ein
oper ations</w>
demokrati schen</w>
Par ty</w>
stie g</w>
sec ure</w>
justi ce</w>
erklär t</w>
Kin der
off ering</w>
Best and
sp orts</w>
lö sen</w>
Wi der
implemen ting</w>
hel pf
fiel ds</w>
Ver hältn
be came</w>
disc ussions</w>
r ing</w>
ro und</w>
di vi
Bil d
Ar ch
esti c</w>
er ende</w>
Jahrhunder t</w>
lu ß</w>
mu si
A gent
bewer tungen</w>
be halten</w>
alisi ert</w>
gel ten
aus reich
w ettbewer
ho ch</w>
main ly</w>
struc tures</w>
meas ure</w>
Stär kung</w>
stär k
lich keiten</w>
entwick lung</w>
lo sigkeit</w>
D et
fis h</w>
Ver trauen</w>
Lie fer
deci de</w>
il leg
führ ten</w>
reduc ed</w>
au lt</w>
da ily</w>
l o</w>
net works</w>
su b</w>
enter prises</w>
Prü fung</w>
Grupp en</w>
S up
G oo
lea ders</w>
B on
li ves</w>
a h</w>
201 4</w>
num erous</w>
itali en
Sa che</w>
ed s</w>
stär ker</w>
Beit ritts
promot ing</w>
Stabili tät</w>
timm ung</w>
Produ kt
Gemein samen</w>
cer ti
sicher zustellen</w>
s ü
volu tion</w>
ber ühm
ver ring
c raft</w>
H u
gen cy</w>
de gre
E ing
langu ages</w>
ti ges</w>
fis heries</w>
contrac t</w>
oo t</w>
R um
hä tten</w>
off en</w>
ic ally</w>
I G
fin ance</w>
M er
Ba sis</w>
T or
lo sen</w>
d ated</w>
. europa.eu</w>
coordin ation</w>
regi me</w>
a der</w>
ris ks</w>
neh m
I R
interest ing</w>
Hi gh</w>
gel ö
de bt</w>
r ück
bed ingt</w>
confi dence</w>
verbesser t</w>
ali en</w>
provi sion</w>
administr ation</w>
au t
p ass</w>
Afghani stan</w>
St .</w>
Lebens mittel
C lub</w>
CO 2</w>
P RO
schaft liche</w>
beri cht</w>
pla yers</w>
lear n</w>
archit ec
A gri
est er</w>
ide as</w>
M s</w>
Ein richtungen</w>
ß er</w>
g .</w>
bor ders</w>
con st
Le hr
transp or
n ä
bo x</w>
occ a
Eini gung</w>
ler nen</w>
Schwieri gkeiten</w>
Bu ch
kra ft
electron ic</w>
l auf</w>
histor ical</w>
B lo
un sch</w>
grei f
get an</w>
ber echti
p ho
o te</w>
Partner schaft</w>
Bürger innen</w>
gewi esen</w>
T r
sa chen</w>
S ou
world wide</w>
sel ben</w>
Woh l
Ei gent
kl assi
Vor teile</w>
Prior itäten</w>
ge worden</w>
di sa
par king</w>
use ful</w>
ör per
go es</w>
ge wäh
rela x
deta iled</w>
So ci
prü fung</w>
Auf gaben</w>
E rei
ung s</w>
bar er</w>
Sek tor</w>
gen utzt</w>
mon th</w>
k ürz
str ation</w>
S ach
secon dly</w>
qui et</w>
re ment</w>
Russi an</w>
cla im
Er d
Str and</w>
S .</w>
ex tent</w>
modi fied</w>
isti schen</w>
ori z
ap pl
in stal
Nieder lan
Be gin
conclu sion</w>
Ir land</w>
op tions</w>
et ings</w>
Arbei ten</w>
at ur</w>
hör en</w>
d ner</w>
nah e</w>
M us
po or</w>
B IP</w>
power s</w>
S ite</w>
m ess
ber t</w>
ec ken</w>
E D
l esen</w>
ach tet</w>
com par
Vi ce</w>
zü gi
Bewer tung</w>
Gäste bewertungen</w>
Begin n</w>
commit ments</w>
Kü che</w>
st am
re ality</w>
cu t</w>
re fu
An erkennung</w>
zeich nen</w>
I II</w>
Ma cht</w>
P as
gener ation</w>
ex press</w>
li m
N r.</w>
neg ative</w>
lar ation</w>
Eink lang</w>
Pre mi
schütz en</w>
Re ak
En ga
gre at
c lu
F onds</w>
Bar ro
ad ju
s ession</w>
Milliar den</w>
G ot
b es</w>
A mend
be auf
do w</w>
o t</w>
en ced</w>
Technolo gien</w>
s a</w>
En g
wieder hol
m .</w>
P au
P S</w>
caus ed</w>
Binnen mark
mor gen</w>
effec tively</w>
cri me</w>
wahrschein lich</w>
metho ds</w>
bed au
Flug hafen</w>
ausge zeich
Musi k</w>
kommen den</w>
stu dents</w>
week s</w>
wach sen
Ber eit
und ation</w>
sup porting</w>
exp ec
Pra xis</w>
tä r</w>
m in</w>
finanzi ellen</w>
t ter</w>
de ath</w>
ver mei
happ y</w>
tra in</w>
n ü
M ac
process ing</w>
Inst all
G al
bil den</w>
di gt</w>
Syst eme</w>
N ord
w ell
gre en</w>
bo dies</w>
so fort</w>
ti ous</w>
so bald</w>
T el</w>
mm ing</w>
gesch ä
th in
Kun st
größ ere</w>
ge tragen</w>
zeu g</w>
Feh ler</w>
tä tig</w>
gelei tet</w>
V öl
Re chnung</w>
be k
veröffent licht</w>
ad verti
traff ic</w>
pro por
Ch anc
Mini sters</w>
or row</w>
Cent er</w>
r aten</w>
fizi erung</w>
exp ect</w>
be für
fol gen</w>
Ti er
ah l
t ations</w>
los op
ep age</w>
si l
fahr ens</w>
K ün
adequ ate</w>
chil d</w>
p ed</w>
dig it
Kom promis
gel t</w>
ne ws</w>
Dru ck</w>
ter t</w>
entr y</w>
ser ves</w>
entsp richt</w>
jo in</w>
bro ad
S il
N ahr
l as</w>
Me chan
W h
Pro c
4 8</w>
vil lage</w>
st es</w>
gen s</w>
Person al</w>
K al
w onder
forder ung</w>
erst ens</w>
M ol
s eines</w>
be zo
dan ke</w>
subsi di
Ges chä
nachhal tige</w>
ri d</w>
Ar mut</w>
erfol greich</w>
Chr isti
anim al</w>
sch ung</w>
f la
g ment</w>
00 0
Pre ssem
practic es</w>
ac qui
g an</w>
verantwor tlich</w>
mechan is
apart ments</w>
V illa</w>
Tra de</w>
inc or
In halt</w>
satis fac
zi pi
Leit linien</w>
entschei den</w>
arb eit
simp li
Par k
EU RO
vot ing</w>
Benutz er</w>
Dem oc
ma sch
P en
Fir ma</w>
al one</w>
main tain</w>
fir stly</w>
Haushal t</w>
KM U</w>
consul tation</w>
spi ri
ra li
deli ver
zusätz lich</w>
3 3</w>
comp ens
2 8
Frie den</w>
introduc tion</w>
our selves</w>
l aufen</w>
eingesch rän
c ast
Kredi t
An frage</w>
Ge bieten</w>
se as
F r
tom orrow</w>
m ous</w>
fäl lt</w>
he ad</w>
sp er
part ments</w>
m ember
as tic</w>
Ex per
our able</w>
gesch ütz
Fol ge</w>
Ele k
Ta gen</w>
ri es</w>
Min der
er y</w>
freu en</w>
Di re
Regi erungs
plann ing</w>
aff t</w>
Wo chen</w>
hist oric</w>
Sta at</w>
stär ken</w>
in come</w>
li en</w>
ju di
ac e
letz te</w>
other wise</w>
ment ar
flexi ble</w>
regu lar</w>
ma p</w>
separ ate</w>
Währ ungs
d nis</w>
Flü cht
AN D</w>
A L</w>
Frühst ück</w>
ra ised</w>
Produ ktions
F ron
A ction</w>
W a
Adre sse</w>
S ie
li a</w>
b lu
Empfeh lungen</w>
begrü ße</w>
helpf ul</w>
sup ports</w>
kann st</w>
ber eitung</w>
entsprech ende</w>
ge kommen</w>
discuss ed</w>
zah lt</w>
pp ing</w>
it em</w>
Beit ritt</w>
introduc ed</w>
go al</w>
spe e
di plom
glob alen</w>
ver gessen</w>
clo sely</w>
At mosp
relation ship</w>
B ahn
s se
&apos; ll</w>
ho st
Prä sidentschaft</w>
le ment</w>
E L</w>
is hed</w>
Verein ten</w>
intel li
th eless</w>
for ced</w>
Europ e
G et
W erte</w>
er o</w>
Micro soft</w>
D el
schie den</w>
sch li
For um</w>
ver theless</w>
as ks</w>
U p
Si cht</w>
selec tion</w>
hau pt</w>
ent lich</w>
Mon ate</w>
über nehmen</w>
it ems</w>
Si gn
201 5</w>
Ver gan
ger ing
em ail</w>
transpar ent</w>
de fic
charac ter
M ex
di versity</w>
deli very</w>
gh t
gewähr leistet</w>
M P
Instru mente</w>
fri ends</w>
Wah len</w>
M S</w>
tic ally</w>
Konzep t</w>
pay ments</w>
Fun ktion
Pressem it
reco gnis
M ün
Chin ese</w>
b rie
B ad</w>
er ör
c .</w>
increas ingly</w>
Inter net
G est
re agi
qu anti
ri chtet</w>
zei ten</w>
pr e</w>
ne vertheless</w>
stän den</w>
finanzi elle</w>
M ili
Fis ch
wor tern</w>
betreff enden</w>
N ations</w>
wel ches</w>
Solidar ität</w>
gram men</w>
Hin sicht</w>
su s</w>
9 8</w>
mögli cherweise</w>
Aus gaben</w>
metho d</w>
E T</w>
tal k</w>
St and</w>
v ital</w>
rene w
l ess
conc re
st ent</w>
brau cht</w>
colleag ues</w>
con v
M ari
circum stances</w>
Vergan genheit</w>
li mit</w>
Selb st
behör den</w>
sch o
exp endi
aktu elle</w>
S weden</w>
An gaben</w>
ra sse</w>
wei te</w>
obli gations</w>
r i</w>
zahl reichen</w>
ch ec
bath room</w>
tu de</w>
D er</w>
us ually</w>
ra il
gran ted</w>
S port
esti val</w>
h op
We ge</w>
al te</w>
an lage</w>
pla yer</w>
richti ge</w>
curren cy</w>
be darf</w>
gran ts</w>
min dest</w>
Opf er</w>
f rüh
Rom a</w>
Luxem bourg</w>
S ho
um fan
begrü ßt</w>
mili tär
zu mindest</w>
beg in</w>
Arch it
be ste</w>
sh opping</w>
E B
R ats
defin ed</w>
allgem eine</w>
Protokol l</w>
cli ents</w>
exper ts</w>
ma ß
getro ffen</w>
c ra
Absch luss</w>
re fer</w>
ameri kanischen</w>
p aper</w>
Bil der</w>
open ed</w>
dom estic</w>
stre ss</w>
fu er</w>
bi g
Doku ment</w>
9 9</w>
cri tical</w>
buff et</w>
Überwach ung</w>
or ie</w>
Tran sport</w>
mehr eren</w>
la ws</w>
open ha
ster ed</w>
ch erung</w>
prob ably</w>
continu ed</w>
gel n</w>
dar stellt</w>
Tag ung</w>
Al t
A sy
C al
sc ap
c in
strength ening</w>
er ung
Schlussel wortern</w>
Syst em
tur ned</w>
fre ie</w>
st abili
ge geb
lü sse</w>
aus schließlich</w>
fi gu
ter en</w>
F alle</w>
sch reiben</w>
gegen sei
c e
bre chen</w>
schnit t</w>
he al
drin gend</w>
Dien ste</w>
f luss</w>
A F
disc uss</w>
schö nen</w>
moder nen</w>
region ale</w>
l le</w>
sh e
gra du
mark eting</w>
ep ing</w>
accep ted</w>
dru ck
wan ted</w>
b ul
Belgi um</w>
li sted</w>
M c
Viel falt</w>
Rom ania</w>
si chten</w>
Aus bildung</w>
her z
w .</w>
Se a</w>
anim als</w>
ex ac
trä gt</w>
l ass</w>
particip ants</w>
Beteili gung</w>
Urlau b</w>
besonder en</w>
fü gen</w>
discrimin ation</w>
M O
dar unter</w>
NAT O</w>
lau t</w>
län dlichen</w>
Entwick lungen</w>
kämpf en</w>
h a</w>
erfül lt</w>
F ac
exc ep
un ten</w>
berücksichti gen</w>
ver standen</w>
lok alen</w>
ge ber</w>
O R</w>
Um fang</w>
gener ally</w>
T at</w>
te ach
n ern</w>
Frie den
kl ein
genu g</w>
wor ked</w>
lo st</w>
ni eder
ö konom
pro per</w>
ch ance</w>
ap preci
Res e
bro ad</w>
th i
victi ms</w>
M O</w>
sa ying</w>
ge wesen</w>
erforder lichen</w>
nation aler</w>
An teil</w>
Comm unic
recommend ations</w>
Vi de
Tages ordnung</w>
ver sucht</w>
pa ar</w>
at or
Goo gle</w>
stu di
199 2</w>
Sy ri
dom in
concre te</w>
ge st
ali sm</w>
Indi a</w>
s un
ori al</w>
For m
über haupt</w>
H ä
ut ely</w>
ati vely</w>
Kon sul
her aus
Palest ini
ss ing</w>
k olo
g la
substan tial</w>
besu chen</w>
k aum</w>
hibi tion</w>
com ments</w>
R en
Atmosp häre</w>
künf tige</w>
breit en</w>
ed ing</w>
4 00</w>
ste ts</w>
lin ked</w>
ut ter
s eit
C amp
son sti
industri e</w>
A le
appe ar</w>
end lich</w>
leist ung</w>
f it
A sia</w>
n om
co l</w>
kon stru
Sit zung</w>
beg innen</w>
influ ence</w>
st ated</w>
erhö hen</w>
Dat eien</w>
c on</w>
comp ared</w>
ar tige</w>
ur ch</w>
du le</w>
w ser</w>
ungs -</w>
vehi cles</w>
T R
DV D</w>
sel ected</w>
T E</w>
Stand ards</w>
vi ert</w>
th ought</w>
mach ine</w>
l ern</w>
al ter</w>
zep rä
er greifen</w>
S wis
Koordini erung</w>
wach st
Rese arch</w>
Rum ä
Region al
reduc ing</w>
tra v
bestimm t</w>
ver kehr
en g</w>
congratul ate</w>
Zus timmung</w>
Enter prise</w>
W ell
Febru ary</w>
an erkan
nor mal</w>
Tä tigkeit</w>
Feder al</w>
Aufenth alt</w>
moder ne</w>
ph ase</w>
g ames</w>
Re staurants</w>
histor ischen</w>
Be we
ho od</w>
spec tive</w>
Sü d
protec ted</w>
199 3</w>
akti v</w>
umfas st</w>
associ ated</w>
p unkte</w>
6 5</w>
fol lowed</w>
visi tors</w>
k rie
E u
dan ach</w>
Ein haltung</w>
Stand ard</w>
in si
min ute</w>
me etings</w>
Di g
verfüg bar</w>
em pfeh
b illi
multi later
gere cht</w>
Gebäu de</w>
wesent lich</w>
any thing</w>
j em
Ba de
Re present
Do wn
erlau bt</w>
mor ning</w>
Kra ft
verb un
but ed</w>
st ore</w>
consider able</w>
re presents</w>
ot h</w>
qu es</w>
Co de</w>
us w.</w>
medi cal</w>
Angele genheit</w>
ins urance</w>
an geneh
end gül
f r
cont in
moun tain</w>
re present</w>
sp ie
Ira q</w>
er land</w>
yo ur
politi scher</w>
acc es
sch wer</w>
M inde
T her
under standing</w>
S CH
D a
Proz ent</w>
sch eme</w>
9 5</w>
Frank fur
ver lässi
kon ferenz</w>
pur poses</w>
eindeu tig</w>
Gr öß
zi g</w>
auth ority</w>
a cht</w>
dat ab
0 2</w>
unterschied lichen</w>
ter e</w>
sto ck</w>
erst ör
w r
Betrieb s
plan ts</w>
3 4</w>
stat tung</w>
flä che</w>
Zw eck</w>
F el
tour ism</w>
r ussi
D oppel
W unsch</w>
199 0</w>
conclu ded</w>
ab schließend</w>
nam ely</w>
stre et</w>
S yn
I I
sti t
Terror ismus</w>
e ad</w>
b ung</w>
w ood</w>
respon d</w>
tr ust</w>
P ati
re gre
tiv ity</w>
ro s</w>
Jah res
Ge biete</w>
He alth</w>
Enga gement</w>
notwendi gen</w>
L am
wal king</w>
run ning</w>
m t</w>
su itable</w>
establish ing</w>
Bo s
get ting</w>
en su
est er
inform ed</w>
ti ally</w>
An spruch</w>
ge ändert</w>
fis cal</w>
and a</w>
Afri ka</w>
Gipf el</w>
spar tn
Pri me</w>
po l</w>
ein geführt</w>
konkre te</w>
fi xed</w>
man aged</w>
Publi c</w>
du m</w>
g as
Mo der
advan ta
quali tät</w>
refu ge
tra ding</w>
investi gation</w>
b ab
Bel ar
bewus st</w>
betro ffenen</w>
organis ed</w>
comp liance</w>
D an
stitu tion</w>
i d
Environ ment</w>
D atei</w>
coun t</w>
d uty</w>
Re guli
ck ets</w>
ge zeigt</w>
E A</w>
E astern</w>
lau b
Menschen rechts
verfol gen</w>
u fen</w>
S ME
Pre ss</w>
ru fen</w>
expendi ture</w>
recht lichen</w>
ari en</w>
3 6</w>
sp ir
impro vement</w>
Dol lar</w>
pas sen</w>
j ur
collec tion</w>
saf e
an ces</w>
f rau
O sten</w>
Ph ase</w>
dien ste</w>
Kat astro
specific ally</w>
dem ands</w>
10 .
sk ills</w>
coun ter
it en</w>
Gar anti
wär tige</w>
S ci
1 50</w>
B l
W ein
nat ur
glei che</w>
sin n
posi tions</w>
on y
D r.</w>
A F</w>
Vi zeprä
überzeu gt</w>
rit an
ein gerichtet</w>
P l
S im
Air port</w>
ima ges</w>
ch ungen</w>
hoch wer
grei che</w>
sch ä
s i</w>
Ban ken</w>
com fort</w>
Ber g
be ha
Fischer ei</w>
pri or</w>
mögli chen</w>
derzei tigen</w>
vir tu
at ta
Best ell
vor aus
SME s</w>
T A</w>
an e</w>
regul atory</w>
in ts</w>
un bedingt</w>
i or</w>
sch w
C roati
end or
z .</w>
fo unded</w>
persön lichen</w>
ges eh
erziel en</w>
ti sch</w>
peri o
Kl ein
r ats</w>
P P
grenz überschreit
famili es</w>
S tim
gar den</w>
Comp uter</w>
itä ts
oper ators</w>
krä fte</w>
figu res</w>
consu mption</w>
exten sive</w>
swi mming</w>
Sch engen</w>
v ul
poli ce</w>
mo tion</w>
begrü ßen</w>
fac ing</w>
ex port</w>
Febru ar</w>
particip ate</w>
au ßer</w>
k am
isti c</w>
i gn
man ner</w>
Swi tz
beauf tra
ten en</w>
he ard</w>
Mul ti
mittel t</w>
tem per
ver an
tur ing</w>
ge grün
Ener gy</w>
correc t</w>
Untersu chung</w>
ac ci
Aussch uß</w>
ha ft</w>
F e
Vor haben</w>
sel ect</w>
P un
Gre en</w>
men tion</w>
spiel e</w>
inn er</w>
S em
Bel gien</w>
appro xim
vermei den</w>
tra ck</w>
Un gar
N u
wettbewer bs
N ah
é s</w>
Sch weden</w>
pen sion</w>
men u</w>
automati sch</w>
kan ische</w>
Gr and</w>
A kti
ges und
dan ger
ungs verfahren</w>
k ennen</w>
beru f
Produ kten</w>
strate gie</w>
den e</w>
abili ties</w>
Ent wurf</w>
eng ine
Ster ne</w>
ear lier</w>
be we
produc ers</w>
ge win
Ver fassung</w>
ail s</w>
Unternehmen s
openha gen</w>
dou bt</w>
al t
jewei ls</w>
auf s
C I
8 00</w>
ex pl
lei ten</w>
laun ched</w>
Re fer
wesent lichen</w>
tar gets</w>
ex ist</w>
zentr ale</w>
zu g
Justi z</w>
Wirtschafts -</w>
K ris
Au di
ch ine
Mär kte</w>
govern ance</w>
tr ying</w>
si zed</w>
speak ing</w>
Umwel tsch
4 9</w>
Rei se
Kun den
3 ,
bor n</w>
rei bt</w>
el ement</w>
op timi
requ est
fail ure</w>
f el</w>
M ei
Feri en
2 7
an geb
ver kehrs
sa ys</w>
es tim
z y
Analy se</w>
Im mobili
ori gin</w>
sp ei
comp la
Mi ddle</w>
absol utely</w>
Zu ständi
. org</w>
I denti
Hand el
ent weder</w>
un ge</w>
Quali täts
refer red</w>
gre s
br auch</w>
Z er
Krie g</w>
Bulg aria</w>
da gegen</w>
pe ace
recogni tion</w>
Switz erland</w>
ur ban</w>
säm tliche</w>
T elek
fre sh</w>
12 .
a p</w>
Barro so</w>
s agt</w>
wor th</w>
Dele gation</w>
6 4</w>
V e
wa gen</w>
Au stra
umfassen de</w>
wär en</w>
er fahren</w>
Ab satz</w>
sci ence</w>
A V
le av
wor ten</w>
an ische</w>
Bo ard</w>
N utzen</w>
Pressemit teilung</w>
he ad
Besu ch</w>
erinn ern</w>
Ver bin
M au
Vol l
off ici
invest ments</w>
f ant
Kommunik ation</w>
install ation</w>
Strate gy</w>
difficul ties</w>
ti ef
Teil nehmer</w>
we chsel
möglich st</w>
unabhängi g</w>
tu red</w>
be ob
Spiel er</w>
sp richt</w>
lar ger</w>
Schwei z</w>
sekre tär</w>
reco very</w>
M ag
dra wn</w>
P DF</w>
y es</w>
Leist ungen</w>
ci ans</w>
ru p
lief ert</w>
gran t</w>
war m</w>
k oh
Vi deo</w>
gele gen</w>
candi date</w>
gnis sen</w>
frei heit</w>
f und</w>
Ver gleich</w>
ll a</w>
lear ning</w>
ück e</w>
G as
genann t</w>
Bed ar
gegenwär tig</w>
comp ly</w>
c ore</w>
econom ies</w>
arran gements</w>
d ol
h our</w>
Afri can</w>
te sts</w>
cri pt</w>
x es</w>
func tions</w>
G N
0 7</w>
wer ke</w>
Produ kt</w>
P R
rec ord</w>
R ed</w>
Nahr ungs
power ful</w>
rä ger</w>
Al tern
b ritan
evi dence</w>
er o
feat ure</w>
s le
p es</w>
4 4</w>
Berichterstat terin</w>
sp ann
own ed</w>
rei ber</w>
S on
0 8</w>
Eis en
n ütz
crimin al</w>
we ak
N G
ordn ungs
gemein sam
automati cally</w>
B or
St ar</w>
S S
b ü
w in</w>
pop ul
de ep
At lan
ra ise</w>
teil weise</w>
mögli che</w>
compon ents</w>
ph en
ap par
genehmi gt</w>
profi tieren</w>
I ch</w>
oo k</w>
comb at</w>
ah ead</w>
pa in
f en
d eine</w>
L ag
läu ft</w>
infrin gement</w>
promo tion</w>
de dic
kar te</w>
zu folge</w>
wel comes</w>
wh ite</w>
is tics</w>
Infra struktur</w>
Beri chte</w>
ho sp
ander erseits</w>
Ar ten</w>
mit ten</w>
lie fer
announ ced</w>
Koh ä
Su per
bit ten</w>
Somm er</w>
Kar te</w>
degre e</w>
h und
G ast
lo ve</w>
Ged an
si erten</w>
mon etary</w>
en zi
Voraus setzungen</w>
9 6</w>
erle i</w>
letz t</w>
Richt linien</w>
ff s</w>
b eit
steu er
Mad rid</w>
compati ble</w>
str ö
t our</w>
Kün st
un be
tour ist</w>
ly mp
in side</w>
Ih res</w>
u tion</w>
le uni
du ce</w>
el te</w>
V il
tro tz
S Q
ent schieden</w>
ali sten</w>
Fre m
ün f
lo yment</w>
jün gsten</w>
ver lei
presen ce</w>
phot ogra
am ing</w>
0 3</w>
pho to</w>
form at</w>
g or
Ira k</w>
Ges ell
zei chen</w>
Agri culture</w>
. m.</w>
richt linie</w>
glau ben</w>
n ischen</w>
d t</w>
Entschließ ungs
quali fizi
Industri e
M om
ni cht
si an</w>
H off
si chts
J our
bi en</w>
Über prüfung</w>
Stra ßen
even ing</w>
Land wir
recom men
member ship</w>
Li z
schön e</w>
your self</w>
hab it
Fun ktionen</w>
yp e</w>
Ver änderungen</w>
Fu ß
jec ted</w>
sch ar
i erten</w>
Ver tri
lei chter
nach ten</w>
Her stellung</w>
konzentri eren</w>
Char ak
In halte</w>
e. g.</w>
pat h</w>
Anwen dungen</w>
t led</w>
ben utzt</w>
con tr
enn a</w>
flexi bility</w>
verfol gt</w>
tel eph
st ro
proper ly</w>
bu y</w>
a g</w>
Kon z
künf tig</w>
ti se</w>
im migration</w>
k ü
.. ..</w>
ck ed</w>
internation aler</w>
inform ieren</w>
zu letzt</w>
Auf nahme</w>
i k</w>
an ci
An trag</w>
Regel ungen</w>
gelö st</w>
Mittel n</w>
tal king</w>
sch rän
Em pf
St ation</w>
stu dies</w>
cel eb
dis h</w>
advan ced</w>
Groß britan
gen om
Kin dern</w>
Par tei</w>
vi eren</w>
dar stellen</w>
propos e</w>
eh mi
f assungs
un less</w>
g rie
4 6</w>
al tung</w>
k ö
Leu te</w>
pla ying</w>
Gen ehmi
v ac
Verpfli chtung</w>
vot es</w>
zu gän
beg an</w>
en des</w>
Leist ungs
Har mon
inde x</w>
k n
berei tet</w>
ther ap
aus wärtige</w>
Wieder auf
L I
0 s</w>
balan ced</w>
Sp it
li an</w>
er leben</w>
z entrum</w>
samm lung</w>
bar ri
buil dings</w>
Ter min
p il
Ide e</w>
zeu gen</w>
EC H
Besch luss</w>
be coming</w>
eli min
re chten</w>
ausge wo
M el
0 er</w>
Ob jek
Co sta</w>
3 7</w>
be hand
Überein kommen</w>
K las
an lagen</w>
ter race</w>
at z
L E
cal cul
pp e</w>
ge plan
f and</w>
3 8</w>
hier zu</w>
Swis s</w>
Ch ance</w>
pla yed</w>
Bem erk
t y
pr en
p sy
zu ständigen</w>
li c</w>
k ategorien</w>
low ak
Sp a
ben utzen</w>
ecu tive</w>
wh ere
Kapit al
Auf bau</w>
ge stellten</w>
O lymp
Her steller</w>
sha red</w>
consider ation</w>
B rit
erfol gen</w>
trotz dem</w>
Europe ans</w>
con soli
l eit
ho ffen</w>
P L</w>
biet er</w>
Bil dungs
St ro
ausge wäh
Archit ek
fi gur
Hung ary</w>
continu es</w>
ha ften</w>
we ap
Rumä nien</w>
Heraus forderung</w>
spiel t</w>
Fle xi
signific antly</w>
le m</w>
exclu sive</w>
chti gen</w>
e uro
de ck
geri ch
A U
purch ase</w>
geeig net</w>
eh ol
ec .europa.eu</w>
sug ge
cri tic
hän gt</w>
cl ari
J e
In sel
sch lagen</w>
Z oll
Re gel</w>
contro ls</w>
r en</w>
pre ise</w>
er stellt</w>
et c.</w>
sa ve</w>
P ap
Hom epage</w>
wan ts</w>
ließ en</w>
co ff
stat ten</w>
ni a</w>
man i
ent y</w>
appro val</w>
out come</w>
tran si
star ke</w>
zäh len</w>
thous ands</w>
I D</w>
C yp
A C</w>
übri gen</w>
w and</w>
lin ed</w>
conv inc
easi er</w>
näch ste</w>
Joh n</w>
5 5</w>
Komp et
H or
H ause</w>
aussch uss</w>
Agen cy</w>
gelan gen</w>
app lies</w>
weiter er</w>
sicher lich</w>
sat elli
agen cies</w>
Cyp rus</w>
ti erung</w>
p assung</w>
zu gleich</w>
P C
Ein wander
gesell schaften</w>
kl are</w>
öff nen</w>
m as</w>
han del</w>
S ant
proce ed
par ag
ge wal
3 9</w>
clo ser</w>
mut ual</w>
&apos; re</w>
ss er</w>
y al</w>
Schlü ssel
D ep
tec tion</w>
vorgeschla genen</w>
sur v
la gs</w>
beteili gt</w>
Vor bereitung</w>
Prior ität</w>
Slo v
jähr lich</w>
territ ory</w>
cle an
en ess</w>
per manent</w>
evalu ation</w>
def ence</w>
m ischen</w>
v ent</w>
poten zi
as yl
grund sätz
ver ein
T y
de cor
st one</w>
Vor sitz</w>
differ ences</w>
P aper</w>
franzö sischen</w>
Ge währ
S eh
combin ed</w>
Spra chen</w>
s li
tel e
est en</w>
am b
W ol
las h</w>
gerä um
s anc
Frankfur t</w>
ic o</w>
ar ity</w>
vol ler</w>
Belar us</w>
sp end</w>
su m</w>
moder n
jähri gen</w>
vol un
bestä tigt</w>
facilit ate</w>
be kräf
kulturel len</w>
Zei chen</w>
än den</w>
ag no
it a</w>
ma li
connec ted</w>
s and
Ein fluss</w>
oo m</w>
immedi ate</w>
D ä
f are</w>
ge fördert</w>
Tur k
Dis krimini
zwei fel
oper ational</w>
mitt l
ha fte</w>
zieh ung</w>
breit ung</w>
T em
asyl um</w>
prec is
Mal ta</w>
ati n</w>
u tili
j et
Stra ße</w>
Mit te</w>
I mp
G ü
en for
cust oms</w>
condi tion</w>
gra de</w>
ab geschlossen</w>
ben en</w>
Maß nahme</w>
A cc
Gre ek</w>
Mich a
wh om</w>
Su che</w>
M L</w>
m ari
progra ms</w>
pleas ant</w>
exac tly</w>
di schen</w>
spezi ell</w>
s outh</w>
bin ding</w>
pre fer
wi der</w>
kun fts
ge halten</w>
wr ong</w>
S S</w>
ber n</w>
0 6</w>
wir kt</w>
Fra mework</w>
Bet ra
w indi
I ris
w on
ch ron
ec ke</w>
Geor gi
8 5</w>
For mu
differ ence</w>
fo ot
electri city</w>
form al</w>
Pak istan</w>
Be denken</w>
ex isti
t abled</w>
ent sprechen</w>
Se e</w>
re member</w>
ma r</w>
Vol k</w>
Risi ken</w>
Gu i
stei gen</w>
unterschied liche</w>
All gem
wirtschaf ts
ini tial</w>
con ci
sum mit</w>
respec tive</w>
hi r
gen ü
vers al</w>
en en
Finan zen</w>
Fl or
Am ts
con ten
w ent</w>
el se</w>
utz ung</w>
pre vention</w>
w on</w>
mo bility</w>
mechan ism</w>
aus ländi
al lowing</w>
land scap
an spru
Famili en</w>
wel cher</w>
Sum mit</w>
Luxem burg</w>
angebo ten</w>
sy mbo
j ene</w>
achie ving</w>
erwäh nt</w>
Ver sch
Zy per
wichti gste</w>
wonder ful</w>
precis ely</w>
pre sidency</w>
clas si
betra chtet</w>
att le</w>
p ak
af ter
fo li
si erte</w>
fre ue</w>
Hal tung</w>
regi ster</w>
ent stehen</w>
de aling</w>
chan ging</w>
akzep tieren</w>
haup ts
fol lows</w>
K ab
gen des</w>
Eff izi
la id</w>
S O
C E</w>
exerc ise</w>
über prüfen</w>
ö kolo
sp ending</w>
läu fi
Amend ment</w>
den k
actu al</w>
au ff
Au gen</w>
2 6
be qu
fur nis
fic ations</w>
0 5</w>
funktion iert</w>
Stat us</w>
scre en</w>
pe ti
län e</w>
ga ve</w>
l eitung</w>
lä ss
si di
Sto ck
defini tion</w>
bre ak</w>
war ten</w>
w asser
e g
Tei le</w>
im m
spee ch</w>
lich em</w>
4 2</w>
auf merk
War en</w>
s letter</w>
gan gs</w>
col labor
su r</w>
Sit z
any one</w>
er stellen</w>
dra mati
ch mal</w>
SQ L</w>
medi c
acc ur
Ber ücksichti
so weit</w>
en gli
De fiz
en heit</w>
wat ers</w>
ack no
tradi tion</w>
Berücksichti gung</w>
erheb lich</w>
thre at</w>
führ er</w>
sit ting</w>
O m
Pak et</w>
spac ious</w>
P len
B ru
Ab kommens</w>
organis ationen</w>
isti sche</w>
Iris h</w>
Pf lan
Ak te
peace ful</w>
en det</w>
eri es</w>
Disk us
c ars</w>
Arbeits losigkeit</w>
rap id</w>
g ate</w>
F R</w>
regi stered</w>
fest gestellt</w>
at o</w>
Un abhängi
win ter</w>
teleph one</w>
ko ordini
Jahr zeh
Tre ffen</w>
e f</w>
de x</w>
p assi
füh l</w>
comple ted</w>
Christi an</w>
ic a</w>
ben e
spiri t</w>
si vely</w>
it ation</w>
i an</w>
a des</w>
intro duce</w>
A chtung</w>
Grund sätze</w>
and ing</w>
f ers</w>
Grund satz</w>
rah men</w>
d in
num bers</w>
elec tion</w>
k on</w>
gelei stet</w>
erneu er
räu me</w>
H T
in struc
cli ent</w>
dar aus</w>
führ enden</w>
bet ont</w>
h aus</w>
Nation al
cam era</w>
rec eption</w>
ent sch
fan gen</w>
ander es</w>
Ungar n</w>
Fin land</w>
199 1</w>
di g</w>
schie de</w>
in ci
Kon troll
r ent</w>
ad o</w>
regel n</w>
mark t
fol gend</w>
in form</w>
ge fordert</w>
di a</w>
.h t
tex tu
consi ders</w>
spezif ischen</w>
ern sth
S port</w>
D avi
äst inen
Stra f
IN G</w>
un ge
Prü f
proceed ings</w>
er hält</w>
u li
hin weisen</w>
gro unds</w>
f ei
Men ge</w>
D re
Finan cial</w>
tax ation</w>
22 9</w>
heb ung</w>
gewin nen</w>
er tes</w>
di ty</w>
individu als</w>
be ds</w>
ell s</w>
str on
genom men
ad vice</w>
steri um</w>
sicher ungs
o o</w>
th u
le ben
hous es</w>
al ty</w>
T ER
R oh
s ale</w>
ordin ary</w>
fel low</w>
not ed</w>
um welt
Sk i
An passung</w>
ambi tious</w>
Sor ge</w>
sch lag</w>
gestal ten</w>
cour t</w>
UN D</w>
P s</w>
happ en</w>
Bet rieb</w>
go als</w>
lin ge</w>
guarante es</w>
at ti
ti gten</w>
ä den</w>
t asks</w>
ra sch</w>
sto ff</w>
6 00</w>
äl fte</w>
rel ate</w>
s co
plann ed</w>
Stim me</w>
gem ü
continu ing</w>
Kap az
Kun st</w>
h oriz
ho t</w>
R el
richti gen</w>
Fern seh
tol er
för der
wan del</w>
g erung</w>
di mension</w>
- -</w>
met res</w>
us h</w>
4 3</w>
quali t
umfassen den</w>
state ments</w>
je derzeit</w>
besser en</w>
zus timmen</w>
Web seite</w>
alle l</w>
Meer es
K roati
n ation</w>
verstär kt</w>
Re zep
A ktionen</w>
nei ther</w>
un sten</w>
Tran spor
F A
reason able</w>
n on
bekan n
As sozi
aus drücklich</w>
Mod ell</w>
D e</w>
Hum an</w>
Famili en
sa w</w>
mal er
r ul
p h</w>
se ek</w>
benö tigt</w>
obvi ously</w>
dec laration</w>
gen er</w>
in spec
campai gn</w>
ven ue</w>
beha vi
A ir</w>
Komp on
P L
En d
Zah lungs
t inu
auf t</w>
C he
er es</w>
K yo
9 7</w>
Croati a</w>
Di mension</w>
n un
pos sibilities</w>
Fil m</w>
fli cht</w>
seas on</w>
.e .</w>
re struc
bilater al</w>
inter vention</w>
Slo ven
gewi cht</w>
ex ter
pro to
pr is
d ware</w>
c arb
N um
Währ ung</w>
as ing</w>
elegan t</w>
ann t</w>
a i</w>
Agent ur</w>
sp ent</w>
posi tiv</w>
p en</w>
appe ars</w>
grie ch
govern mental</w>
eini ger</w>
mit einander</w>
Indi en</w>
medi zin
g ure</w>
berei che</w>
avail ability</w>
Bulg arien</w>
fac tors</w>
cor porate</w>
lä gen</w>
Ver ring
str ong
Na cht
represent ed</w>
speci es</w>
o re
Zim mer
deli ver</w>
Z eiten</w>
appoin ted</w>
Di enst
l eng
fi ci
w om
betre ffen</w>
hand els
Wir kung</w>
Unter kategorien</w>
S .
monit or</w>
1 1.
sug gest</w>
tä glich</w>
k ehr</w>
gan g
j ah
Mitglie dern</w>
n y</w>
kit chen</w>
schlä gt</w>
k tive</w>
Po st
a y
se em</w>
ali smus</w>
up date</w>
Sp a</w>
dan k</w>
vi erung</w>
Or d
fir m</w>
f low</w>
tru m</w>
i .e.</w>
Dienstleist ungs
ro man
För der
aussch usses</w>
Hal b
Les ung</w>
zäh lt</w>
K enn
Großbritan nien</w>
ot e
vul ner
lie be</w>
größ eren</w>
0 4</w>
ver sorgung</w>
er er</w>
C ul
exten ded</w>
M ess
attrac tive</w>
contr ary</w>
Kyo to</w>
Frieden s
thin king</w>
pres sion</w>
bre ite</w>
a gen</w>
vor geseh
pr int</w>
gegenwär tigen</w>
Au th
enti rely</w>
dele gation</w>
br and</w>
b ahn</w>
strong ly</w>
adv ance</w>
ph y</w>
tic les</w>
tel ec
institu tion</w>
fir e</w>
de ep</w>
S I
form ed</w>
dien st</w>
Strate gien</w>
par allel</w>
d é
Au to</w>
typ ical</w>
pro spec
Bedürf nisse</w>
es sive</w>
dau er
consi stent</w>
av y</w>
haupts ächlich</w>
Represent ative</w>
S un
mod els</w>
in stance</w>
ek te</w>
D as</w>
g no
Invest ment</w>
E ur
n ess
Kan di
über all</w>
ada p
Minde st
V AT</w>
Be ob
dis cover</w>
verbun denen</w>
inform iert</w>
gr ö
se ven</w>
is ine</w>
danger ous</w>
ran gi
ess or</w>
deut sche</w>
request ed</w>
experi enced</w>
fail ed</w>
eu ch</w>
Re de</w>
ma ßen</w>
fu n</w>
spezif ische</w>
ernsth af
woh ner</w>
mechanis ms</w>
A D</w>
nachhal tigen</w>
fi gh
Di alo
zuneh men
ange zeigt</w>
Glob alisierung</w>
ad ul
tel ef
qu ote</w>
T un
Ma ße</w>
sub sequ
datab ase</w>
ch ert</w>
zi elt</w>
sk i
gew ün
defic it</w>
A ll</w>
x e</w>
stim me</w>
sti schen</w>
pas st</w>
erklär en</w>
prepar ation</w>
pic ture</w>
Empfeh lung</w>
addre ssed</w>
Sal z
u ten</w>
fäl len</w>
durch aus</w>
func tioning</w>
fu el</w>
be achten</w>
Ch em
ga in</w>
Ges etz</w>
Er hö
ra il</w>
ste el</w>
deta il</w>
M un
ger ufen</w>
un zu
di enstleist
el e</w>
Verring erung</w>
For men</w>
rela x</w>
des wegen</w>
ris es</w>
mär kte</w>
o w
en ables</w>
sho wer</w>
Micha el</w>
parlia mentary</w>
d ation</w>
er leich
O li
men ted</w>
sto red</w>
D on
i al</w>
Zwei fel</w>
Hin weis</w>
fü gt</w>
erhö ht</w>
vorhan den</w>
p ap
V ER
genu ine</w>
O T
t ür
T an
cor respon
For derung</w>
ur gent</w>
humanit äre</w>
g reichen</w>
Tit el</w>
T au
renew able</w>
combin ation</w>
man chmal</w>
sor g
bru ch</w>
tain ment</w>
Phi li
neigh bo
M eter</w>
succ e
coff ee</w>
dest ro
wel t</w>
t on
ing ton</w>
cover s</w>
wei ght</w>
erleich tern</w>
dis pos
Gemein schaft
D A</w>
Verhältn is</w>
aus führ
d ance</w>
kor re
b on
Universi tät</w>
ut ch</w>
Austri an</w>
trans lation</w>
gegrün det</w>
poli tics</w>
he ar</w>
dür fte</w>
fin i
J ean</w>
technolo gical</w>
k aufen</w>
genann te</w>
gewähr t</w>
aufge fordert</w>
Tä tigkeiten</w>
Inter nationalen</w>
Städ te</w>
Europä er</w>
ass es</w>
rail way</w>
zu vor</w>
adverti sing</w>
be zogen</w>
lim its</w>
Inn en
charac ter</w>
Pra kti
P eter</w>
Sing le</w>
k op
wol lte</w>
il l</w>
schri ft</w>
i sierung</w>
displa y</w>
ein setzen</w>
be lieb
gi ble</w>
reli able</w>
li sten</w>
fi l</w>
perf ec
jun ge</w>
laun ch</w>
lea der</w>
St ar
dise ase</w>
über nachten</w>
approxim ately</w>
rie si
c ards</w>
seri ously</w>
schwieri g</w>
Unterneh mens</w>
N ame</w>
sei en</w>
nach folgend</w>
gel assen</w>
Proble men</w>
claim s</w>
sol cher</w>
Risi ko</w>
emplo yed</w>
da p
D ra
indepen dence</w>
EURO P
per spective</w>
er b
bri tischen</w>
W ar</w>
et ten</w>
Kon tin
Communic ation</w>
sich ern</w>
Stell ung</w>
K rä
par te
ob tain</w>
re ise</w>
man age</w>
ge zogen</w>
Den mark</w>
da cht</w>
quali fied</w>
vor liegenden</w>
Rats vor
y ester
m uni
behör de</w>
pre is</w>
V ir
S we
M ü
be comes</w>
Emis sionen</w>
bring ing</w>
applic able</w>
de vices</w>
St ellen</w>
Palestini an</w>
prep are</w>
ber eiten</w>
1 000</w>
ali zation</w>
in zwischen</w>
y e</w>
viel fäl
mach ines</w>
ne ar
sp unkt</w>
bil dungs
not es</w>
Sp ec
Bedar f</w>
An lagen</w>
cour ses</w>
ar ticle</w>
vorsch lag</w>
Z wis
Ko rea</w>
mul ti</w>
vo ice</w>
Bal kan
b at
ein erseits</w>
statt finden</w>
M obil
ut ed</w>
ali sed</w>
wa it</w>
identi fied</w>
hin gewiesen</w>
Pro vin
weni gen</w>
sec re
T ha
bi olo
p el
St atisti
inten ance</w>
inter es
di strict</w>
zu ständige</w>
vehi cle</w>
C at
dor f</w>
mi d</w>
li ghts</w>
gr enzen</w>
bet onen</w>
b un
s an
tra gs
stoff en</w>
st ein</w>
geschütz t</w>
pl ätze</w>
ne arly</w>
e z</w>
wür dig
wel com
fil l</w>
ati schen</w>
aspec t</w>
g ü
finanzi ert</w>
g ä
9 3</w>
Ele mente</w>
kon ta
4 1</w>
neh mern</w>
cy cle</w>
Effizi enz</w>
se arch
impro vements</w>
G ri
pp er</w>
care fully</w>
ar chi
alisi eren</w>
pre mi
f ro
ziel e</w>
C O</w>
Ar gu
am e
zi gen</w>
ung sin
mo ving</w>
fi f
betro ffen</w>
Leist ung</w>
tele vision</w>
ph ra
es sel
n ungen</w>
welcom ed</w>
lan s</w>
o x
or der
E M</w>
aff ec
stark en</w>
con tain</w>
ok ed</w>
li ter
f em
Viel zahl</w>
cu isine</w>
comp li
regi stration</w>
Fre e</w>
est ate</w>
requ ests</w>
For derungen</w>
H älfte</w>
4 7</w>
comm unities</w>
sensi tive</w>
ausreich end</w>
plat form</w>
con dem
er geben</w>
Haushal tsp
cont em
Ni veau</w>
F i</w>
rit t
k as</w>
i en</w>
Dritt ländern</w>
freu t</w>
descri ption</w>
wen det</w>
l st</w>
exc e
De fini
ge prüft</w>
Sat elli
AD S</w>
exam ples</w>
ein richtungen</w>
regel mäßig</w>
Is land</w>
enti tled</w>
Kohä sions
mittel s</w>
op position</w>
ol a</w>
Bi o
rele ased</w>
Bestand teil</w>
Fäl le</w>
te sting</w>
omm unik
struktur en</w>
ri gh
down lo
co her
viel mehr</w>
frau d</w>
R ou
IS O</w>
kti ven</w>
demokrati sche</w>
eu r</w>
De sign
gesch rieben</w>
Y u
ein gehen</w>
or ders</w>
programm s</w>
s ser
ühr en</w>
der i
lös ung</w>
be t</w>
Ro oms</w>
ho st</w>
Besu cher</w>
hand s</w>
zu ständig</w>
rel ativ</w>
pf en</w>
refuge es</w>
bezieh ung</w>
Dä ne
bei zu
Wis sen</w>
at tra
A partments</w>
li e</w>
h aus
lu tion</w>
hi m
Asy l
stor age</w>
f r</w>
Ph ot
n ar
3 7
ver hältn
mark ed</w>
Fortsch ritt</w>
unter st
sti mul
st ag
fe der
I B
ph en</w>
glob ale</w>
ta il</w>
be gan
Schwer punkt</w>
char ged</w>
Ide en</w>
erforder t</w>
ent ran
exist ence</w>
Gol f</w>
Erhö hung</w>
Gar ten</w>
ali sts</w>
el ing</w>
Stu die</w>
Schla f
Re form
Aktionsp lan</w>
Ö l
Institu te</w>
Aspek t</w>
einfa chen</w>
contrac ts</w>
accoun ts</w>
S P</w>
ul l</w>
res ort</w>
Über nahme</w>
sicher stellen</w>
mitt lung</w>
e quality</w>
stä d
ru m
it age</w>
sch we
hö h
wel chen</w>
offen sichtlich</w>
big gest</w>
2 .</w>
S cript</w>
fizi ert</w>
be ziehungen</w>
restruc turing</w>
regel mäßi
gesch ehen</w>
er scheint</w>
yester day</w>
f a</w>
Er wer
re m
T est
über tragen</w>
Fest legung</w>
conduc t</w>
Ver stän
dam als</w>
ou l
s sen
Erklär ungen</w>
g barkeit</w>
es sions</w>
dedic ated</w>
co s
ver lassen</w>
ar i</w>
ev a</w>
spezi elle</w>
r ying</w>
rie be</w>
ad ed</w>
V ari
Kommissions mitgli
s lo
b lack</w>
Erzeu gnisse</w>
en ni
ed ed</w>
mi cro
K er
hal tet</w>
Schi ff
M aria</w>
oni en</w>
ent re
ex emp
al b
con tra
u .</w>
coun ter</w>
i erungs
be haup
A R</w>
Stre et</w>
Install ation</w>
l uss
ver ei
aufmerk sam</w>
will kommen</w>
mi ddle</w>
A .</w>
rap h</w>
B est</w>
f ly</w>
L e</w>
out standing</w>
Klima wandel</w>
amp i
am eter</w>
Nor men</w>
führ ungen</w>
Beru fs
schi ed</w>
u .
determin ed</w>
Teil nahme</w>
Liber alisierung</w>
Aus land</w>
wachst um</w>
t old</w>
disku tieren</w>
compens ation</w>
Kom ple
Deut sche</w>
G az
F it
gui de</w>
call ing</w>
rit ten</w>
inter ven
Hin der
for get</w>
substan ces</w>
Seh ens
confir med</w>
Abgeord nete</w>
a chtung</w>
al ter
nam es</w>
her gestellt</w>
T S</w>
whi lst</w>
v an
L atin</w>
Kon fer
ob st
g utes</w>
grö ßer
G ran
Finn land</w>
hi elt</w>
N I
wa iting</w>
zug unsten</w>
Plat t
C C
o de</w>
Flexi bilität</w>
neh mer
ehr te</w>
beträ cht
hol ung</w>
y right</w>
j ahr
mü s
propos es</w>
kürz lich</w>
im possible</w>
Tex te</w>
ag ne</w>
ver trau
wis hes</w>
f elt</w>
c lub</w>
garanti ert</w>
acces sible</w>
W an
Ko oper
E l</w>
exten d</w>
st öß
Telek ommunik
UN G</w>
zufrie den</w>
k ts</w>
fähi g</w>
g st</w>
bes ei
strate gies</w>
antwor ten</w>
al a</w>
reich ung</w>
E ADS</w>
w all</w>
tri p</w>
ma intenance</w>
I ma
un eingeschrän
restric tions</w>
K i
Kom fort</w>
D utch</w>
I ON
si erungs
ge gangen</w>
obli gation</w>
Unabhängi gkeit</w>
3 D</w>
ver i
Grün de</w>
satelli te</w>
olo gie</w>
8 6</w>
verabschie det</w>
prim ary</w>
n den</w>
ß te</w>
chti gkeit</w>
eti c</w>
Mini stry</w>
Di stri
wach sen</w>
Gener ation</w>
K ör
ü nen</w>
tru ly</w>
elec ted</w>
Eng land</w>
zah lung</w>
ab sichti
S til</w>
il lu
resul ting</w>
hel ping</w>
se eing</w>
pic tures</w>
industri es</w>
San ktionen</w>
nor th</w>
su ite</w>
gelten den</w>
Pre sse
B SE</w>
persön lich</w>
F eu
on ed</w>
Ver öffent
organi z
su che</w>
near by</w>
le ts</w>
architec ture</w>
Jahrhunder ts</w>
su n</w>
Mittelme er
Er war
Re port</w>
sen sus</w>
Dru ck
rä gen</w>
k ept</w>
e ar</w>
h inter
zi erung</w>
L AN</w>
lan gt</w>
identi fy</w>
dig ungs
ü r</w>
fir ms</w>
descri bed</w>
mis s
E AN</w>
komp li
Au gen
tion ally</w>
mi grants</w>
des er
attemp t</w>
Ern ähr
Op en</w>
ra pi
ir y</w>
ar ten</w>
voll ständige</w>
kün fte</w>
tra gs</w>
du s</w>
ri ver</w>
L ou
absolu t</w>
re servation</w>
ex hibition</w>
no tice</w>
manufactur ing</w>
her unter
nö tig</w>
ven ts</w>
9 2</w>
sc en
Diskrimini erung</w>
Res ol
au stausch</w>
absolu te</w>
E O</w>
Ar z
ü ben</w>
bil d</w>
for th
situ ations</w>
inten tion</w>
exp an
ein ger
wahr en</w>
respon sibilities</w>
Techni k</w>
1 00
Am bi
To des
tem porary</w>
vern ünf
S au
Vi enna</w>
si eben</w>
h .</w>
j ungen</w>
Rom e</w>
Finanzi erungs
el er
mari time</w>
4 ,
sor gt</w>
35 2</w>
m illi
fo ur
emer gency</w>
great est</w>
c ent</w>
trä gen</w>
fest stellen</w>
th or
ro ll
ill ing</w>
Mon at</w>
on going</w>
n d</w>
af ri
ver tei
inten sive</w>
i ces</w>
Lauf e</w>
de h
loo d</w>
eh t</w>
win d</w>
pass ed</w>
Zivil gesellschaft</w>
boo king</w>
Fo undation</w>
de ad
mand ate</w>
bud s
Vertrags verletz
manufactur ers</w>
län ger</w>
a sts</w>
il ing</w>
assi st</w>
be kämpfung</w>
P ass
Bus h</w>
p he</w>
Hil fs
produ ktion</w>
P r
ke eping</w>
sub mit</w>
Sa int</w>
fer tigt</w>
einfa che</w>
al em</w>
spra chen</w>
heri gen</w>
regi stri
gro ß</w>
g ert</w>
convinc ed</w>
be zeichnet</w>
Ch am
lich ten</w>
cho sen</w>
arri val</w>
Vi er
Dien st</w>
Fähi gkeit</w>
sex u
bur den</w>
nah e
str onom
there by</w>
sur face</w>
oo d
mom ent
can c
Reak tion</w>
Haus es</w>
Au stausch</w>
Vor teil</w>
groß es</w>
ME MO</w>
f ts</w>
Man n</w>
obst ac
u red</w>
nah me
Vereinbar ungen</w>
An lage</w>
................ ................
vor legen</w>
Wor te</w>
T our</w>
effec tiveness</w>
ung ser
sch em
we chs
safe gu
recom mend</w>
Kon trol
Mo un
pack ages</w>
Sch luss</w>
aff ect</w>
M erk
ar ms</w>
kra ft</w>
jour n
L im
son st</w>
mi sta
R ent
H ü
pol lution</w>
ens wert</w>
issu ed</w>
con tained</w>
PH P</w>
wissen schaftlichen</w>
würdig keiten</w>
my self</w>
invol ving</w>
ver anstal
seek ing</w>
C D
Mo bilität</w>
contribu tions</w>
Turk ish</w>
physi cal</w>
Tei len</w>
Steu ern</w>
present ation</w>
gel ungen</w>
occu p
dou b
beginn t</w>
Größ e</w>
Davi d</w>
enh ance</w>
Pati enten</w>
gel y</w>
Voraus setzung</w>
at ures</w>
Ham burg</w>
de posi
durch schnit
Tsch ech
S D
dynam ic</w>
sign al</w>
advanta ges</w>
tran sition</w>
Ein fu
é e</w>
bri dge</w>
ar en</w>
Li thu
ren ov
loo ks</w>
erh äl
ne x</w>
fac tor</w>
än gt</w>
weap ons</w>
w as
sanc tions</w>
m ass</w>
198 9</w>
Sant a</w>
G U
success fully</w>
dispos al</w>
anci ent</w>
be st
air craft</w>
ac king</w>
Zyper n</w>
Ter rasse</w>
re move</w>
sub scri
de ckt</w>
W ander
Unter schiede</w>
D u</w>
rou te</w>
P T</w>
M es
Ab end</w>
einzi gen</w>
li br
betra chten</w>
ein ander
im ports</w>
swi t
Besch reibung</w>
kein erlei</w>
hol ding</w>
Is lam
Medi a</w>
religi ous</w>
c olo
Ver letz
ar di
bein haltet</w>
categ ory</w>
Zah len</w>
u de</w>
niem and</w>
gesch lossen
Net z</w>
um b
harmon i
über greif
un acceptable</w>
Niederlan de</w>
Un gleich
Pro di</w>
Ad ministr
Metho de</w>
previ ously</w>
. 000</w>
el a</w>
en ge</w>
erheb liche</w>
Euro pol</w>
com ment</w>
Ban k
z erstör
posi tiven</w>
tur ning</w>
sm aller</w>
aff airs</w>
mot or
herz lich</w>
der ship</w>
besch leuni
Däne mark</w>
fac es</w>
Cas ino</w>
ges chn
be aches</w>
kon trolle</w>
happ ened</w>
welt weiten</w>
scho ols</w>
ro l</w>
Ge wi
mö gen</w>
an ese</w>
fe ar</w>
be an
geh ende</w>
dri ving</w>
Prin zip</w>
re isen</w>
him self</w>
E li
etz ung</w>
sug ges
stär kt</w>
empfeh len</w>
Pro duc
Kroati en</w>
tig te</w>
be ar</w>
Um struktur
Re chts</w>
sat zes</w>
tra gung</w>
abo li
ul tim
p utting</w>
y ang</w>
ent gegen
F lä
Kom bin
Kir che</w>
ti er
re ch
w est</w>
Fu ß</w>
li ability</w>
Po si
siden ten</w>
deliver ed</w>
b as
den den</w>
boo ks</w>
ef s</w>
ti s</w>
f ein
S lowak
judi cial</w>
s z
na vi
s au
An rei
exten sion</w>
geb il
ec kt</w>
da d</w>
br ings</w>
Region al</w>
Wh ite</w>
E V
wesent liche</w>
drit ten</w>
wa chen</w>
tex ts</w>
as p
for um</w>
B au</w>
T en
awar eness</w>
Mittel punkt</w>
serv ations</w>
fli ght</w>
em o
ü sse</w>
M ill
CO N
leist ungs
Bra zi
or gt</w>
hän gen</w>
ap art</w>
me ters</w>
agen cy</w>
Fun ds</w>
grund lage</w>
Bed ro
do c
c au
unter nommen</w>
natur ally</w>
cl ing</w>
P ro</w>
d al
tal ks</w>
F en
an gesprochen</w>
phi losop
ex ports</w>
G ali
la w
install ed</w>
be fassen</w>
Nutz er</w>
m useum</w>
ing u
P ic
G an
un able</w>
writ e</w>
g keits
politi sch</w>
form ation</w>
Geri cht</w>
Br enn
surro unding</w>
ci ous</w>
besitz t</w>
amoun ts</w>
Sehens würdigkeiten</w>
Politik er</w>
An sch
du mp
weiter es</w>
reagi eren</w>
desi re</w>
unmittel bar</w>
S ar
p et
enor mous</w>
but ton</w>
b us
ak tive</w>
ad or</w>
Re li
Per spek
and ed</w>
Projek ten</w>
trans action</w>
fe ed</w>
Stru ktur</w>
la p
k ilom
Frühst ück
bli n</w>
begr ün
P il
us ual</w>
don e
bil det</w>
Ver b
G od</w>
wa re
vali d</w>
rema ining</w>
E Z
Man ager</w>
sorg fäl
m ün
associ ation</w>
Na cht</w>
garanti eren</w>
2 50</w>
langfris tige</w>
cla im</w>
t an</w>
col or</w>
no on</w>
frü her</w>
C y
wo durch</w>
e der</w>
mas sive</w>
italien ischen</w>
Wor ten</w>
Fin ance</w>
del ay</w>
Verhand lungs
stell ungs
re ve
nach zu
T ari
empha sis</w>
e chte</w>
Mar tin</w>
Comp any</w>
Ale x
Pro tection</w>
äu men</w>
phra se</w>
relax ing</w>
Ab sicht</w>
Con tro
st ood</w>
der artige</w>
um zusetzen</w>
be wäl
Führ ung</w>
ag ue</w>
s ach
Verstän dnis</w>
än derung</w>
ma g</w>
api er</w>
win dow</w>
Nach frage</w>
invol vement</w>
Ver träge</w>
rel atively</w>
a ge
ver fahrens</w>
sh es</w>
lux ury</w>
sh ing</w>
leb ens
Entwicklungs ländern</w>
hö here</w>
aut onom
spre ad</w>
sa v
Erei gnisse</w>
Dec i
zeu gung</w>
lauf enden</w>
produ kte</w>
li ation</w>
art a</w>
entde cken</w>
invest ors</w>
A rea</w>
Kri min
consi sts</w>
mi c</w>
e en</w>
4 5
soli di
steu er</w>
dru gs</w>
pati ents</w>
le hen</w>
Sta at
St off
be zug</w>
pri vi
ge stern</w>
Verbesser ungen</w>
so verei
B M
Struktur fonds</w>
Mom ent</w>
opini ons</w>
zuneh mend</w>
d den</w>
prim arily</w>
Wissen schaft</w>
US B</w>
f ach</w>
be absichti
wer ten</w>
exp ensive</w>
or ds</w>
T emp
t aus
communic ations</w>
an bieten</w>
organi zation</w>
wirtschaft licher</w>
S pr
unter schei
abhängi g</w>
eng ine</w>
ra dio</w>
ehemali gen</w>
traff i
I P
est e</w>
verring ern</w>
inst all</w>
co ast</w>
acc o</w>
Lin ks</w>
u lieren</w>
ei m
un it</w>
E lec
parag raph</w>
posi te</w>
expres sion</w>
dep th</w>
tar ge
einzel ne</w>
exper tise</w>
comb ating</w>
recognis ed</w>
p lu
pi ece</w>
zurück zu
ph ar
Ti ere</w>
rep ly</w>
proz esses</w>
la h</w>
as king</w>
i erte</w>
ei ght</w>
sch ir
Ant worten</w>
zipi en</w>
ate ver</w>
f oot</w>
ent ing</w>
angem essen</w>
verl oren</w>
S qu
komple tt</w>
cover ing</w>
Rau m
zieh t</w>
ex tra
Moder ni
S ur
er r
carb on</w>
Contro l</w>
recht liche</w>
conten ts</w>
sel l</w>
Fun da
con sensus</w>
angemessen e</w>
kosten los</w>
n ennen</w>
enfor cement</w>
f illed</w>
E duc
fo rest</w>
Re du
ö ster
Ziel en</w>
be glei
k el</w>
ari o</w>
Partn ern</w>
incor por
exc ept</w>
F ood</w>
reach ing</w>
exam ine</w>
cent res</w>
Glob al</w>
í a</w>
For t
wirk sam</w>
be einf
W ün
d ler</w>
1 st</w>
hol en</w>
enter ed</w>
en dum</w>
An dre
zusätz lichen</w>
m ly</w>
m ale</w>
trans l
fri ed
dist inc
wh atever</w>
we st
to b
ati sch</w>
compet ence</w>
M use
ser ving</w>
conclu de</w>
th eit</w>
Sin n</w>
stit utes</w>
in ary</w>
depen ding</w>
w ater
Ein beziehung</w>
ent lichen</w>
surro unded</w>
ho her</w>
ut t
passen gers</w>
k ali
An liegen</w>
fi es</w>
tri fft</w>
guarante ed</w>
we alth</w>
reflec t</w>
controll ed</w>
Metho den</w>
wa i
vorsch lagen</w>
dec ades</w>
teil nehmen</w>
A tom
gi r
f it</w>
enti al</w>
rei fen</w>
sch auen</w>
prakti sch</w>
Genehmi gung</w>
bereit gestellt</w>
Z ü
B ir
f ach
dise ases</w>
appe al</w>
en ab
Auf trag</w>
holi days</w>
inter face</w>
Rei se</w>
K no
Gu est</w>
to m</w>
k el
Grund rechte</w>
v ous</w>
Con stitution</w>
ö der
am ong
dienstleist ungen</w>
ha m</w>
s ort</w>
on to</w>
poin ted</w>
hier bei</w>
k la
ass em
Hoff nung</w>
U l
Besch rän
among st</w>
mei st</w>
för derung</w>
ab gel
Geschäfts ordnung</w>
schn eller</w>
e b</w>
ut ter</w>
Be griff</w>
off enen</w>
f ting</w>
F la
Char ter</w>
tot ally</w>
spezi ellen</w>
Aus sicht</w>
U .
I A</w>
statisti cs</w>
re ck
re is
v it
u e
rel ess</w>
allgem ein</w>
horiz on
Tra dition</w>
führ ende</w>
Le g
inf lation</w>
ban ken</w>
gr o</w>
d rei
ali a</w>
Stru c
O U
Ob ama</w>
mini sters</w>
bis lang</w>
Mich el</w>
ti tle</w>
mä chti
anerkan nt</w>
c m</w>
tür k
b ars</w>
fin ding</w>
attrac tions</w>
par a</w>
Veranstal tungen</w>
Insel n</w>
tion ary</w>
E gyp
unterstütz e</w>
m ung</w>
zugän glich</w>
An bieter</w>
tre ated</w>
ex plan
tax es</w>
fac ed</w>
at a</w>
sti sche</w>
fül lung</w>
bli oth
Kri tik</w>
Jo int</w>
Gegen satz</w>
vis a</w>
mean ing</w>
zu erst</w>
caus es</w>
cap able</w>
über ra
Ur spr
er griffen</w>
ehr gei
is ch
gri ffe</w>
un anim
f i</w>
Sek toren</w>
Arz nei
u si
ta bel</w>
Um ständen</w>
Sch ri
Pla yer</w>
st ory</w>
nun mehr</w>
Fir men</w>
ak t</w>
t ment</w>
Bet ru
ol der</w>
Bot schaft</w>
att acks</w>
squ are</w>
beau ty</w>
mitt ler
char ges</w>
R in
ban king</w>
ac ting</w>
psy ch
adju st
g uter</w>
reich s</w>
ateg orie</w>
fas hi
her vor</w>
sat lan
offici als</w>
w an</w>
consequ ently</w>
st ations</w>
optim al</w>
as sets</w>
Netz werk</w>
breit et</w>
hil fen</w>
St or
Regi erung
il and</w>
ver gleich
ni er</w>
li ers</w>
sol e</w>
Stad tz
Can ada</w>
de vice</w>
I V
liber alisation</w>
lei sch</w>
er öffnet</w>
C ast
y outh</w>
vis ed</w>
Lo g
lea dership</w>
Z in
Technolo gy</w>
Sch war
geri cht
Op tion</w>
an hand</w>
Arbeitsplätz en</w>
konkre ten</w>
S M
zu verlässi
sho fs</w>
entscheiden d</w>
C ro
inv ited</w>
persön liche</w>
conveni ent</w>
Bereit stellung</w>
mem ory</w>
bezieh t</w>
Mus li
tor al</w>
Om buds
Landwir te</w>
r é
nation s</w>
führ ungs
direc tives</w>
zentr alen</w>
g isch</w>
condi tioning</w>
ar m</w>
regel ung</w>
an nen</w>
Mot or
ne ut
intel lec
Emp loyment</w>
Arbeitsp lat
om as</w>
iel t</w>
Entschei dungs
ote chnolo
ge biete</w>
wor fen</w>
t ack
Sonn en
compet ent</w>
blo ck</w>
Swe dish</w>
R ad
C ard</w>
tri ed</w>
Sc ot
att ack</w>
F estival</w>
re place</w>
me at</w>
lie fern</w>
Vorsch lägen</w>
Be sitz
multi ple</w>
genau so</w>
figh ting</w>
Pro grammen</w>
S and
einheit lichen</w>
wichti ges</w>
pren e
Down load</w>
g al
.ht m</w>
seit ens</w>
be wegen</w>
sto cks</w>
Sch ön
ge öffnet</w>
Mitglied s
sp anischen</w>
le ads</w>
Mär kten</w>
O P
verstär ken</w>
or am
Ur teil</w>
lu ß
n de</w>
Comm on</w>
gl ass</w>
bür ger
hon ourable</w>
perfec tly</w>
gol f</w>
ge tr
win den</w>
si mul
do ku
ung er</w>
fru it</w>
beg lück
and o</w>
geogra phi
sto ßen</w>
außer ord
omm unic
geschi eht</w>
Spra ch
O ut
Musi k
äu fer</w>
enth al
Hoch schul
B ab
tou ch</w>
Beh in
event u
c ast</w>
Ori gin
zeu g
foc used</w>
wieder um</w>
B ou
tack le</w>
bekan nten</w>
Sam m
N O
wün sche</w>
la ke</w>
k einer</w>
e c</w>
jähri ge</w>
Beihil fe</w>
ent wurf</w>
tu m
S t</w>
ak ia</w>
Sit z</w>
zu legen</w>
up dated</w>
ci pl
he avy</w>
ho l</w>
Ar gent
institution ellen</w>
betreff end</w>
b ath</w>
determin e</w>
T al
Berat ung</w>
In n</w>
sur vi
tradition ellen</w>
ment ally</w>
recommen ded</w>
li t</w>
m 2</w>
im posed</w>
Kompromis s</w>
Fot os</w>
Kontrol len</w>
represent ative</w>
certain ty</w>
d or</w>
const antly</w>
Sch w
K aff
ra d</w>
bestimm ter</w>
Li cht</w>
Com pu
freund liche</w>
au c
ex klu
Wachst ums
ti ken</w>
grenz ung</w>
füh len</w>
expec tations</w>
acqui sition</w>
struc tion</w>
phot os</w>
Doku mente</w>
Pau l</w>
Agrar politik</w>
ris ing</w>
Mis s
wä ch
ter s
t ab
I C</w>
Sup port</w>
ven tionen</w>
ti le</w>
sol ange</w>
sem in
An d</w>
verkehr s</w>
Hom e</w>
Diskus sionen</w>
gel aden</w>
ati ver</w>
beträ gt</w>
nit ure</w>
Cu st
sol d</w>
Du blin</w>
Reli gi
smo king</w>
it h</w>
ch ain</w>
präsen tiert</w>
man gel
V an</w>
a den
beschäf tigt</w>
Haupt stadt</w>
.h .</w>
gres sive</w>
no ise</w>
equ ally</w>
stimm t</w>
identi ty</w>
So ft
Fähi gkeiten</w>
Entwicklungs länder</w>
Defini tion</w>
arti sts</w>
Grenz e</w>
s we
v a
dra wing</w>
acc ess
Unter kunft</w>
de cre
T wi
form ul
prof it</w>
gehöri gen</w>
We chsel
Re alität</w>
R am
some one</w>
te dly</w>
fra gt</w>
W aff
n els</w>
d .h.</w>
aller y</w>
ti erte</w>
residen ce</w>
V it
lie gende</w>
auf zunehmen</w>
K r
. de</w>
Ver kehr
E hr
require ment</w>
R ob
deta illi
dec la
ma ß</w>
Ord nung</w>
an geht</w>
C af
In fl
increas es</w>
sha res</w>
ma g
val ent</w>
ten e
ri ch
7 00</w>
fin de</w>
sor gungs
C F
beein trä
Direc tor</w>
Beit räge</w>
reit er
lar gely</w>
geh enden</w>
di um</w>
Allgem einen</w>
kl einer</w>
i sten</w>
Alt stadt</w>
ta g
di schar
z y</w>
ini ert</w>
hab er</w>
Män ner</w>
komp et
tä u
mel dung</w>
AK P</w>
W es
protec ting</w>
lat ter</w>
Aus bau</w>
schließ t</w>
ze go
v ar
Saf ety</w>
Dep uty</w>
invol ve</w>
z za</w>
qu ick</w>
J er
ma y
gen i
frei wil
G ent
un ch</w>
re den</w>
p our</w>
ed ge</w>
wirk sam
Ein druck</w>
f abri
li eben</w>
Ap parte
w asser</w>
S C
Dro gen
righ tly</w>
er läu
Struktur en</w>
mi en</w>
Stu dio</w>
ab road</w>
Poli sh</w>
Exper ten</w>
ch urch</w>
Her zego
ati cally</w>
Verk auf</w>
br e</w>
hand ling</w>
Mein ungs
A M</w>
sen s</w>
gesp ei
s eiten</w>
k tor</w>
rau ms</w>
kulturel le</w>
Vor gehen</w>
be u
Harmon isierung</w>
moun tains</w>
grundsätz lich</w>
Staats sekretär</w>
T ai
Sch nit
trans fer
foli o</w>
Ro yal</w>
en -</w>
Wer t
furnis hed</w>
Po st</w>
3 .</w>
S ha
sprü che</w>
a qu
wirk lichung</w>
Pal ace</w>
recommend ation</w>
geb enen</w>
wirk ung</w>
sta k
ff er</w>
ob ject</w>
ell ed</w>
Wei ß
St ein
stre am</w>
Ge gent
o st
Educ ation</w>
Pre sse</w>
grundle genden</w>
f ak
beeinf lus
Materi al</w>
min e</w>
Angebo te</w>
berei chen</w>
Arbeits markt</w>
ID S</w>
Deci sion</w>
Hau p
sou thern</w>
is chem</w>
er mu
ein verstanden</w>
st ings</w>
Wil len</w>
extre me</w>
tion ality</w>
Partner ship</w>
Risi ko
kurz fris
leh nen</w>
Jav a
Hol z
Bes or
Ba y</w>
dic t
ver langen</w>
wes halb</w>
ga z
h ü
UN G
Pot enzi
sch te</w>
an schließend</w>
ori um</w>
Qu ar
depen dent</w>
mer ely</w>
Charak ter</w>
Be am
5 2</w>
beg onnen</w>
Res ort</w>
expla in</w>
gewäh lt</w>
Democ rats</w>
16 0</w>
Anwen dungs
st ol
landscap e</w>
B ahn</w>
ide ale</w>
Sp ek
we stlichen</w>
stim mi
volu me</w>
do s</w>
Bei spiele</w>
eben e</w>
Z ul
H än
komm erzi
v als</w>
be stehende</w>
über nommen</w>
B us</w>
l es
indic ated</w>
F arb
0. 000</w>
ov is
Wor k
sch ten</w>
Proto col</w>
priv acy</w>
an statt</w>
m o</w>
Gesprä che</w>
D S
system en</w>
c en
wle d
Sch u
Aus nahme</w>
obvi ous</w>
a side</w>
PP E</w>
gewis se</w>
et t</w>
lei den</w>
heal thy</w>
Tour ismus</w>
weis ung</w>
Mitglied schaft</w>
Hi gh
ri gi
gei sti
di men
bed ro
a ther</w>
än ger</w>
de cken</w>
j i
re mind</w>
L ink</w>
Er de</w>
barri ers</w>
Gegent eil</w>
Ver wirklichung</w>
Ver bot</w>
ge arbeitet</w>
Bra si
i le</w>
qu is</w>
construc tive</w>
Krank heiten</w>
ch ap
Ver breitung</w>
Gesetz gebung</w>
C ri
dis cipl
1 20</w>
can cell
La ke</w>
K lar
disa ster</w>
ã o</w>
spr ing</w>
ch st
mo vi
Besch lüsse</w>
är m
gn e</w>
erhäl tlich</w>
Fa x</w>
resol ved</w>
Ar chi
ob tained</w>
is sen</w>
f esti
Pe ople</w>
will ing</w>
O s</w>
Dat a</w>
lok ale</w>
kom b
höch ste</w>
far m</w>
wirk same</w>
h ungen</w>
ni c</w>
rec ord
rapi dly</w>
or al</w>
l ots</w>
europ a</w>
sy mp
enst ein</w>
I K
Ge win
19 .</w>
ra y</w>
began n</w>
Ver halten</w>
Mis sion</w>
Got t</w>
ein geleitet</w>
li cherweise</w>
contem porary</w>
ir s</w>
ati es</w>
Res p
Eisen bahn
6 7</w>
Con su
passen ger</w>
graphi c</w>
acti vely</w>
sp ür
de alt</w>
läss lich</w>
A qu
In done
zw an
defin e</w>
St art</w>
R h
Kombin ation</w>
Ge winn
öffent lich</w>
ren o
wel fare</w>
Wi en</w>
Ameri ka</w>
wer fen</w>
Ne ws</w>
Kooper ations
Kris en
ar ticles</w>
Publi k
entwick elten</w>
di verse</w>
Verfü gbarkeit</w>
k al
experi ences</w>
bu re
Mon tene
A id</w>
De f
traffi cking</w>
ück en</w>
setz ungs
pre sident</w>
vorzu legen</w>
z ell
hel ps</w>
disku tiert</w>
si e
gh ted</w>
Gr unde</w>
kurz em</w>
Entschließungs antrag</w>
durch zuführen</w>
5 ,
ver lieren</w>
ameri kanische</w>
Vertei digungs
stak ehol
Rechn ung
be währ
Grün dung</w>
sh aring</w>
it ten</w>
no ch
Bal tic</w>
grundle gende</w>
Al liance</w>
vor genommen</w>
mo de</w>
Rezep tion</w>
u d</w>
Moderni sierung</w>
Ein stellung</w>
OL AF</w>
natür lichen</w>
ati sche</w>
Struc tural</w>
resp ek
or a</w>
exc essive</w>
m ation</w>
M EN
&apos; ve</w>
ro krati
ba siert</w>
Co operation</w>
sp a</w>
be ge
main tained</w>
fi gure</w>
er as</w>
Sloven ia</w>
Inter ne
Fak toren</w>
außer gewöhn
te es</w>
be stand</w>
W ash
ein s</w>
M ak
pre is
encour aging</w>
bro wser</w>
T EN</w>
Gesetz e</w>
collec tive</w>
Telef on</w>
vulner able</w>
g are
ra in</w>
gn ise</w>
Wirtschaf t
x en</w>
engine ering</w>
au dio</w>
Sch ü
Kon kur
P act</w>
t un
person ally</w>
öster reich
resol ve</w>
oc cur
Verbin dungen</w>
ri c</w>
reco gnise</w>
loc ations</w>
eng agi
Ver einfach
produc ing</w>
Daten bank</w>
F lash</w>
k enn
Vorsch lags</w>
men ts
Berat ungen</w>
sha pe</w>
cor ruption</w>
A dri
tob acco</w>
Staats an
excep tional</w>
Mi kro
Zu stand</w>
Zer ti
at oren</w>
A ktion</w>
5 1</w>
f ischen</w>
d ritte</w>
Gol f
colleag ue</w>
sätz en</w>
strate gischen</w>
k y</w>
schem es</w>
A i
ver langt</w>
provi ders</w>
lie f</w>
ur ge</w>
ber at
Bewe gung</w>
n utz
ange wand
W inter
Erwar tungen</w>
Be fu
sett lement</w>
jud gment</w>
a ward</w>
Pu tin</w>
akzep tiert</w>
8 8</w>
out put</w>
An schluss</w>
wat ch</w>
Projek t
net z</w>
mon o
dat en
ti zen</w>
dest ination</w>
vertre ten
mensch lichen</w>
ein schlä
dies el
bu chen</w>
Bahn hof</w>
imp lic
estim ated</w>
Ge wä
ck er
beteili gen</w>
ac compani
cu rement</w>
cop y</w>
fahr t
def ault</w>
hel ped</w>
ö se</w>
Minister in</w>
vi sible</w>
ultim ately</w>
po ll
del a
zweifel los</w>
re serve</w>
un its</w>
e gal</w>
vorgeseh enen</w>
wh ol
ta k
Lithu ania</w>
Gesch le
bal con
to s</w>
Aut ob
man che</w>
Sch ule</w>
Veranstal tung</w>
el i</w>
Java Script</w>
g one</w>
p ine</w>
gemein schaftlichen</w>
ei l
effizi enz</w>
kon tinu
es th
Slo weni
is s
Yu gosla
ver sions</w>
beg ri
Zah lungen</w>
Slov akia</w>
g ischer</w>
Dar lehen</w>
pro vin
ass ess</w>
web sites</w>
erlau ben</w>
Sch äden</w>
er ror</w>
confi gur
---- ----
Portu gu
nam ed</w>
be handeln</w>
berühm ten</w>
valu able</w>
ari um</w>
sch war
em ed</w>
dan ger</w>
dustri e</w>
r auch</w>
In nen</w>
t emp
sustain ability</w>
fi cial</w>
politi cians</w>
t ter
Eink aufs
schö n</w>
sich erung</w>
reg ularly</w>
Frühstück s
i ti
comp lic
sen s
k ern</w>
ass ungen</w>
conduc ted</w>
Fir st</w>
suff ering</w>
behand lung</w>
Ba si
leg ungen</w>
discuss ing</w>
E P</w>
al ed</w>
Land schaft</w>
Gemein schaften</w>
we gs</w>
G laub
mel den</w>
ex ists</w>
nahe zu</w>
ali täten</w>
C lu
hin zu</w>
N L</w>
inclu sion</w>
ver mi
si bly</w>
ser vers</w>
en de
Mili tär
Über gangs
G B</w>
vis ory</w>
S hi
unter zeichnet</w>
lat t</w>
c ot
bed ing
justi fied</w>
chem ical</w>
streng th</w>
voll kommen</w>
Fran c
spo t</w>
W affen</w>
k g</w>
emer ging</w>
wn s</w>
vorgeschla gene</w>
pp en</w>
kar ten</w>
ing er</w>
Bu ch</w>
main taining</w>
r t</w>
milli ons</w>
leng th</w>
Fis heries</w>
ö sen</w>
spac es</w>
pl en
cre ative</w>
AC P</w>
6 6</w>
sk in</w>
noch mals</w>
Aut o
s n
ver hand
stra ße</w>
blu e</w>
pleas ure</w>
beschrän kt</w>
ar ance</w>
acc eler
Gesell schaften</w>
B O
Nicht rau
Energi ever
la y</w>
ne ter</w>
u. a.</w>
bet t</w>
Form at</w>
di enst
stron ger</w>
subsi dies</w>
fis her
W ür
Squ are</w>
r uns</w>
pos ing</w>
er ie</w>
b om
sol ve</w>
celeb r
6 8</w>
b ag
stra i
ori a</w>
cht es</w>
automati c</w>
Win ter</w>
high light</w>
L E</w>
trans actions</w>
Re siden
drit tens</w>
P ool</w>
Mr .</w>
Nah en</w>
schn ell
Far ben</w>
Ru he</w>
Frem den
enhan ced</w>
Stro m
t ative</w>
projek te</w>
p ft</w>
D ay</w>
Be ach</w>
hil ft</w>
neu esten</w>
Wissen schaft
Er wachsen
kin ds</w>
Fra ktionen</w>
zusammen arbeiten</w>
vie wed</w>
R ules</w>
nä her</w>
Engli sch</w>
ta ste</w>
sta at</w>
eri or</w>
zi el</w>
kontinu ier
C ur
Am t</w>
vi lla</w>
da fri
Vizeprä sident</w>
B R
Kommunik ations
Stock hol
T ie
hö her</w>
new ly</w>
for schung</w>
Twi tter</w>
b ele
W äh
dan s</w>
pro of</w>
w ah
entre prene
b ing</w>
K en
B ör
quar ter</w>
h ence</w>
schwieri gen</w>
K ategorie</w>
ES S
op posite</w>
elektron ischen</w>
F as
zü ge</w>
aff ir
speak ers</w>
Aus fu
Untersu chungen</w>
L O
Führ ungs
kün st
for d</w>
mo ved</w>
A IDS</w>
ge bieten</w>
oo k
Slowak ei</w>
E H
y r
li qui
heu tige</w>
feh l
Ver such</w>
leav ing</w>
5 6</w>
Poli tiken</w>
Regi stri
Mex i
Brit ain</w>
be sides</w>
and elt</w>
E ssen</w>
Ser ie</w>
Nor di
Gewähr leistung</w>
schn ei
ein geb
ei ra</w>
we g
on i</w>
ek en</w>
befür wor
wissen schaftliche</w>
fa ßt</w>
au x</w>
re ported</w>
d ating</w>
L t
ti erten</w>
pro file</w>
tur ns</w>
it al
Veröffent lichung</w>
mot or</w>
am i
Wash ington</w>
bed room</w>
s .
th in</w>
b lin
West en</w>
Daten schutz
P eti
Ferien woh
с т
8 9</w>
In f
decla red</w>
S par
uni versal</w>
K auf
C openhagen</w>
früh eren</w>
te ste</w>
Spiel e</w>
Portugu ese</w>
aus gesetzt</w>
Jap anese</w>
glich keit</w>
bu te</w>
Gest altung</w>
erinn ert</w>
ut ing</w>
tats äch
ziel en</w>
ni veau</w>
Klima anlage</w>
Beteili gten</w>
under taken</w>
it i</w>
o ten</w>
Zim mern</w>
S om
tro u
is ol
C op
herr scht</w>
sch ritt
Plan ung</w>
ver änder
bel on
dro p</w>
Chanc en</w>
Ak tu
tri eben</w>
sch afft</w>
Nach hal
civi li
pal ästinen
pursu e</w>
occa sion</w>
dist or
Lebens mittel</w>
höch sten</w>
Stadtz entrum</w>
constitu te</w>
const ant</w>
Geor ge</w>
ent lang</w>
Mun ich</w>
zi em
US D</w>
Kli ma</w>
depen ds</w>
M em
Ac t</w>
di ge</w>
histor ische</w>
ed ly</w>
Premi er
accompani ed</w>
be kämpfen</w>
I l
7 1</w>
ver gen
fe eling</w>
sek tors</w>
en ger</w>
Po ker</w>
durch führen</w>
spra chi
th ers</w>
ko st
an gen</w>
a stri
vor an
Sü den</w>
7 2</w>
tt able</w>
f ail</w>
co ast
Ma ß</w>
An griff</w>
9 4</w>
v ast</w>
Aus gang
letz tlich</w>
B ol
ad voc
Binnenmark tes</w>
thre at
Tem per
Jo se
expl ore</w>
A sh
au shal
J es
F ein
mati c</w>
Resol ution</w>
ab sen
E ar
A ssi
Ge fühl</w>
to urs</w>
5 3</w>
vi l</w>
Mark tes</w>
Eigen schaften</w>
mil k</w>
Li ve</w>
kon zep
Wirtschafts wachstum</w>
Un d</w>
ver trag</w>
u ung</w>
d ul
beteili gten</w>
Zus atz
organiz ations</w>
kon textu
du ties</w>
H en
T P</w>
K ilom
fl at</w>
r ö
H öh
m ur
bequ em</w>
F on
vil le</w>
20 .</w>
re jected</w>
finan ced</w>
St unde</w>
th ro
T reib
lo g</w>
conci liation</w>
g ere</w>
g y
Sch aden</w>
Ex press</w>
ini en</w>
star ten</w>
comp u
supp liers</w>
supp le
ma gaz
ECH O</w>
schn elle</w>
R et
che ap</w>
Sp ann
uni versi
organi siert</w>
dru g</w>
betri eb
B ER
un to</w>
V ic
op les</w>
Energi en</w>
c ab
B la
k es
em a</w>
Brazi l</w>
ameri ka</w>
Er holung</w>
weit gehend</w>
gli e
exclu sively</w>
ar ischen</w>
char ming</w>
Vertri eb
conc ep
höh eren</w>
Ko operation</w>
woh l
noti fied</w>
her aus</w>
Rau ms</w>
verschieden er</w>
sk y</w>
Su ch
f tung</w>
Gä sten</w>
Fre unde</w>
satisfac tory</w>
Be dien
5 0
entscheiden der</w>
adv is
high ligh
h it</w>
Mr d.</w>
Kar ten</w>
C AP</w>
Architek tur</w>
ey e</w>
auth or</w>
Stand ard
Net work</w>
sicher gestellt</w>
elektron ische</w>
G a
6 ,
d inner</w>
ac tors</w>
terror ist</w>
essel s</w>
Fi re
prepar ing</w>
offi ces</w>
fa ster</w>
Ma astri
w u
beru ht</w>
ho ff
fün f
e chten</w>
c able</w>
Vi et
Stoff e</w>
m ol
c utting</w>
servi ert</w>
Ex ecutive</w>
tre at</w>
intellec tual</w>
ah nen</w>
Sub sidi
techni k</w>
drück en</w>
determin ation</w>
hi p</w>
si ed
An nex</w>
zu gang</w>
Prakti ken</w>
Rot ary</w>
spartn er</w>
ma ster</w>
ge teilt</w>
Al ter</w>
9 1</w>
al d</w>
Konta kt
mit tag</w>
Sho p</w>
Mo bile</w>
Kör per</w>
s auber
m l</w>
at ur
P ack
wirk lichen</w>
tei lungen</w>
de par
stra h
schätz en</w>
k ir
cre ates</w>
Betra g</w>
f ted</w>
Umweltsch utz</w>
fu r</w>
connec tions</w>
ung st
appl ying</w>
M ach
D am
Ver brechen</w>
erst mals</w>
Montene gro</w>
sch em</w>
AR E</w>
in ter</w>
geri a</w>
fle et</w>
W e</w>
T aus
w us
jem and</w>
fant astic</w>
z in</w>
di agno
conflic ts</w>
Hand els</w>
tre aty</w>
telec ommunic
bedeu ten</w>
audi ovis
akti ven</w>
lin gen</w>
R und
Det ails</w>
Ch arta</w>
zi r
objec ts</w>
erweiter t</w>
ursprün glichen</w>
chine sischen</w>
Organ e</w>
ob jek
ro ads</w>
m essen</w>
An gel
räu men</w>
temper ature</w>
d as
Dialo gs</w>
Get rän
Inter essen
di r</w>
Est onia</w>
re main
den de</w>
U C
Ratsprä sident</w>
collabor ation</w>
begrenz t</w>
War en
Altern ative</w>
sch efs</w>
fest gelegten</w>
Jav a</w>
en ded</w>
pro curement</w>
atti tude</w>
Vi sion</w>
par ents</w>
an i</w>
Z ur
sion al</w>
dar y</w>
col d</w>
ma kers</w>
bo at</w>
New sletter</w>
Min utes</w>
Y ou</w>
wid ely</w>
ec es</w>
ann es</w>
gesp ielt</w>
Zwis chen
Nor thern</w>
EN T
m i</w>
Air bus</w>
Leb ens</w>
h i</w>
Hand eln</w>
im port</w>
Über na
al located</w>
R adi
sich ert</w>
fur niture</w>
in er</w>
Besor gnis</w>
volun tary</w>
ver ändert</w>
go s</w>
den ten</w>
Balkan s</w>
bemü hen</w>
zi p
er reich
Kü ste</w>
Erk enntn
stru k
F R
ens es</w>
consider ing</w>
St än
l usses</w>
Rom an</w>
2 1.</w>
supp lies</w>
gram mi
her itage</w>
Op tionen</w>
sp on
bemü ht</w>
vor her
or ca</w>
genommen en</w>
pro ve</w>
er sucht</w>
contin ent</w>
Ver fassungs
sa cht</w>
ge wer
entscheiden de</w>
ar tigen</w>
Platt form</w>
forth coming</w>
Um feld</w>
erfol greiche</w>
al co
kur ze</w>
Gei st</w>
äu me</w>
boo st</w>
Nor den</w>
Num mer</w>
f an</w>
abili tät</w>
K unde</w>
effizi ente</w>
p .m.</w>
b ol
s é</w>
cour ts</w>
wer tung</w>
UN ION</w>
Su ite</w>
Bevölk erungs
Jour n
verur sacht</w>
5 4</w>
t reiben</w>
r ori
invol ves</w>
aus gerichtet</w>
Vereinfach ung</w>
Geri chte</w>
An hang</w>
sex ual</w>
character istics</w>
Zu griff</w>
remo ved</w>
f es</w>
kno ws</w>
ern st</w>
ori ent
sch la
To d</w>
Bes ei
v essels</w>
re d
Flücht linge</w>
y le</w>
Fre ude</w>
kehr en</w>
stakehol ders</w>
ersch einen</w>
ali zed</w>
Web sites</w>
W C</w>
tre es</w>
C .</w>
tu t</w>
not ably</w>
c af
ani an</w>
Sloweni en</w>
flü ge</w>
sty li
sav ings</w>
bour hood</w>
hol ders</w>
deb ates</w>
F ischer</w>
subsidi arity</w>
entsch lossen</w>
8 1</w>
l ying</w>
G ep
vor rangi
man ager</w>
im pose</w>
k top</w>
Gre at</w>
Gerä te</w>
ktiv ität</w>
Subsidi ar
di versi
prec ise</w>
Mas sen
aus geschlossen</w>
Be weis</w>
y s
8 7</w>
em m
Sch au
sich ere</w>
re ds</w>
General dire
re form
gro w</w>
bestimm ungen</w>
Kon sequ
P et
fähi gen</w>
auf nehmen</w>
ackno wled
unver züglich</w>
O M</w>
Mex ico</w>
staat lichkeit</w>
is hing</w>
hosp it
ent standen</w>
ein bezogen</w>
Pun kten</w>
An stieg</w>
funktion ieren</w>
R an
Mon etary</w>
Bo den</w>
An fragen</w>
person en
Materi alien</w>
Ombuds man</w>
jo ined</w>
Schul en</w>
oh n</w>
6 2</w>
6 1</w>
produc tive</w>
te ams</w>
person nel</w>
avi ation</w>
. 00</w>
fac ts</w>
eth nic</w>
Ser bia</w>
zu gr
gl ück
La w</w>
Konfli kt</w>
bed rooms</w>
zi ge</w>
windi gkeit</w>
coordin ated</w>
absen ce</w>
pf ung</w>
hier für</w>
s ligh
eigen es</w>
cop yright</w>
zügi gkeit</w>
li sten
fe e</w>
Fen ster</w>
pro p
we ather</w>
Uni ons
notwendi ge</w>
lo vely</w>
Zuständi gkeit</w>
obstac les</w>
kon sequ
dis covered</w>
Völ ker</w>
Lit auen</w>
L au
T est</w>
A sien</w>
Überein stimmung</w>
produ ziert</w>
m ir
ber ech
Pre isen</w>
ziem lich</w>
Su dan</w>
Aus führungen</w>
li erung</w>
besitz en</w>
su gar</w>
Zw ecke</w>
hi b
cas h</w>
Wohl stand</w>
P flicht</w>
Inter nal</w>
ti ckets</w>
Bi blioth
an nehmen</w>
par la
sch wei
la sting</w>
emphasi se</w>
Wer k</w>
Komm un
Cham ber</w>
dire kte</w>
il fe</w>
frequ ently</w>
sen de</w>
nieder ländi
ell o</w>
di d
stre bt</w>
ei st
wor se</w>
Wer bung</w>
Ver halten
IS CH
Kop f</w>
per form</w>
Fo to</w>
a is</w>
Ma z
produc tivity</w>
interes siert</w>
V I
Besei tigung</w>
Sch ool</w>
t ent
li sts</w>
wirtschaft lich</w>
glob alisation</w>
avo i
happ ens</w>
Studi en</w>
Nichtrau cher
G old</w>
5 8</w>
Sem in
brie f</w>
ur teilung</w>
ro te</w>
ti que</w>
de tec
lab elling</w>
Kin d</w>
leist ungen</w>
Lu ft</w>
Ele ment</w>
ange l</w>
Vertei digung</w>
wissen schaft
T his</w>
regre t</w>
N ein</w>
ursprün glich</w>
re serves</w>
Telef on
Er füllung</w>
Ara b</w>
Ri ver</w>
tei ls</w>
con taining</w>
pe oples</w>
op posed</w>
U M
Institu tion</w>
stre ssed</w>
Aus arbeitung</w>
mul tin
acqu is</w>
Über zeugung</w>
awar ded</w>
U. S.</w>
Man u
Formu lar</w>
v is</w>
appreci ate</w>
zw ungen</w>
ben den</w>
ran k</w>
un gef
russi schen</w>
ro b
m us</w>
im mer
ex ecu
ex por
Pla za</w>
H on
Ab fall
demonstr ate</w>
Masch inen</w>
kat astro
L ett
Gedan ken</w>
Bu dap
respec ted</w>
lo ans</w>
ge führten</w>
contri but
D oh
inten d</w>
acht eili
Zu sch
verhin dert</w>
Ri ch
Gemein same</w>
vi de
re di
moder nis
ä um
strate gische</w>
ordn ungen</w>
n ische</w>
m utzung</w>
Ro bert</w>
mo stly</w>
ge prä
di tionen</w>
abgel eh
äh r</w>
er stre
V .</w>
M AR
5 9</w>
Einwander ung</w>
C R
sozi aler</w>
C S
re stri
dri vers</w>
kri ti
hervorra gende</w>
Tim e</w>
targe ted</w>
lei sure</w>
organi zed</w>
mus ste</w>
k amen</w>
jour ney</w>
e ast</w>
satisfac tion</w>
educ ational</w>
Schi ffe</w>
tran satlan
Hoh en</w>
impres sive</w>
gesetz ten</w>
dire kten</w>
tru th</w>
st ant</w>
on ic</w>
t wi
sch ule</w>
rü stung</w>
masch inen</w>
at uren</w>
Geschä ft
Städ ten</w>
L ord</w>
Her b
interpre tation</w>
exper t</w>
Kommissionsmitgli ed</w>
nach drücklich</w>
defin iert</w>
n i</w>
where as</w>
dump ing</w>
R ele
Geb rauch</w>
Wo chen
Regi me</w>
sti sch</w>
d einer</w>
own ers</w>
stre ets</w>
sign s</w>
divi ded</w>
di shes</w>
te en</w>
eb ung</w>
dischar ge</w>
8 2</w>
ci tizen</w>
ex ec
einge halten</w>
Auf sichts
è s</w>
reali stic</w>
we stern</w>
verantwor tungs
Bemerk ungen</w>
s .</w>
en kt</w>
Er haltung</w>
mess ages</w>
confir m</w>
P lu
la m</w>
berechti gt</w>
K ür
D auer</w>
pf lan
hund reds</w>
vent ure</w>
te sted</w>
sch ed
bekräf tigt</w>
Kol lege</w>
4 .</w>
äuß ern</w>
g ins</w>
Unter schied</w>
M ur
shor t
ran g</w>
c ans</w>
Lat via</w>
s and</w>
Mittelme er</w>
Dig ital</w>
hei m</w>
eini gung</w>
H IV</w>
6 3</w>
spec tac
ful fil</w>
er leichter
enth usi
Nor way</w>
My SQL</w>
d ining</w>
ar ab
ruhi gen</w>
obli g
Zentral bank</w>
ra w</w>
län dliche</w>
dele gations</w>
niem als</w>
fin ished</w>
R oom</w>
Belgi an</w>
St ability</w>
Fer r
gli cher</w>
ausgezeich nete</w>
ot te</w>
klar en</w>
zufrie den
he ating</w>
Ent la
programm ing</w>
f ing</w>
Mi gration</w>
geeig nete</w>
enter tainment</w>
ten si
kti v</w>
ven tion
it ely</w>
ungef ähr</w>
ori ented</w>
exp lic
D ynam
dra w
Mehr wert
Al li
pat ent</w>
Ver pack
ähn liche</w>
pla ys</w>
bei getragen</w>
ati k</w>
muni cip
gent ly</w>
fül len</w>
Tra g
he ber
Mün chen</w>
Konsul tation</w>
di sche</w>
schätz ung</w>
lo sses</w>
klär ung</w>
gerä te</w>
si sch</w>
Um gang</w>
z o</w>
sk a</w>
ra ising</w>
appe ared</w>
Bei fall</w>
bo ten</w>
ze i</w>
ogra fi
zu lassen</w>
unter sucht</w>
dis krimini
ti cket</w>
g eren</w>
Krimin alität</w>
sh ar
comm and</w>
bo und</w>
Proz esses</w>
Kre u
perc ent</w>
dau er</w>
Sk ype</w>
Kur z
7 7</w>
ow ner</w>
es day</w>
Ven e
Gleich gewicht</w>
Bet re
enen falls</w>
har m
w alls</w>
Vide o
Ab schnitt</w>
fo rec
Li fe</w>
B ack
provi der</w>
pi eces</w>
expan sion</w>
gegeb enenfalls</w>
li ste</w>
humanit ären</w>
rec y
R and
Fr ist</w>
em en</w>
b ann
pro mp
in habit
R om</w>
zus ehen</w>
langfris tig</w>
Kompon enten</w>
e astern</w>
n ungs
er ce</w>
adop ting</w>
sonsti ge</w>
Doh a</w>
Bes onder
G AP</w>
Wirk lichkeit</w>
Haf en</w>
Gegen stand</w>
oper ative</w>
facili ty</w>
Vertre tern</w>
U ser</w>
Ein kommen</w>
ch a
Minister prä
Stabili täts
vereinbar t</w>
Kapit el</w>
verlei hen</w>
sper ity</w>
ph s</w>
min ority</w>
Bel ast
tr end</w>
b lood</w>
voll ständigen</w>
out door</w>
D R
franzö sische</w>
ei ll
Sch n
Sch ei
vorhan denen</w>
Tran sa
bri tische</w>
ma chte</w>
g old</w>
Wahr heit</w>
über nimmt</w>
fli ghts</w>
over come</w>
bestä tigen</w>
ra c
geh ens
C er
schi cken</w>
ab len</w>
Män nern</w>
Kan ada</w>
host els</w>
spra ch</w>
mean ing
grenz e</w>
flo ws</w>
dri ver</w>
chni k</w>
satis fied</w>
l i</w>
as i</w>
Aus stattung</w>
cast le</w>
bel an
am m
war ran
j ap
erfol greichen</w>
sa una</w>
enter prise</w>
an n</w>
negoti ating</w>
illeg alen</w>
vor anzu
pro ved</w>
inv est</w>
Ru le</w>
sup er</w>
inf o</w>
Vertra g
Ber lin
Ä r
in folge</w>
conver gence</w>
Ratsvor sitz</w>
sur pr
kein es
0, 000</w>
L ob
critic ism</w>
par ks</w>
Bre ak
Transpor t
Stockhol m</w>
Hung arian</w>
äuß ert</w>
top ic</w>
re source</w>
er setzt</w>
comm un
Garanti e</w>
tan e
instal liert</w>
d opp
b les</w>
hab t</w>
bi ke</w>
Autom obil
ko stet</w>
7 3</w>
er lassen</w>
einheit liche</w>
up dates</w>
ou red</w>
Ein schrän
tr e</w>
ten e</w>
enab ling</w>
st opp
O EC
Cul ture</w>
Bud get</w>
strö m</w>
or er</w>
n one</w>
soli d</w>
ro utes</w>
ber aten</w>
öffent licher</w>
sinn voll</w>
um geben</w>
ä fen</w>
krie g</w>
Stra ßen</w>
Jah re
mon u
pro sperity</w>
Vorsitz es</w>
Mark eting</w>
Era smus</w>
transpor tation</w>
inten ds</w>
Dele g
pu ts</w>
propos ing</w>
n ut
gestal tet</w>
A ssem
war ning</w>
per cent
care er</w>
Th omas</w>
P A</w>
h am
verwal tung</w>
gew inn
de als</w>
investi eren</w>
do ors</w>
Proble ms</w>
hr t</w>
ans wers</w>
Spec ial</w>
verfüg baren</w>
lie ß</w>
la y
Maastri cht</w>
ver bringen</w>
Ambi ente</w>
Akte ure</w>
leg te</w>
je gliche</w>
fra g
behavi our</w>
M ens
Quali fik
it r
Aus führung</w>
particip ating</w>
Ein w
wirtschaf ten</w>
equi valent</w>
ver wand
prakti sche</w>
langfris tigen</w>
ga p</w>
cou ple</w>
col our</w>
Redu zierung</w>
fri end</w>
freund lich</w>
re min
ä r</w>
re vision</w>
re plac
es n</w>
Sci ence</w>
si m
accord ingly</w>
Minder heiten</w>
ss on</w>
g tes</w>
Verhalten s
Ab stimm
Regierungs konferenz</w>
empf oh
abgeleh nt</w>
Pu er
tac kl
Kon text</w>
Geschäf te</w>
Chin as</w>
techni ques</w>
über prüft</w>
um ini
stand s
exam ined</w>
Reguli erungs
arb eits
El tern</w>
Atlan tic</w>
belan gt</w>
akti vieren</w>
GN U</w>
wi tn
re solutions</w>
lau tet</w>
ergän zt</w>
strength ened</w>
es c
E X
p um
W et
sto ß</w>
stan z</w>
o xi
bis herigen</w>
OEC D</w>
sen ding</w>
Ausgang spunkt</w>
fizi eren</w>
certi fic
Re volution</w>
fal sch</w>
addre sses</w>
Vereini gte</w>
ff er
ut tle</w>
Vertragsverletz ungsverfahren</w>
hei m
harmon isation</w>
ei gh
W F</w>
the at
demonstr ated</w>
sich eren</w>
Europ a
Ch eck</w>
A ward</w>
in klu
exam ination</w>
Fac ili
ro ck</w>
ot ten</w>
men tali
W all
viel er</w>
Konta kte</w>
num mer</w>
chan nels</w>
Por t
renov ated</w>
ism us
Er stellung</w>
legi timate</w>
il er</w>
fol glich</w>
Ma c</w>
Fil m
ass ure</w>
yst em</w>
Kom ment
1 1.</w>
lo oked</w>
alisi erten</w>
shi pping</w>
N ic
sti ll
beauftra gten</w>
R ati
gh ter</w>
hous ing</w>
f on
Ju gend</w>
betri eben</w>
mi x</w>
al ties</w>
Dire kt
CO M</w>
B C</w>
is er</w>
St reit
stä tigkeit</w>
public ation</w>
belie ves</w>
eini g</w>
W ein</w>
proble me</w>
met al</w>
W are</w>
zi er
verur teilt</w>
con fer
fa ther</w>
compon ent</w>
bes timmen</w>
Y ear</w>
ES C</w>
extre m</w>
clas sic</w>
ab use</w>
Aus stellung</w>
wi reless</w>
be ten</w>
P läne</w>
Immobili en
vi erte</w>
tr y
ordin ation</w>
ehemali ge</w>
U T
gen eri
def end</w>
Auth ority</w>
AN G
zentr en</w>
parla mentar
pack aging</w>
inv ite</w>
gewähr en</w>
an wen
A ktions
contra st</w>
appl ause</w>
Nahrungs mittel
decor ated</w>
ver w
bedau er
ali ties</w>
H it
An n
kti eren</w>
.. ...</w>
ir ing</w>
top ics</w>
ur s
schön sten</w>
op h
B at
dr ink</w>
Mi o</w>
Budap est</w>
5 .</w>
tro p
om et
sa ving</w>
is ra
Kon sens</w>
an belangt</w>
Gaz a</w>
Regierung schefs</w>
re in</w>
four th</w>
Mens ch</w>
por tu
er in</w>
hin aus
aussch uß</w>
pass word</w>
or ation</w>
Ver sicherungs
T isch</w>
Proc edure</w>
H ist
sho wing</w>
inter nen</w>
e x</w>
ste chnolo
ab and
An gst</w>
happ ening</w>
ausgezeich neten</w>
super vision</w>
kan er</w>
soci e
s low</w>
exc eption</w>
cent rali
Rechts staatlichkeit</w>
Host el
wei le</w>
er fahr
se at</w>
multilater al</w>
derzei tige</w>
ban k
alb um</w>
O ne</w>
Prin zipien</w>
Konsul t
regar ded</w>
do esn</w>
Auff or
winn ing</w>
st ück</w>
AT ION</w>
Haf tung</w>
feh lt</w>
erk ennt</w>
ensu res</w>
stra fe</w>
ur a</w>
Bedro hung</w>
K ing</w>
D onn
sch reit
s elling</w>
ri si
ser s</w>
mat ch</w>
gn er</w>
gele gte</w>
inform ationen</w>
zeichn is</w>
phen om
hervor ge
di ed</w>
Fron t</w>
man aging</w>
ge statten</w>
ag ers</w>
U L
DI E</w>
verhand lungen</w>
letz ten
Be ziehung</w>
effizi ent</w>
ange kün
trans mission</w>
sti l
l ust</w>
aus gesprochen</w>
y o</w>
vi et</w>
par tly</w>
To p</w>
Isra eli</w>
sorgfäl tig</w>
lo h
t ance</w>
leg ally</w>
repe at</w>
eu er</w>
prä sent
philosop h
Potenzi al</w>
vor her</w>
unabhängi gen</w>
ti p</w>
mensch liche</w>
the ore
region aler</w>
li ft</w>
har dware</w>
Er leb
Ä gyp
blo g</w>
9 ,
verk auft</w>
ey es</w>
wel chem</w>
Lab our</w>
übri gens</w>
su rely</w>
nor thern</w>
commit tees</w>
K ro
Par ti
st em</w>
t onn
gen s
co operate</w>
prin ting</w>
ou d</w>
B and</w>
zi vi
star ts</w>
pro ud</w>
bring ung</w>
N I</w>
Medi en
gener ated</w>
seh e</w>
re cip
perform ed</w>
inhabit ants</w>
besonder er</w>
Wirtschafts politik</w>
Priv ate</w>
wah len</w>
correspon ding</w>
Audi tors</w>
wa ff
sch einen</w>
Niederlan den</w>
isra eli
Brasi lien</w>
profession als</w>
over view</w>
kur zen</w>
be zahlen</w>
he at</w>
redu zieren</w>
fil ms</w>
angebo t</w>
verk aufen</w>
tr ends</w>
kap az
ste ten</w>
ent steht</w>
ed y</w>
Hinder nisse</w>
remo te</w>
griech ischen</w>
An lass</w>
ex it</w>
Künst ler</w>
Bade zimmer</w>
Wirk samkeit</w>
re turned</w>
pre dic
autom o
Stu denten</w>
kon fron
Mill enni
D A
G ut
E EC</w>
ada pt</w>
on ing</w>
gemein schaft</w>
pol y
So viet</w>
komm e</w>
forder e</w>
Bu cht</w>
An hör
integri erten</w>
Bestell ung</w>
mi d
be vorzu
Mini sterium</w>
bot tom</w>
h all</w>
W ur
star tet</w>
min orities</w>
is men</w>
V ie
Gesch m
perio ds</w>
ge stärkt</w>
Soci ety</w>
Konfer enz
maler weise</w>
d ä
f unded</w>
G R
über ein
clu bs</w>
Sach ver
F ü
gla d</w>
entde ck
und ings</w>
S A
car rying</w>
b ou
ap p</w>
NG Os</w>
geplan ten</w>
Sch wi
Kam era</w>
K as
w ahl
por ation</w>
dec line</w>
steu ern</w>
ver än
stärk ere</w>
zusammen zu
p ac
me ant</w>
le u
adv ent
author ised</w>
Win d
In dustry</w>
6 9</w>
manufactur er</w>
Fahr zeuge</w>
deci sive</w>
Nach richten</w>
g ine</w>
fu els</w>
C o</w>
bab we</w>
2. 0</w>
vol lem</w>
vorsch läge</w>
proper ties</w>
nor malerweise</w>
aus gaben</w>
ac ted</w>
Hei mat
Außen politik</w>
A h
correc tly</w>
O F
safegu ard</w>
R unde</w>
sin stru
an wes
8 ,
sc lub</w>
l ac
Klas se</w>
introduc ing</w>
bahn hof</w>
Sta ates</w>
fav ourable</w>
öff nung</w>
g i</w>
bedeut ende</w>
th eme</w>
occu r</w>
Kor ruption</w>
record ed</w>
fähi ge</w>
riesi gen</w>
be ur
anspru chs
far ming</w>
un möglich</w>
ben utz
Frei zügigkeit</w>
P O
Eigent um</w>
Egyp t</w>
recei ving</w>
her zustellen</w>
US S</w>
Per manent</w>
prev enting</w>
m assi
Ver trau
Kohäsions politik</w>
Vol k
in put</w>
parlia ments</w>
UN O</w>
7 ,
è re</w>
N ice</w>
min i</w>
T ru
some what</w>
A 3
ähn lich</w>
speci fied</w>
land s
ge fügt</w>
än gen</w>
g ut
el se
plen ary</w>
ges tie
f erung</w>
Dor f</w>
urop ä
J ac
Energie effizienz</w>
ökonom ischen</w>
h em</w>
siden tin</w>
der e</w>
appoin tment</w>
Aus bildungs
schli mm
lü ck</w>
Hostel sclub</w>
Mon it
T el
Jo sé</w>
n am</w>
be völk
Proc ess</w>
komm un
constitu tional</w>
Est land</w>
bure auc
Sign al</w>
Assem bly</w>
B lack</w>
deli ghted</w>
würdi gkeit</w>
per si
er end</w>
sligh tly</w>
si t</w>
in ations</w>
R ural</w>
vers eh
einzigar tige</w>
L y
vor ange
under stood</w>
balcon y</w>
Consu mer</w>
Bran che</w>
chan nel</w>
F ang
Arbeitsplat z</w>
wil li
Land es
C le
rapporte urs</w>
k enntn
ges u
gener ate</w>
en vis
chec ks</w>
bel ast
ru f
ge plant</w>
re search
genü gend</w>
fest zulegen</w>
am az
ME Ps</w>
unter liegen</w>
d less</w>
Gewi cht</w>
Gep ä
Bo x</w>
ti l
auth ori
Medi ka
lic ense</w>
Kon vergen
et ed</w>
pos sibly</w>
p m</w>
ent gegen</w>
visi ting</w>
Aus gabe</w>
cri mes</w>
hum an
st ages</w>
Vi a</w>
EW G</w>
sho wed</w>
gek enn
vertre ter</w>
ver ändern</w>
u a</w>
Euro zone</w>
Aufenth al
surro undings</w>
im por
fre m
T onnen</w>
S m
Si cherung</w>
entsp annen</w>
ä t</w>
mo tiv
gän ge</w>
individu elle</w>
Stra ß
Hö chst
unabhängi ge</w>
she et</w>
System en</w>
no w
glau b
Somm er
I mm
Deut schen</w>
Po wer</w>
Lu f
Du sche</w>
is o
An la
konzentri ert</w>
ber ge</w>
ell ers</w>
min uten</w>
i gen</w>
fra me</w>
Identi tät</w>
F OR</w>
In tel
umfas sen</w>
einfach er</w>
V O</w>
8 3</w>
grat ulieren</w>
E benen</w>
quar ters</w>
ent gel
Über setzung</w>
ausge führt</w>
care ful</w>
won ach</w>
obli ged</w>
cu ts</w>
addre ssing</w>
is lands</w>
K üh
re vised</w>
promis es</w>
exclu sion</w>
eill ance</w>
Durch setzung</w>
überzeu gen</w>
visi ted</w>
thir dly</w>
an gesehen</w>
Ver mö
7 6</w>
St eig
E s</w>
organ ic</w>
k ter</w>
dem anding</w>
co ok
Über legungen</w>
pen alty</w>
blo ck
angemessen en</w>
ck en
Ra dio</w>
event ually</w>
An pass
de partment</w>
ate ful</w>
interess ante</w>
er rei
ab sch
mittl eren</w>
hervor heben</w>
er wer
Gent oo</w>
E d
to wns</w>
resi stance</w>
des k</w>
J ord
Hel sin
Georgi a</w>
b all
off ene</w>
telecommunic ations</w>
re porting</w>
k ette</w>
func tional</w>
stre ben</w>
r ation
EZ B</w>
Ant i</w>
W LAN</w>
Lett land</w>
gespei chert</w>
Ri o</w>
portu gie
her stellung</w>
digit alen</w>
Ver fahrens</w>
En gin
tour ists</w>
lo an</w>
less ons</w>
Ein wohner</w>
D ek
zurück zuführen</w>
wi ld</w>
ru f</w>
Wer ke</w>
sett ings</w>
else where</w>
Rechts grundlage</w>
Er wä
Sp ace</w>
Lat ein
stu dio</w>
inter ior</w>
E di
Pra gue</w>
Feder ation</w>
ver st
pro grammen</w>
P ort</w>
displa yed</w>
gh ly</w>
ac ade
Fisch ler</w>
D G</w>
vor bereitet</w>
distri buted</w>
Tra ining</w>
G lück
schle cht</w>
coher ent</w>
gi o</w>
be mer
S I</w>
Über blick</w>
stei gern</w>
Zusammen halt</w>
be vor
O pen
Ko sten
M esse</w>
lux uri
steh e</w>
personen bezo
V I</w>
ein zusetzen</w>
Völ ker
Inform ation
wol lten</w>
a c</w>
mittler weile</w>
famili ar</w>
K urs</w>
Ab hängi
über ein</w>
ver ehrte</w>
percent age</w>
V alle
T ar
hin gegen</w>
Di am
phar mac
n ine</w>
ha ir</w>
S z
surv ey</w>
mo dule</w>
host el</w>
bur ger</w>
tim et
j o</w>
dist ingu
arri ve</w>
ari ties</w>
Bro wser</w>
Con gress</w>
sub stance</w>
lä ßt</w>
Lan g
impres sion</w>
Lie ferung</w>
herr sch
einschlä gigen</w>
Premier minister</w>
mär kten</w>
jo in
prospec ts</w>
Ratsprä sidentschaft</w>
Hei m
B oo
Gali le
wa ffen</w>
H ans</w>
so dass</w>
masch ine</w>
geb oren</w>
unzu reich
t at</w>
mor al</w>
at z</w>
F assung</w>
5 7</w>
stütz t</w>
re placed</w>
dep end</w>
bes orgt</w>
Sek tors</w>
Krä fte</w>
Bo den
pa ying</w>
oper ator</w>
Wor t
gerich tete</w>
Lou is</w>
win es</w>
w oo
ag ent
W i</w>
Aus wei
universi ties</w>
su ites</w>
c i</w>
S ony</w>
Far be</w>
F OR
Er reichung</w>
Deleg ationen</w>
libr ary</w>
D C</w>
ver zi
mar ine</w>
Schnit t
Mar ke</w>
Krank heit</w>
B rie
ei b
de struction</w>
e ß</w>
bli che</w>
ab gestimmt</w>
Mar ina</w>
offizi ellen</w>
beob achten</w>
Vor aussch
C C</w>
konfron tiert</w>
S T</w>
on te</w>
di n</w>
P op
Bu chung</w>
rel ative</w>
zugr unde</w>
ar ts</w>
ange geben</w>
Finanz krise</w>
E IN
ge zwungen</w>
AN T
gelan gt</w>
Ein heit</w>
th ly</w>
größ er</w>
Ein stellungen</w>
ling s
Ent sch
kü mm
in sul
Wan del</w>
ste te</w>
18 .</w>
la ges</w>
credi bility</w>
Bereit schaft</w>
territ orial</w>
ic als</w>
C l
z auber
institution elle</w>
organi sieren</w>
jur is
mod ell</w>
HT ML</w>
Behör de</w>
assu me</w>
electri c</w>
woh nen</w>
struk turel
socie ties</w>
militär ischen</w>
t licher</w>
sch u
origin ally</w>
belie bi
O ld</w>
Stand or
Über gang</w>
zent ral</w>
Sch luß
S C</w>
Q U
G ö
grenzüberschreit enden</w>
docu mentation</w>
Ver arbeitung</w>
f estival</w>
tari at</w>
ru b
fo undation</w>
elek tr
D N
t es
d un
contri buted</w>
enti ves</w>
au ßen</w>
zu lässi
supp lier</w>
pre fer</w>
ony mous</w>
Sat ur
D R</w>
ci an</w>
atta ched</w>
te a</w>
port al</w>
vi rus</w>
pre siden
et h</w>
deli ber
I t</w>
si mil
quot as</w>
am i</w>
M A
7 4</w>
new sp
Ph one</w>
ß ten</w>
candi dates</w>
Kilom eter</w>
Col om
ausge stat
T om
re vi
Ver mitt
stei gt</w>
mag ne
letzten dlich</w>
com men
7 8</w>
in y</w>
er hielt</w>
al location</w>
Ber e
kon troll
aci ón</w>
Schul den
E ri
í n</w>
sen ken</w>
ni k</w>
Rück kehr</w>
schrift liche</w>
fashi on</w>
Nachhal tigkeit</w>
ra d
Ear th</w>
sha re
pris on
fäl lig</w>
ni ghts</w>
s ac
le bt</w>
bege g
Invest oren</w>
di vision</w>
av ec</w>
ange passt</w>
Auf trags
Er richtung</w>
umfan greiche</w>
de fiz
wach senden</w>
ti ver</w>
m ein
gn ü
gew onnen</w>
tradition elle</w>
D anish</w>
aus ser
Ge gend</w>
re servations</w>
P in
I M</w>
ber ühr
Vor bereit
st un
gestal tung</w>
con sent</w>
passi ert</w>
oh n
jec tion</w>
angewand t</w>
Projek ts</w>
M utter
st ars</w>
mas sage</w>
ro ot</w>
tak ings</w>
cor ner</w>
Steig erung</w>
Z one</w>
neh men
lo unge</w>
Fre it
ur ies</w>
neighbo uring</w>
Mechan ismen</w>
8 4</w>
pl ate</w>
im migrants</w>
Ent fer
after noon</w>
fer tigen</w>
continu ous</w>
wer ken</w>
zusammen arbeit</w>
effek tiv</w>
v est
ol l</w>
Cha ir
W OR
sol ches</w>
ab gesehen</w>
Vier tel</w>
Le gi
o v</w>
Vor stellung</w>
remain ed</w>
präsen tieren</w>
Person al
Gipf el
ü bt</w>
k amp
Ver zö
wom an</w>
competi tors</w>
Fri day</w>
rupp en</w>
entran ce</w>
off ic
in ated</w>
consider ably</w>
as en</w>
EC B</w>
gerich teten</w>
fe es</w>
drück t</w>
er setzen</w>
M B</w>
EW SA</w>
dies bezüglich</w>
Vor lage</w>
K auf</w>
enthal tenen</w>
Sen kung</w>
uni versity</w>
P lus</w>
ge o
Break fast</w>
weis ungen</w>
relax ation</w>
ver halten</w>
recht lich</w>
G las
ES S</w>
prä z
erreich bar</w>
Schlaf zimmer</w>
wirk samen</w>
fu sion</w>
li z
A vi
direc ted</w>
pl enty</w>
gr ateful</w>
Gra d</w>
Absch affung</w>
sched ul
lich sten</w>
compar ison</w>
Geh eim
win dows</w>
versch i
wie gend</w>
cos y</w>
ar ise</w>
M ass
zer r
ten d</w>
sugge sted</w>
indic ators</w>
M angel</w>
t ö
ada pt
ul s
St ück</w>
exc iting</w>
di ver
norm ally</w>
gre en
gen e
dis cre
beglück wünschen</w>
b ungen</w>
Sch we
R ö
K now</w>
H all</w>
A do
coun try
boo t</w>
is tic
e den</w>
Host els</w>
eig net</w>
T on
L ö
Drit tel</w>
vor stellen</w>
gu n</w>
amen ded</w>
tw enty</w>
Ser bien</w>
Poli zei</w>
6 .</w>
la bel</w>
in ser
fa vor
bot s</w>
k tes</w>
dec ade</w>
s ung</w>
regar dless</w>
Fir men
reflec ts</w>
geographi cal</w>
Nor d</w>
graphi cs</w>
ver ordnung</w>
Helsin ki</w>
re ject</w>
illu str
encour aged</w>
Waff en
M M
gh äfen</w>
entwick elte</w>
L en
Ge fahren</w>
nation als</w>
einger eicht</w>
Pal äst
ame ters</w>
Wachst um
Tai wan</w>
Li eb
Is lands</w>
De partment</w>
fore sts</w>
on al</w>
ent es</w>
Prof ession
indi re
an er</w>
mo ther</w>
f ot
W illi
Mac ed
represent ation</w>
fit ness</w>
eth eless</w>
under takings</w>
sch e
re volu
da li
Einzel heiten</w>
Y outh</w>
Au ge</w>
v on
sever e</w>
Änderungsant rägen</w>
instal lieren</w>
ab sor
individu ellen</w>
exklu si
ben achteili
non etheless</w>
produc er</w>
pre t
n ör
mp ft</w>
koh är
configur ation</w>
surv eillance</w>
üh r</w>
ger ing</w>
Netz e</w>
Nor wegen</w>
to i
perf ekt</w>
ed onien</w>
rä um
meas u
Mo z
concentr ation</w>
b utes</w>
Son ne</w>
proce ed</w>
e ering</w>
Bestimm ung</w>
europä isches</w>
fo und
Verbraucher schutz</w>
Plen um</w>
Mu sic</w>
sel be</w>
Phi losop
lossen heit</w>
ar med</w>
Ver sorgung</w>
ran ging</w>
gemeinsam er</w>
con stitutes</w>
Mechan ismus</w>
Staats -</w>
adul ts</w>
á n</w>
Überein kommens</w>
leich ter</w>
d sch
val ley</w>
port folio</w>
ta gen</w>
in ess</w>
defin itely</w>
Sa una</w>
dom ain</w>
T rau
B it
air ports</w>
Assozi ierungs
groß em</w>
ch est
Mitarbei tern</w>
ex trac
disp ute</w>
der er</w>
b and
p ä
Viet nam</w>
verbin den</w>
re construction</w>
hy dro
er gibt</w>
accur ate</w>
R est</w>
great ly</w>
t ables</w>
argu ment</w>
integri ert</w>
auff or
Wün sche</w>
ga ined</w>
er fordern</w>
deposi t</w>
hervorge hoben</w>
in n</w>
ter te</w>
sugges tions</w>
ref ers</w>
verring ert</w>
ta il
den kt</w>
bekan nte</w>
p ar</w>
ear th</w>
M erc
L as
E EA</w>
vac ation</w>
me e</w>
D S</w>
we ge</w>
lü ssel
mor ali
ling u
in mitten</w>
er schi
w th</w>
Web seiten</w>
Provin z</w>
Pre siden
D ü
ma chten</w>
besch rieben</w>
connec t</w>
bat ter
an halten
se es</w>
redu ziert</w>
internation ally</w>
Ado be</w>
join tly</w>
In kraft
liber al</w>
kehr t</w>
desi red</w>
A partment</w>
freed oms</w>
gra d</w>
az za</w>
So ur
Bos nien</w>
ma gnific
erheb lichen</w>
Schlü ssel</w>
Po wer
wa ge</w>
ge stattet</w>
drin ks</w>
15 .</w>
wiederhol t</w>
sub jects</w>
styli sh</w>
enjo yed</w>
Qu elle</w>
difficul ty</w>
р а
speak er</w>
hinzu fügen</w>
Aus richtung</w>
A ni
high lights</w>
st at</w>
s u</w>
beschäf tigen</w>
um setzen</w>
priv ati
br ut
beein druck
Tha iland</w>
verein bar</w>
ru ft</w>
eib .org</w>
auf s</w>
Nach richt</w>
appe arance</w>
Ver teilung</w>
vir tual</w>
bene fici
Sor gen</w>
ch air
ad o
ver boten</w>
finanzi erung</w>
Pol y
4 0
shor tly</w>
es cap
W äl
dis abled</w>
subsequ ent</w>
Er forder
s ought</w>
J ames</w>
Gleich stellung</w>
nut ri
fer n
dafri ka</w>
re tail</w>
akzep tabel</w>
air lines</w>
r ental</w>
digit ale</w>
as ti
Bos nia</w>
gar dens</w>
über mittelt</w>
mäßi gen</w>
col lap
arb our</w>
metho den</w>
gebo ten</w>
euro s</w>
ap s</w>
R ü
Dem on
Kommission sprä
än ge</w>
re store</w>
m use
einge gangen</w>
a .
S AP</w>
Prof essor</w>
con tradi
viel es</w>
Beschrän kungen</w>
reflec ted</w>
j enen</w>
li min
antwor tet</w>
Up date</w>
leg ed</w>
comple tion</w>
i ge</w>
en abled</w>
Gro wth</w>
Öff nung</w>
exclu ded</w>
Katastro phe</w>
Commission ers</w>
arbei tete</w>
ähr t</w>
ver mitteln</w>
so genannten</w>
k raten</w>
bud gets</w>
a dem
ut ation</w>
ein ma
app elli
a x
Steu erung</w>
sen sible</w>
occa sions</w>
no ver</w>
mo vements</w>
fahr zeuge</w>
Ver lust</w>
Qu ellen</w>
For ce</w>
mar ri
ha z
eli gible</w>
well en
spo ken</w>
lo ck</w>
Verbrau chern</w>
l unch</w>
optim ale</w>
land wirtschaftlichen</w>
Lie be</w>
sch au
ar ising</w>
E dition</w>
mus sten</w>
Ver ab
Rahmen bedingungen</w>
bewäl tigen</w>
et a</w>
di ch</w>
F ru
si ght</w>
inv ites</w>
analy se</w>
der te</w>
C r
extra ordinary</w>
erör tert</w>
Kon figur
Frei heiten</w>
geh ol
we ak</w>
ll er</w>
tonn es</w>
Zu ge</w>
gerä t</w>
accoun ting</w>
ver dient</w>
Kon jun
Cli ent</w>
C L
pro ven</w>
g lo
ver teilt</w>
propor tion</w>
gesch afft</w>
maß geb
he aring</w>
inc entives</w>
Mod elle</w>
A l</w>
Syri a</w>
Elek tro
lang sam</w>
we ar</w>
g allery</w>
sol ely</w>
achie vement</w>
geräum t</w>
geb rau
arri ved</w>
K örper
IM F</w>
Aus maß</w>
vereinbar ten</w>
jähr lichen</w>
sta un
et abli
Galile o</w>
thre sh
N on</w>
se bene</w>
chti ge</w>
tri al</w>
plan et</w>
ta gs</w>
gesch ätz
Wal d
UN K
Geri chts
E valu
at tri
re venue</w>
implic ations</w>
beri chten</w>
verstär kte</w>
Kor re
statt dessen</w>
dri ven</w>
arti st</w>
Vor der
Kap ital</w>
ro lle</w>
gr ati
gab en
scienti sts</w>
S ah
K openhagen</w>
Ch urch</w>
Ver lu
wechs el</w>
rech nen</w>
ergän zen</w>
b latt</w>
Z eu
Blo g</w>
ver wei
militär ische</w>
neu n</w>
ath ed
Z un
lau b</w>
constitu tion</w>
all ed</w>
F ei
vor haben</w>
pla y
refer endum</w>
politi sches</w>
gleich heit</w>
adjust ment</w>
hä user</w>
depar ture</w>
é es</w>
us ern</w>
stan de</w>
Tab ak
Recht sa
Ber n
highligh ted</w>
stri chen</w>
kompli zi
O n</w>
E X</w>
po t</w>
versch är
poli tically</w>
bet reiben</w>
Wiederauf bau</w>
Nachbar n</w>
beabsichti gt</w>
umfassen d</w>
C S</w>
ho hem</w>
fahr er</w>
spectac ular</w>
every day</w>
Kultur en</w>
ed back</w>
bra chte</w>
Ter rit
exter nen</w>
be zü
shi ft</w>
gener ell</w>
campai gn
W H
qu iry</w>
7 .</w>
unterschied lich</w>
limin ary</w>
Zi ffer</w>
sh ore</w>
natür liche</w>
L ern
Herb st</w>
ur ious</w>
f ans</w>
cl ause</w>
G au
Parla ments
or ama</w>
L IN
K y
Austra lia</w>
gesund heit</w>
canc er</w>
EW R</w>
am t</w>
Gem ü
C ot
schwer en</w>
chen der</w>
M all
leh nung</w>
conc er
Ergeb nissen</w>
fun k
EF TA</w>
thre ats</w>
hochwer tige</w>
Rechn ungs
M ed
Best eu
geplan te</w>
conven tional</w>
week end</w>
staat licher</w>
pi lot</w>
adap ted</w>
G ames</w>
Funktion ieren</w>
An sichten</w>
zu tage</w>
Ver sammlung</w>
erzeu gt</w>
Weiter en</w>
Sch ne
Pat ri
Ex change</w>
wel coming</w>
suff er</w>
auf re
Leg isl
Reguli erung</w>
Aut onom
trav elling</w>
ti ere</w>
ruhi g</w>
Informations gesellschaft</w>
r ut
A sian</w>
suffici ently</w>
clo sure</w>
Soft ware
S H
Be wäl
strai ght</w>
Wi r</w>
finan ces</w>
S how</w>
ätz en</w>
wesent licher</w>
belie f</w>
ausge geben</w>
Währungs union</w>
si ty</w>
inklu sive</w>
disa sters</w>
Wirtschafts krise</w>
Perspek tive</w>
Br un
ge wissen</w>
eh lt</w>
st on</w>
reib ungs
er teilt</w>
Stu fe</w>
Fak tor</w>
Char les</w>
uri ties</w>
ge beten</w>
al ong
st sein</w>
every body</w>
T enn
simul tane
restric ted</w>
as sen
initi ally</w>
grün den</w>
dep lo
Maz edonien</w>
Is lam</w>
t ar</w>
du l</w>
d än
Spei cher
Fri ed
wi es</w>
trans fers</w>
proto col</w>
p ace</w>
seek s</w>
konta ktieren</w>
Pas sa
A s</w>
legi tim
Kamp agne</w>
kat oren</w>
aus wirken</w>
er richtet</w>
Glaub würdigkeit</w>
Bewäl tigung</w>
necess arily</w>
expla ined</w>
pri me</w>
außerord entlich</w>
S timmen</w>
j i</w>
o s
for ts
S V</w>
up gra
ausge zeichnet</w>
Th urs
zei ge</w>
zah lungen</w>
oni o</w>
bilater alen</w>
beschrän ken</w>
p or</w>
j ener</w>
ge fallen</w>
explo itation</w>
con servation</w>
Befu gnisse</w>
ck s
en cia</w>
A th
k lear
Ver sionen</w>
pan el</w>
om eter</w>
mis sions</w>
indic ate</w>
O K</w>
ange gebenen</w>
einzu führen</w>
Salz burg</w>
pati ent</w>
T ol
mis sing</w>
stol z</w>
Bal kon</w>
wa ve</w>
ima gine</w>
Institu t</w>
r on</w>
Wahr ung</w>
Men sch
Com peti
Bet reiber</w>
Auswei tung</w>
angeb ot
se ment</w>
F utter
oper ates</w>
aff ord
Z ut
Puer to</w>
Ci vil</w>
complic ated</w>
auf treten</w>
9 00</w>
zu gute</w>
ti er</w>
g gle</w>
concep ts</w>
S U
in sofern</w>
aus sprechen</w>
unterschei den</w>
Poli zei
Na vi
Investitions bank</w>
spann ung</w>
Stra s
Innov ationen</w>
Ex ist
per mitted</w>
gradu ally</w>
fa x</w>
To wn</w>
i ties</w>
P lätz
Geb ur
glei cher
Can on</w>
Benutz er
cour age</w>
prü f
se g
Konsequ enzen</w>
Flu ghäfen</w>
ster ing</w>
hi ll</w>
L eitung</w>
fil ter</w>
dan k
Kü sten
sa h</w>
i ze</w>
Regional politik</w>
8 .</w>
е н
T ren
i ed</w>
eng age</w>
M ah
Ger echti
App le</w>
re st
S E
S ä
tra de
an ni
hi e</w>
geb illi
pro t
b i</w>
Mand at</w>
distri but
pre liminary</w>
fü ll
verbin det</w>
mar quis</w>
enst adt</w>
b attle</w>
Stand ort</w>
J a
la yer</w>
cent uries</w>
J acqu
Haushaltsp lan</w>
D ES</w>
ge fasst</w>
sp a
along side</w>
hoff entlich</w>
G ang</w>
7 9</w>
tä glichen</w>
suff ered</w>
Well ness</w>
Gericht shofs</w>
CH T</w>
domin ant</w>
L os</w>
navi gation</w>
Ma ster</w>
A US
moder ni
eini gt</w>
C ook
un fair</w>
mil es</w>
Tour isten</w>
R E</w>
ol o</w>
en cing</w>
Tre k</w>
1 1
ma kro
h te</w>
fest zustellen</w>
di ction</w>
r h
r are</w>
pre ad</w>
RO M</w>
will ing
vor gelegten</w>
ann er</w>
all ing</w>
BM W</w>
Fre unden</w>
transi tional</w>
h et</w>
argu ments</w>
H of</w>
ausgewäh lt</w>
W är
z enten</w>
fahr ens
Qu art
ION S</w>
B ars</w>
ign ori
gehens weise</w>
gebil det</w>
B is
spar en</w>
gre ssi
M A</w>
H ab
kl eines</w>
Verletz ung</w>
Den k
Bal kan</w>
hand le</w>
tor ate</w>
lei sch
T rin
I X</w>
D im
li schen</w>
bür ger</w>
Ser vic
B ö
to ward</w>
P OL
Pat ent
Ar men
er hoben</w>
promis ed</w>
gestie gen</w>
gen eti
enth alt</w>
auth enti
Sp i
Sch aden
Proz esse</w>
tax pa
anzu wenden</w>
erle bt</w>
bon us</w>
erleichter t</w>
Wer be
Al le</w>
in er
em bar
cu e</w>
recht zeitig</w>
ga ther
J an</w>
wiederhol en</w>
magnific ent</w>
in os</w>
Ver änderung</w>
ro ll</w>
hund red</w>
hom es</w>
er ship</w>
cir cul
mi x
Stras bourg</w>
Y o
er ra</w>
dies bezü
territ ori
Woh nung</w>
I WF</w>
Doku menten</w>
z onen</w>
u pper</w>
sc ene</w>
pic tu
govern ing</w>
environ mentally</w>
Ch ampi
norm alen</w>
P y
p ure</w>
effizi enter</w>
be stellen</w>
present ing</w>
mit zu
i k
w rote</w>
coun ts</w>
beruf lichen</w>
rei cher</w>
aus el</w>
Gel der</w>
Vide os</w>
anti cip
r d</w>
foot ball</w>
compla ints</w>
besei tigen</w>
Person en
Ham as</w>
uneingeschrän kt</w>
pak et</w>
ir re
comb ine</w>
vor gestellt</w>
tradi tions</w>
bewer tet</w>
te u
läng erung</w>
author isation</w>
St utt
P UNK
vi erten</w>
la stly</w>
fan den</w>
Sun day</w>
&apos; m</w>
vor aus</w>
len ding</w>
ch ester</w>
c as</w>
kontrol liert</w>
fer tig</w>
Ma in</w>
Krank en
Ge biet
A 5</w>
ou b
Ba y
succe ed</w>
secre t</w>
mati k</w>
ge dacht</w>
Des k</w>
A v
religi on</w>
gar ten</w>
attemp ts</w>
B reit
country side</w>
M ann
Ex ternal</w>
konkre t</w>
A ss
spie gelt</w>
grei ft</w>
ein zur
ch am
bewer ten</w>
ter ed</w>
let ters</w>
gel ingt</w>
associ ations</w>
vor läufi
L ate
F al
x el</w>
sor ge</w>
sec tions</w>
flä chen</w>
geschi chte</w>
err ors</w>
Protokol ls</w>
Hand lungs
eng aged</w>
all zu</w>
ah me</w>
Kompet enzen</w>
Fran zö
ange wendet</w>
Maced onia</w>
hol ds</w>
dis k</w>
produ kten</w>
lux urious</w>
Stellung nahmen</w>
Rück gang</w>
ck y</w>
Unter zeichnung</w>
Imp ul
Chi le</w>
res sourcen</w>
fir mly</w>
be antworten</w>
N eben
Chair man</w>
research ers</w>
ph ones</w>
m outh</w>
ge stellte</w>
P aci
F öder
Chanc en
ben ach
krä ften</w>
acci dent</w>
wa cht</w>
Sicherheits politik</w>
Ru ß
P apier</w>
Über tragung</w>
welt weite</w>
did n</w>
mechan ismus</w>
Compu ter
process ed</w>
C it
17 .</w>
appro aches</w>
Valle y</w>
confir mation</w>
collec ted</w>
Thurs day</w>
teach ers</w>
be fu
Wettbewer bs</w>
Samm lung</w>
Le vel</w>
Kon to</w>
cap itali
ali for
Posi tionen</w>
IN TER
Host el</w>
spo ke</w>
gemeinsam es</w>
Voraussch au</w>
Mark en</w>
Br ut
teach ing</w>
str o</w>
Fit ness
may be</w>
concentr ate</w>
clean ing</w>
S D</w>
Gerechti gkeit</w>
samm eln</w>
gro ss</w>
p us
ein gestellt</w>
bein gs</w>
accep tance</w>
supp lied</w>
lab or</w>
e ase</w>
Weiter entwicklung</w>
individu ell</w>
cap abilities</w>
ar my</w>
ö l</w>
b ai
Konfli kte</w>
integr ate</w>
Deut sch</w>
Ägyp ten</w>
zi one</w>
Con sul
8 0
signific ance</w>
prakti schen</w>
Bemerk ung</w>
li ked</w>
Entsch lossenheit</w>
thous and</w>
pro ze
ue ber</w>
zu zu
interess ant</w>
betra cht</w>
P age</w>
Bild schir
ir ischen</w>
hal ts</w>
vor liegen</w>
ber gen</w>
Ver lauf</w>
ô tel</w>
for ge
fem ale</w>
ca de
en cies</w>
ver tr
te ch</w>
Sch wä
S timm
netz e</w>
be steh
Situ ationen</w>
00 1</w>
telef on
Gr an</w>
t ons</w>
ssi g</w>
p o</w>
fisher men</w>
Gen eva</w>
ges s
f illing</w>
entru ms</w>
Bür o</w>
negoti ation</w>
be endet</w>
th care</w>
fo ssi
ba res</w>
W ill
An betracht</w>
si n</w>
rul ing</w>
mi th
be stände</w>
Ur heber
vide os</w>
R ab
Pak ete</w>
Ernähr ung</w>
s low
ren owned</w>
M .</w>
transfer red</w>
finanzi eren</w>
Administr ation</w>
un ited</w>
jet zigen</w>
cell s</w>
au dit</w>
Oper ation</w>
Statisti ken</w>
consul ting</w>
C lau
C H</w>
Kon zentr
Di ffer
re formen</w>
einzigar tigen</w>
Spit zen
un like</w>
ali tion</w>
Mit entschei
Konkur ren
unter suchen</w>
no tic
Auffor derung</w>
st y</w>
enter ing</w>
B lan
gleicher maßen</w>
behaup ten</w>
Bar nier</w>
Ash ton</w>
Mexi ko</w>
Gol d
erzi elten</w>
Syri en</w>
kontrol lieren</w>
heri ge</w>
der ed</w>
Wes entlichen</w>
Lo unge</w>
Entla stung</w>
re ti
fin ish</w>
essen tially</w>
leav es</w>
be fasst</w>
bur gh</w>
Distri bution</w>
ur gently</w>
V el
ll s</w>
erh eben</w>
Krie gs
Beri chten</w>
D un
zur zeit</w>
ve get
manufac ture</w>
Spa ß</w>
R em
Agent uren</w>
recogni zed</w>
kilom et
Zah lung</w>
spei chern</w>
pil lar</w>
di ger</w>
ari b
T AC
schied ung</w>
größer es</w>
d ges</w>
L as</w>
ener gie</w>
beruf liche</w>
Mor gen</w>
Inkraft treten</w>
H eili
k ä
Justi z
An meldung</w>
uni form</w>
soverei gn
ine a</w>
Re al</w>
Kon zer
Abhängi gkeit</w>
stärk sten</w>
instruc tions</w>
direc tory</w>
Interne ts
16 .</w>
per man
müs sten</w>
gere gelt</w>
Volks wirtschaften</w>
vers ary</w>
Li cht
Islam ic</w>
voc ational</w>
ri de</w>
Er inn
s q
regul ated</w>
rati fication</w>
reib ungen</w>
Verab schiedung</w>
Chancen gleichheit</w>
chem icals</w>
Per form
Mil ch
the ory</w>
e at</w>
Re ding</w>
Mon t
Gerä t</w>
Fern sehen</w>
se kt
fin dings</w>
sus pen
re publik</w>
deep ly</w>
B 5</w>
bevölk erung</w>
appropri ations</w>
Ur sachen</w>
Innov ations
Hum an
in ev
d ness</w>
air e</w>
ti scher</w>
Sti ftung</w>
P eri
organi sierten</w>
K e
be wahr
Er gän
viol ations</w>
ul f</w>
sign ing</w>
lic ens
speciali st</w>
muse ums</w>
gg age</w>
ch ens</w>
PUNK TE</w>
Ge werk
Groß teil</w>
tra ge
Prä sent
o di
Wider spruch</w>
C up</w>
sho t</w>
har dly</w>
gener ations</w>
mäßi ge</w>
anwes end</w>
198 8</w>
cl ini
green house</w>
g ter</w>
sh aushal
re affir
medic ines</w>
fair ly</w>
dau ert</w>
einzel staatlichen</w>
C N
vi c</w>
är er</w>
The ater</w>
sol ar</w>
afri kanischen</w>
tri ps</w>
appro ve</w>
ten nis</w>
O l
bin den</w>
au to
an z
Vermö gens
Per sön
K la
D al
ski ing</w>
jo ining</w>
effici ently</w>
besch reibung</w>
Ha ar
Be grün
illeg ale</w>
erkan nt</w>
cir cu
cat ch</w>
tain er</w>
qui ries</w>
acci dents</w>
B A</w>
Ö l</w>
und oub
pharmac eu
an ne</w>
D rin
tre e</w>
Arbeit nehmern</w>
integri erte</w>
en on</w>
A li
por te</w>
neg ativen</w>
mittel fris
Dol om
shi p
ev al</w>
design s</w>
an wenden</w>
H imm
h ase</w>
tie f</w>
gere cht
arti stic</w>
se x</w>
rec ru
mo ti
min ing</w>
prepar ations</w>
empfoh len</w>
H ong</w>
k lin
he ading</w>
con stra
as h</w>
Geschä ft</w>
willing ness</w>
vil lages</w>
exten ding</w>
colo urs</w>
ad ly</w>
schritt weise</w>
Ori enti
Mon day</w>
moment an</w>
italien ische</w>
gele genen</w>
G D</w>
be merk
ach ing</w>
P fle
mi et
K ategorien</w>
ES CO</w>
S äu
O s
schedul ed</w>
proze ß</w>
ab or
Ab en
über wachen</w>
zu künftigen</w>
l li
zu gs
genau e</w>
co ol
Ver sorgungs
subsequ ently</w>
spar tei</w>
par ameters</w>
a j
Telekommunik ations
P fer
Kon stru
Drit ten</w>
Ameri cans</w>
wunder schönen</w>
unver gess
g art</w>
f ische</w>
Schwi mm
Gemein de</w>
Ex pl
der ing</w>
Kapaz itäten</w>
D res
bran che</w>
Re chten</w>
k eit
To chter
inclu sive</w>
char ak
T ool</w>
.... ..</w>
re lief</w>
L oc
1. 5</w>
kn app</w>
pro min
comp uls
inv o
b aus</w>
sel ten</w>
l ers</w>
en ever</w>
beg ünsti
Außen -</w>
z te</w>
fest en</w>
s .com</w>
Se e
Rei sen</w>
Bedürf nissen</w>
, 00</w>
won der</w>
unterst reichen</w>
gui ded</w>
gui dance</w>
geprä gt</w>
T O
C P
kl ein</w>
Paci fic</w>
Jacqu es</w>
kor rigi
auf gebaut</w>
offizi elle</w>
hop es</w>
AC H</w>
k illed</w>
G ast</w>
vor nehmen</w>
reason ed</w>
er wor
Gener ationen</w>
olo gischen</w>
m ass
lin ing</w>
gen es</w>
me ets</w>
c rises</w>
be kommt</w>
Vertra ges</w>
Registri erung</w>
6 0
re mark
k örper
zu künftige</w>
chti g</w>
Euro stat</w>
wi des
reli ability</w>
na cht
investi g
ch ie
Anrei ze</w>
grenzüberschreit ende</w>
freund lichen</w>
fest legen</w>
Entwicklungs hilfe</w>
Bet riebe</w>
At tra
v acc
eb ook</w>
d y
V ater</w>
G as</w>
9 .</w>
or i</w>
blo cks</w>
H under
gi ge</w>
fav our
Infl ation</w>
um zu
rein force</w>
re action</w>
k ür
emis sion</w>
f loo
entscheiden den</w>
Z e
li ke
kri min
br ü
Col lege</w>
pan oram
gro sse</w>
endgül tigen</w>
enh aus</w>
ch all
th and
bil d
Sch wellen
Ab bau</w>
pra g
compu ters</w>
Lie cht
tre ff
gekenn zeichnet</w>
verk nü
sp here</w>
h en
erweiter n</w>
an gebracht</w>
R AT
Men ü</w>
Jahrzeh nten</w>
vertei digen</w>
stu dent</w>
Be achtung</w>
201 6</w>
acqui red</w>
Kontin ent</w>
Frei handels
je den
chti gt</w>
Schi ff</w>
po ols</w>
lie ber</w>
er freut</w>
Si ed
Kon g</w>
ser n</w>
infrin gements</w>
affec ting</w>
b len</w>
Rich ard</w>
Govern ance</w>
än e</w>
wor st</w>
min er
Cor porate</w>
fi x</w>
ben de</w>
Schri ft
Sa chen</w>
Besteu erung</w>
stam men</w>
ran gigen</w>
mit teilen</w>
gefähr det</w>
E E
12 .</w>
umini um</w>
klär t</w>
consequ ence</w>
E ESC</w>
ch air</w>
h art</w>
ger aten</w>
Her stell
wh enever</w>
p p</w>
ex cur
deli cious</w>
bedeut enden</w>
un forge
st ör
qualit ativ</w>
pic k</w>
occ o</w>
men ade</w>
gehöri ge</w>
Zeit plan</w>
fre ely</w>
di gn
Jugend lichen</w>
Ho li
D EN</w>
ter ri
gi cally</w>
contribut ing</w>
X P</w>
wirtschaf tung</w>
d ella</w>
h an</w>
Po int</w>
projek t</w>
Lebensmittel sicherheit</w>
prof its</w>
compuls ory</w>
A cade
oper ated</w>
S ad
per mit</w>
letz ter</w>
harm ful</w>
produc es</w>
a sion</w>
V N</w>
philosoph y</w>
Umstruktur ierung</w>
I cel
Be für
Ar t
bew u
Blu e</w>
isl am
geschlossen en</w>
Cat al
twi ce</w>
e o</w>
aci o</w>
Dom ini
C A</w>
Tschech ische</w>
Ex tre
Bud gets</w>
own ership</w>
is lat
beizu tragen</w>
au tum
Män gel</w>
Jour nal</w>
fin ed</w>
akti viert</w>
Her an
198 0</w>
üb ung</w>
tem por
ar do</w>
chall eng
ven ues</w>
Te ams</w>
P har
Di es
t less</w>
relev anten</w>
dre am</w>
cast ing</w>
b o</w>
G lück</w>
G F
Bet racht</w>
10 .</w>
zz i</w>
jeden falls</w>
bo ards</w>
Ob jec
Freit ag</w>
so unds</w>
kom fort
Treib haus
stre t
agen ts</w>
Todes strafe</w>
t é</w>
se u
destro yed</w>
Ma j
L A</w>
tä tigen</w>
Ti eren</w>
Passa gi
Ju gosla
EG F</w>
zeichn ungen</w>
i Phone</w>
geh andelt</w>
c el</w>
F eld</w>
rel ates</w>
ali stischen</w>
anzu bieten</w>
st ran
sicht bar</w>
mei ster</w>
di ert</w>
Sie mens</w>
Fran z</w>
B in
o red</w>
To ols</w>
ein stimmi
be aring</w>
an schließen</w>
Pflan zen
symbo l</w>
radi o
ag a</w>
UN ESCO</w>
Si erra</w>
Feh ler
Cust om
be hoben</w>
Qu ad
über winden</w>
vor liegende</w>
beglei tet</w>
gran ting</w>
cr yp
at o
Vis a</w>
er re
er nen</w>
tri g
op ens</w>
ho hes</w>
T ests</w>
h l</w>
d s
so il</w>
con sci
Mi gr
endor se</w>
assem bly</w>
mod ules</w>
en em
effek tive</w>
coast al</w>
S har
pro sec
gro wn</w>
ge ziel
under lying</w>
s oph
resul ted</w>
amp s</w>
Mu t</w>
korre kt</w>
ernsthaf t</w>
dur ation</w>
democ rati
aus ger
Liz enz</w>
C las
ver dienen</w>
lei dung</w>
Pro ject</w>
zw öl
ge pf
Ver stär
Emis sions
ver tritt</w>
solidi erung</w>
foc using</w>
be enden</w>
aufzu bauen</w>
E mail</w>
3 50</w>
Geschm ack</w>
in spi
h ec
för m
sto ck
schutz es</w>
tiv ität</w>
endgül tige</w>
Gui de</w>
represent ing</w>
Grün buch</w>
Gar den</w>
pre sti
gen o
feder al</w>
alco hol</w>
spezi fis
lös ungen</w>
sovereign ty</w>
swit ch</w>
cl asses</w>
Alli anz</w>
ei ling</w>
1 3.
reali se</w>
i zation</w>
bed ürf
autum n</w>
sup posed</w>
EUROP EAN</w>
Donn er
m ack
clari fy</w>
G VO</w>
ex ecutive</w>
el f</w>
dead line</w>
collec t</w>
tig keits
pl atte</w>
i z
P atten</w>
qu ellen</w>
re marks</w>
kre is</w>
Su iten</w>
lob by</w>
N az
Wissenschaft ler</w>
versi chern</w>
palästinen sischen</w>
consoli dation</w>
an en</w>
am in</w>
sm art</w>
sch were</w>
satis fy</w>
Anhör ung</w>
k einem</w>
Park platz</w>
Wechsel kur
Liz enz
Geh minuten</w>
geschä ft</w>
are l</w>
alisi erte</w>
ra ble</w>
zo g</w>
gegenwär tige</w>
gegensei tigen</w>
Pla ya</w>
Best ä
Berlin er</w>
soph istic
hal t
ab stimmen</w>
d al</w>
bir th</w>
bio diversity</w>
t ant</w>
c ell</w>
5 00
p lic
mittl ere</w>
I .</w>
Ex port
o ft
every where</w>
Über arbeitung</w>
wides pread</w>
smo oth</w>
identi fication</w>
hal tungs
empf angen</w>
U K
pl astic</w>
lini en
dr y</w>
ima gin
Ver längerung</w>
ten tion</w>
Sy mbo
Akti en
ti les</w>
L om
person en</w>
p ush</w>
f ed</w>
dar gestellt</w>
ausländi sche</w>
Inn eres</w>
Christ op
sta ke</w>
commer ce</w>
co s</w>
organ ise</w>
Mar ok
func tionality</w>
con fron
Schwei zer</w>
Defiz it</w>
vier tel</w>
undoub tedly</w>
un ab
public ations</w>
ans wer
kre di
enor me</w>
compar able</w>
enhan cing</w>
Manu el</w>
simil arly</w>
hand els</w>
wi en</w>
schn ellen</w>
execu tion</w>
den heit</w>
vis u
kontrol li
begri ffen</w>
Spezi al
Prä sen
Inter nationale</w>
Alex ander</w>
v i</w>
Ab lehnung</w>
eri al</w>
D ri
ta i
entsp ann
Mot or</w>
Mo bili
I ran
regi erung</w>
an forderungen</w>
lok aler</w>
Phot o
L ohn
cul tures</w>
z eln</w>
re served</w>
li ved</w>
Indi an</w>
Grund sätzen</w>
n esses</w>
edi tion</w>
Ro ad</w>
produ zieren</w>
bet ten</w>
P ER
yp en</w>
at t</w>
bed ded</w>
Gef än
mer ger</w>
am ed</w>
Zu verlässi
V ul
Fu sions
läng st</w>
eng ines</w>
C ir
well ness</w>
sugge sts</w>
quali fications</w>
in ing
com position</w>
ad y</w>
te stens</w>
fa ith</w>
den jenigen</w>
T ages</w>
Be wus
tsch ech
j ac
Stutt gart</w>
Erzeu gung</w>
EN T</w>
Be urteilung</w>
met ro</w>
An dr
ve ge
timet able</w>
bei hilfen</w>
N os</w>
Mor occo</w>
inter ne</w>
direc tor</w>
ad ding</w>
al li
M äd
su chte</w>
heal thcare</w>
ge äußert</w>
Ver fahrens
Kab el
erforder liche</w>
Entwicklungs zusammenarbeit</w>
Bl ut
foc uses</w>
stric tly</w>
doub ts</w>
Pflan zen</w>
p it
A H
inform al</w>
1, 5</w>
in hal
a po
ökolo gischen</w>
es ch
ec ological</w>
arbeit ungs
Res ul
Kro es</w>
Cast le</w>
ürz t</w>
up grade</w>
econom ically</w>
R eh
Donner stag</w>
13 .</w>
lei hen</w>
diplom atic</w>
dign ity</w>
Haushal ts</w>
Al ters
f ährt</w>
techn ischer</w>
wi dri
versch mutzung</w>
emplo yers</w>
Di plom
ge führte</w>
Plen ar
spre che</w>
proz esse</w>
applic ant</w>
Gewä sser</w>
Beihil fe
as set</w>
any where</w>
sa ved</w>
Tre aties</w>
Mol da
Kandi daten</w>
cul tiv
pre serve</w>
nor men</w>
kon zipi
hospit ality</w>
Elek tr
Aspek ten</w>
k le
Bör se</w>
unforge ttable</w>
gesell schaftlichen</w>
Gr ünen</w>
ts etzung</w>
S K
Prä sident
AS E</w>
ro ots</w>
is h
Zi vi
Führ er</w>
z im
sü dlichen</w>
sser n</w>
herunter laden</w>
Cor poration</w>
vor über
m än
lear ned</w>
dar k</w>
Well ness
Eing ang</w>
intelli gent</w>
Zu g</w>
Le on
E v
Geor gien</w>
vor bei</w>
T ok
Dar stellung</w>
Ber g</w>
s k</w>
pres sing</w>
ov a</w>
statt findet</w>
par liament</w>
ge fragt</w>
Ima ge</w>
über mitteln</w>
secon dary</w>
ern t</w>
Kolleg in</w>
dam ages</w>
arbei teten</w>
a w
propor tion
order ed</w>
Op position</w>
inter n
comp ete</w>
spä testens</w>
se as</w>
di alog</w>
charac ters</w>
müs ste</w>
der o
dar gelegt</w>
az z</w>
K öl
man agers</w>
frü hen</w>
er re</w>
comp act</w>
P hän
He ads</w>
s now</w>
individu ally</w>
exp and</w>
ess el</w>
ap ers</w>
amen ities</w>
Kür ze</w>
Au dio</w>
la di
bro w
St ör
Re dner</w>
F esti
Vol kes</w>
ak s</w>
Regi ster</w>
wer ks</w>
er a
elimin ate</w>
An kunft</w>
y iel
euro zone</w>
consu lt</w>
beschleuni gen</w>
gr ös
f eu
ent täu
ag ra
K it
C P</w>
geb ühr
me al</w>
stütz en</w>
musi cal</w>
refer ring</w>
gi g</w>
Energi equ
fi ehlt</w>
Her z</w>
D rei
eri en</w>
Ven ice</w>
Hin weise</w>
Her kunfts
pri ze</w>
j an</w>
i g</w>
frei er</w>
fort gesetzt</w>
wick lung</w>
su it</w>
ogra phi
Überna chtung</w>
verletz t</w>
gra m</w>
R ein
Proz eß</w>
Besch luß</w>
gra ben</w>
gewi d
demo kraten</w>
balan ces</w>
Ban ken
zi ger</w>
wor thy</w>
li chte</w>
de teri
A ri
rene wed</w>
re v
S IS</w>
Ab lauf</w>
ste am</w>
li able</w>
horizon tal</w>
et es</w>
bean tra
ver sammlung</w>
u liert</w>
neighbo urs</w>
Latein amerika</w>
A g
fin ds</w>
d lichkeit</w>
ex changes</w>
and t</w>
Be arbeitung</w>
amaz ing</w>
Satur day</w>
1 30</w>
for tz
Instru ments</w>
ökonom ische</w>
türk ischen</w>
Gesch windigkeit</w>
Def ence</w>
Bet ten</w>
zu kommen</w>
un ruhi
Liecht enstein</w>
offen bar</w>
o live</w>
gä ste</w>
ges etz</w>
fre e
chap ter</w>
b ach</w>
an on</w>
Le gal</w>
pro hib
ul en</w>
son g</w>
schwer wie
cho ices</w>
sor ti
Frühstücks buffet</w>
AN D
rati o</w>
prin ted</w>
geeig neten</w>
eigen er</w>
St ahl
unter breiten</w>
is a</w>
el det</w>
Im ple
D ach
ob served</w>
par tial</w>
bro ader</w>
al tet</w>
Frei zeit
sau ber</w>
Her z
le ger</w>
fol gender</w>
Ni geria</w>
on e
k üh
besonder es</w>
Kenn zeichnung</w>
tri eb
glie derung</w>
berech net</w>
Beob ach
dol lar</w>
MP 3</w>
A 4</w>
flu g</w>
Geb ühren</w>
Aus flüge</w>
gere chte</w>
be zahlt</w>
Di kt
under ground</w>
over looking</w>
erwer ben</w>
I E</w>
V IS</w>
Dre h
vi able</w>
kön nt</w>
gesetz lichen</w>
Refer enz
sp häre</w>
inspec tion</w>
Hä fen</w>
B ord</w>
Ar mee</w>
ra k
den tial</w>
ut zutage</w>
civi lian</w>
L ast
Resp ekt</w>
Köni g
14 .</w>
flu g
B illi
Schul den</w>
zer o</w>
stam mt</w>
frei ght</w>
Lan gu
Aben dessen</w>
wand els</w>
ständi ger</w>
inter medi
entde ckt</w>
Mall orca</w>
Off i
G ir
Ant onio</w>
li s</w>
S ul
J ack
р о
а н
über aus</w>
sus pec
pret ty</w>
gi a</w>
co ol</w>
Kompet enz</w>
tra cks</w>
pres sed</w>
co al</w>
ab kommens</w>
Bur ma</w>
0 4
ot ing</w>
mechanis men</w>
h ast</w>
bein halten</w>
Erwer b</w>
ver n</w>
tra vel
r as</w>
kol le
ter ing</w>
re stored</w>
multin ation
T uni
partner ships</w>
incorpor ated</w>
col um
Sau di</w>
Ma cht
Finn ish</w>
är ten</w>
m ere</w>
i chten</w>
d licher</w>
Sour ce</w>
Zusammen sch
Journ alisten</w>
Gemein den</w>
ti ll</w>
ke ep
E tik
virtu ally</w>
provin ce</w>
in her
erst klassi
lo y
l or
an genommenen</w>
al i</w>
T or</w>
wes enheit</w>
transi t</w>
zer ti
rit ts</w>
gewün schten</w>
fant as
c lar
c eiling</w>
Sch loss</w>
Mo sco
ausländi schen</w>
Par ameter</w>
Cap ital</w>
il ater
erör tern</w>
Erinn erung</w>
ver weisen</w>
v ina</w>
Har dware</w>
tern s</w>
he utzutage</w>
anzu zeigen</w>
te x</w>
Ne eli
zi a</w>
inf ec
er ei</w>
Grund lagen</w>
occur red</w>
mac ro
anzu passen</w>
Reg ul
Nieder l
zeit raum</w>
treat ments</w>
offizi ell</w>
Met ro
wei len</w>
beeinflus sen</w>
St rom</w>
C ô
rec re
po t
ins el</w>
ens hip</w>
Ver heu
Luft fahrt
ut most</w>
geb äu
Wieder herstellung</w>
Me eting</w>
Con stitu
confer ences</w>
Plan eten</w>
Mol do
Aut or
sol ven
ker nel</w>
emis sionen</w>
Flug haf
forder te</w>
de a
b la
G B
schwe dischen</w>
arb itr
Zeit ung</w>
forts etzen</w>
f at</w>
cal en
Vi sta</w>
Pro grammi
un entgel
reagi ert</w>
fas cin
An na</w>
ä le</w>
spir it
Universi täten</w>
S L
nütz lich</w>
feh l</w>
n ers</w>
hin weg</w>
geb nisse</w>
ur gency</w>
movi e</w>
fac tory</w>
deck ung</w>
consi sten
ar re
UNG EN</w>
Stre cke</w>
gen te</w>
ex zell
dien sten</w>
aktu ell</w>
Sou thern</w>
B üh
Stär ke</w>
Ein nahmen</w>
ab sur
Mark tan
Deb atten</w>
Arbeit geber</w>
zentr aler</w>
G on
innov ativen</w>
hy dr
Aus grenzung</w>
roman tic</w>
pl ying</w>
consul tations</w>
F IN
Ni zza</w>
In tensi
Aus einander
amen ding</w>
steri al</w>
pen sions</w>
emp fiehlt</w>
Ein kommen
ide ally</w>
he ads</w>
Verheu gen</w>
Hoh e</w>
Funda mental</w>
sup por
ün d
ther mal</w>
mis s</w>
anni versary</w>
Ti bet</w>
Präsen z</w>
kön ne</w>
Por tal</w>
P ul
Li by
Christ mas</w>
f in</w>
de ad</w>
besu cht</w>
Ver zeichnis</w>
Masch inen
M utter</w>
C ra
spec trum</w>
son gs</w>
hervorra genden</w>
Ver ordnungen</w>
Fahr t</w>
D ritte</w>
18 0</w>
a .m.</w>
Mon o
Konjun ktur
Dynam ik</w>
Air lines</w>
tim ely</w>
co des</w>
ad ds</w>
Se ever
Fre qu
plan ung</w>
au ern</w>
For tsetzung</w>
Autob ahn</w>
medizin ische</w>
gegensei tige</w>
dank bar</w>
consider ations</w>
Taus ende</w>
Re d
Bas el</w>
pro xim
mi um</w>
funktion ier
K ern</w>
oper ation
auf bauen</w>
Reser ve</w>
Qu ality</w>
to x
po o
N RO</w>
Minu te</w>
ver öffentlichen</w>
Besch werden</w>
A par
rep air</w>
occu pi
veran k
ten den</w>
klassi schen</w>
E din
C oh
gro ssen</w>
geni essen</w>
Ä u
incre di
Ver fol
Sch reiben</w>
Masch ine</w>
sup erior</w>
hei ßen</w>
P las
re volution</w>
günsti ge</w>
wal d</w>
mark ing</w>
E K
her auszu
sor ts</w>
politi ken</w>
gerecht fertigt</w>
D I</w>
b ass
as sozi
are st</w>
Vermitt lungs
Satelli ten
Ges chen
post p
kon figur
hö her
das selbe</w>
Symbo l</w>
Buch stab
olo gische</w>
existi ert</w>
at i</w>
an zunehmen</w>
Gra fi
no body</w>
ar dis
Wei h
Straß burg</w>
Rati fizierung</w>
zeich nete</w>
caus ing</w>
ö tz
us age</w>
haf tet</w>
explan ation</w>
aus üben</w>
Parla mente</w>
ver zeichnen</w>
komple tte</w>
is co</w>
Er öffnung</w>
vor zunehmen</w>
subsidi ary</w>
si ghts</w>
scri pt</w>
ex o
Ma il
y ards</w>
Zun ahme</w>
ri ding</w>
princip al</w>
G PS</w>
t les</w>
ru pt</w>
m äh
m eter</w>
install ations</w>
ed a</w>
gan z
achie vements</w>
Re de
Köni g</w>
App lik
tu i
p ru
künst ler
bet rieb</w>
Dat um</w>
thi op
perf ekte</w>
kontrol len</w>
hi elten</w>
Ma x</w>
vari ed</w>
symp ath
si x
affec ts</w>
cas ino</w>
Wochen ende</w>
Rel ations</w>
Katastro phen
Haushal te</w>
Alb ania</w>
jün gste</w>
ac compli
vis ual</w>
atten d</w>
zwei ter</w>
kom fortable</w>
Lei p
rec ords</w>
oft mals</w>
electri cal</w>
be ef</w>
auffor dern</w>
G or
B ag
fortz us
Op timi
CH F</w>
ex t</w>
chine sische</w>
wechsel n</w>
ter ung</w>
juris diction</w>
ess ed</w>
I A
simpli fication</w>
regi onen</w>
ra vel</w>
r ale</w>
oni k</w>
nar row</w>
hy th
certi fication</w>
al low
Icel and</w>
medic ine</w>
integr ity</w>
ger ingen</w>
n ings</w>
Pi azza</w>
et wai
Nachbar schafts
Garanti en</w>
würdi g</w>
fortzus etzen</w>
Ge fan
F an
ha i</w>
W ed
Soci alist</w>
198 7</w>
ver tra
phenom enon</w>
S mo
M aga
Hau t</w>
Flä che</w>
them ati
Vor rang</w>
Alb um</w>
gu es</w>
form ally</w>
res que</w>
S ri</w>
in adequate</w>
P ir
á s</w>
sto res</w>
s -</w>
re t
g ast
Schü ler</w>
Proz ent
gere ch
at orium</w>
к о
quot a</w>
pre chen</w>
Con tent</w>
Auf hebung</w>
ver breit
au l
un ilater
p ha
ei ved</w>
a o</w>
Wi k
Oli ven
tur en</w>
poo rest</w>
Cas a</w>
Binnenmark ts</w>
popul ations</w>
ment ari
Ent spannung</w>
Bo ur
Aus nahmen</w>
lo gical</w>
Mittelmeer raum</w>
sta ying</w>
setz te</w>
T ot
Or te</w>
g ingen</w>
en .htm</w>
Vertre tung</w>
C ab
е р
österreich ischen</w>
rep utation</w>
be wahren</w>
kap ital</w>
k riterien</w>
Rele ase</w>
Par lia
eh e</w>
e vol
Regi ons</w>
Pass wort</w>
therap y</w>
Mi ß
mi xed</w>
erzeu gen</w>
ch i</w>
Reser vierung</w>
An hän
u x</w>
sha dow</w>
gesch o
Ver mark
brie fly</w>
W W
Hei zung</w>
wh er
effizi enten</w>
ec ks</w>
e de</w>
du al</w>
Sü dafrika</w>
Ma y
Be zeichnung</w>
S ohn</w>
gül tig</w>
Erfol ge</w>
t ories</w>
p a</w>
Mon ti</w>
D ou
y ard</w>
kosten lose</w>
inspi red</w>
geh ei
erwäh nen</w>
cont am
be hält</w>
Wel thand
Kre ativ
hi king</w>
ant es</w>
E in</w>
Deutsch lands</w>
vor sieht</w>
ver geben</w>
s essions</w>
poten ti
be er</w>
an son
Pla y
Län ge</w>
Sp ie
um ge
ul timate</w>
auf nahme</w>
Sü do
Arznei mittel</w>
str it
g le
d ently</w>
Pro te
äl teren</w>
zwöl f</w>
rah mens</w>
gem essen</w>
ant räge</w>
Sch wan
Bet ro
Benutz ung</w>
Lit er
Eur or
Anwen der</w>
ben ch
be trag</w>
Kaff ee</w>
G A</w>
Acade my</w>
gi pf
Richt linien
F Ü
Auf trag
en es</w>
el and</w>
disp utes</w>
con vention</w>
campaign s</w>
su res</w>
chec ked</w>
D O
Cô te</w>
Ü bri
s or</w>
Steu er</w>
Dar fur</w>
198 5</w>
zu gestimmt</w>
pro gressive</w>
p ts</w>
mark tes</w>
in t
angekün digt</w>
sophistic ated</w>
lä dt</w>
ur laub</w>
Tour ism</w>
Bu dd
lan ger</w>
P SE</w>
initi ated</w>
combin es</w>
Mi et
quali ties</w>
m its</w>
journ alists</w>
geb ot
bei behalten</w>
L ok
In fo
pos ure</w>
ini eren</w>
erst es</w>
Vertri eb</w>
Muse en</w>
in o
comm it</w>
H z</w>
ri gor
re ci
in sufficient</w>
form ats</w>
eventu ell</w>
dür ften</w>
Hol z</w>
under taking</w>
pel ine</w>
magaz ine</w>
fe wer</w>
er öffnen</w>
d oppel
S W
ge treten</w>
Ministerprä sident</w>
substan tially</w>
fail s</w>
ackno wledge</w>
p her
i ka</w>
gir ls</w>
fif th</w>
er wiesen</w>
bie ts</w>
Ruß land</w>
K lu
Gre en
C olo
under take</w>
günsti gen</w>
ar men</w>
Verstär kung</w>
Stän digen</w>
L ic
bre ach</w>
Kredit karte</w>
H us
Gipfel treffen</w>
de i</w>
Ameri kaner</w>
tax i</w>
größ ter</w>
Lt d</w>
Biblioth ek</w>
zu gelassen</w>
radi k
P ack</w>
Kommissionsprä sident</w>
tran s</w>
min or</w>
inter essi
cam p</w>
W omen</w>
Klima wandels</w>
198 6</w>
Kenntn isse</w>
zeich neten</w>
Pro vi
M I
Leb anon</w>
pl ötz
T al</w>
T N
Bewer ber
soli de</w>
mand atory</w>
it ly</w>
communic ate</w>
b right</w>
Bu il
An dal
19 th</w>
bel ong</w>
R ap
K äufer</w>
an o
tre ss</w>
po le</w>
erk enn
dela ys</w>
So w
v re</w>
u ph
negoti ated</w>
flo ors</w>
elec toral</w>
sor ry</w>
j um
anson sten</w>
ES T
B oot</w>
ü mer</w>
komp ati
bewer tung</w>
G lau
B ut
sp anische</w>
r an</w>
lo ser</w>
beg ins</w>
Min im
Flor enz</w>
us alem</w>
Produ ktivität</w>
G 20</w>
Aus rüstung</w>
zerstör t</w>
Partner schaften</w>
mo bil
be danken</w>
reduc tions</w>
Ha iti</w>
geb lieben</w>
fun ktion</w>
conveni ence</w>
b eln</w>
Kon gre
rec ording</w>
Di agno
b at</w>
Wi kit
Lei ter</w>
Er satz
ali se</w>
Be sitz</w>
sur prise</w>
groß zügi
Entwick l
AS S
So und</w>
Grupp en
über lassen</w>
P M</w>
30 3</w>
ro ut
fall ing</w>
dist ur
cust om</w>
PRO C
speciali sts</w>
dec lar
b lau
Ten den
Rechnung shof</w>
Marok ko</w>
si gni
a ders</w>
Wirtschafts raum</w>
Weiß buch</w>
Edin burgh</w>
So l</w>
A ma
summ ary</w>
L ü
w ör
pol nischen</w>
n ative</w>
mini sterium</w>
gewäh lten</w>
Dec laration</w>
post al</w>
b onds</w>
H D</w>
Aut os</w>
h o</w>
bs p</w>
Zü rich</w>
N ok
ven tive</w>
gebilli gt</w>
L ine</w>
Comm erce</w>
g on</w>
ativ ity</w>
Fil me</w>
D ör
AS EAN</w>
verwen deten</w>
begrün det</w>
Schön heit</w>
tari ff</w>
se ats</w>
kl asse</w>
An träge</w>
thor ough</w>
on ie</w>
fair en</w>
Li ban
Fot o
A .
woh n
so eben</w>
Min er
Herzego win
wel le</w>
unmittel barer</w>
stru ggle</w>
r ent
pl ates</w>
j ury</w>
Sto ck</w>
Direc t</w>
unter bro
residen ts</w>
ju dge</w>
voraus sichtlich</w>
schwieri ge</w>
nec essi
li stings</w>
k tu
com posed</w>
arran gement</w>
Küh l
im men
heb t</w>
ex act</w>
á n
where by</w>
r ally</w>
ar ische</w>
Tschech ischen</w>
Luft verkehrs
est a</w>
Koh är
1 10</w>
tatsäch lichen</w>
pro bi
her bei
Sou verän
Haupt bahnhof</w>
Best re
An sprüche</w>
oblig ator
fas z
erneuer bare</w>
Re chen
Fam ily</w>
F or</w>
ste chnik</w>
heraus ra
Vorsitz enden</w>
N ero</w>
new sletter</w>
kon kur
Jose ph</w>
Cap tain</w>
C ho
industri ellen</w>
en ne</w>
with draw
sle ep</w>
publi sh</w>
ma x</w>
F T
hon our</w>
fro h</w>
än der</w>
hor se</w>
begeg nen</w>
C el
30 .</w>
ver li
grenz übergreif
gewid met</w>
er staun
ek ten</w>
bu ch
Kam pf
Finanz mittel</w>
recogni ze</w>
hi dden</w>
Wikit ravel</w>
Inn enstadt</w>
Gesetz geb
Constitu tional</w>
Be gl
tex tile</w>
investi gations</w>
verwen de</w>
t ings</w>
sicher er</w>
rein for
Vor be
Ni cht</w>
rank ungen</w>
d f
a x</w>
Gesetz es
D au
pro pri
construc ted</w>
Eu ch</w>
bath rooms</w>
F ut
ver mut
remo val</w>
ch ampi
b uses</w>
Sch ätz
Neeli e</w>
Mon tag</w>
Mark en
J ung
plan en</w>
ing redi
Te ch</w>
po sts</w>
pictu resque</w>
aktu alisiert</w>
Pal ette</w>
s me
jähr liche</w>
im ported</w>
enn ess</w>
Kar l</w>
K ä
genau er</w>
ausreich ende</w>
н о
vermi eden</w>
v ar</w>
spezi alisiert</w>
Not es</w>
Mar k</w>
re tain</w>
W it
W erten</w>
S ab
erstre ckt</w>
ver zerr
sel ber</w>
n ail</w>
ge liefert</w>
B I
leben den</w>
gel ung</w>
panoram ic</w>
unterst reicht</w>
su ms</w>
F luss</w>
ssi er</w>
ra id</w>
poli s</w>
pass ing</w>
lie b</w>
eb al
Betre uung</w>
uni or</w>
ex posed</w>
ein sei
Oper a</w>
man chen</w>
found ations</w>
Vizeprä sidentin</w>
K arel</w>
wachsen de</w>
con version</w>
Un der
ungs maßnahmen</w>
tex tual</w>
stun ning</w>
ster ben</w>
repe at
in spir
R y
ak u
Vor stellungen</w>
V inc
vol les</w>
teil te</w>
sch mer
man ual</w>
lo ading</w>
Immobili en</w>
Ent schä
relation ships</w>
ju gosla
defic its</w>
n bsp</w>
geb ühren</w>
a e
Sat z</w>
2. 5</w>
ordnungs gemäß</w>
op tional</w>
Park plätze</w>
spä teren</w>
rele ases</w>
Ru bri
F ur
syn chron
sozi al
len ken</w>
fo x</w>
C EO</w>
weiter zu
statisti cal</w>
T ür</w>
Zul assung</w>
Umweltsch utz
stu ff</w>
stan zen</w>
spar teien</w>
pursu ed</w>
maxim al</w>
in wie
depen dence</w>
Kir k</w>
Ge sicht
me als</w>
ver trä
ingredi ents</w>
in ery</w>
B om
th ri
premi um</w>
klein ere</w>
e -</w>
be an</w>
Spei sen</w>
Cu ba</w>
C AR
tr at</w>
mista ke</w>
ähn lichen</w>
sh uttle</w>
bro ken</w>
Z wan
T amp
A B</w>
sonsti gen</w>
se gment</w>
Mäd chen</w>
gnü gen</w>
chem ische</w>
automo tive</w>
29 5</w>
zw ingen</w>
so genannte</w>
serv ative</w>
g am
Pil ot
J on
F L
verbesser te</w>
kö mm
ous ness</w>
Zu cker
Indi vidu
rin zip</w>
bo ar
sp it
Ab ent
frequ ency</w>
credi ble</w>
r ating</w>
bet riebe</w>
Stra h
CD s</w>
Stell en
Nok ia</w>
E ver
Übri gen</w>
kilomet res</w>
gerech net</w>
ai red</w>
län ger
de fe
trau m
fin dung</w>
Ch an
CO UN
Betru gs
hy gi
ach ed</w>
g age</w>
zah ler</w>
gel esen</w>
d ing
mäßi gkeit</w>
disp lac
ra chten</w>
ar er</w>
W and
St rei
H U</w>
versch affen</w>
se uropä
jugosla w
. net</w>
ti erenden</w>
jun ction</w>
Wäh ler</w>
Ab teilung</w>
s anit
Offi cial</w>
B av
Austra lien</w>
li ger</w>
chn ungen</w>
Absch luß</w>
wi es
un necessary</w>
le ute</w>
conc ert</w>
An dro
st ently</w>
radi cal</w>
besch ließen</w>
v able</w>
condi tioned</w>
Entfer nung</w>
succe eded</w>
op enness</w>
equ ity</w>
de lic
über wacht</w>
sta ats
pu rely</w>
orient ation</w>
op pose</w>
mittel -</w>
li t
Perform ance</w>
Det ail</w>
Amend ments</w>
erneuer baren</w>
Feh l
sp ite</w>
bedro ht</w>
Kohär enz</w>
verletz ungen</w>
sen ior</w>
lü ssen</w>
gegeb enen</w>
an zeigen</w>
steu erung</w>
gr ünen</w>
Zerti fik
v ary</w>
hinzu gefügt</w>
Spa zier
isti sch</w>
Tex t
vor liegt</w>
S K</w>
Li b
proble m
iss ance</w>
et o
Kapaz ität</w>
Ferienwoh nung</w>
wäch st</w>
struc tured</w>
si scher</w>
form ing</w>
ehr ten</w>
Pro p
taxpa yers</w>
stab il
in ely</w>
Land wirtschafts
sa d</w>
bo ats</w>
assess ed</w>
addi tionally</w>
P AR
hom o
h un
Russ lands</w>
zunehmen de</w>
noti fication</w>
mean while</w>
Bü rokrati
ro t
gesund heits
Nach druck</w>
repe ated</w>
Por to</w>
str and</w>
ou ts</w>
ES F</w>
E qu
seit dem</w>
war tet</w>
st ories</w>
hin e</w>
g otten</w>
cli cking</w>
Get rei
Bau m
str en
f ell</w>
Re al
woh nern</w>
niedri gen</w>
ld n</w>
geschi ckt</w>
Re z
Ein la
niederländi schen</w>
k unden</w>
Lebens mitteln</w>
deut liche</w>
c at</w>
auf geführt</w>
an isch</w>
Zu gangs</w>
über wach
ebal gs</w>
prison ers</w>
Sy m
stat ing</w>
im peri
hel l</w>
aus gehend</w>
Sp ani
Mo sk
beru hen</w>
basi cally</w>
Val encia</w>
The men
In c</w>
Ein leitung</w>
mitgli eder</w>
cht ungs
S zen
Indi katoren</w>
sc rut
Religi on</w>
Frau en
legitim acy</w>
tackl ing</w>
enlar ged</w>
be fin
Pri ze</w>
fail ing</w>
dr yer</w>
be gun</w>
Dro gen</w>
Co ur
unentgel tlich</w>
p as</w>
hol der</w>
Stabilitäts -</w>
M illion</w>
L ernen</w>
Dat ei
wä sche</w>
visi ts</w>
restric tive</w>
reich hal
nehm lichkeiten</w>
feh len</w>
z ones</w>
profession elle</w>
gegen über
enz a</w>
ass urance</w>
L eben
Fre und</w>
her stellen</w>
gi k</w>
B and
p in</w>
hal ts
ans ä
Gu inea</w>
technolo gische</w>
sti ck</w>
Pal acio</w>
thresh old</w>
stöß t</w>
modernis ation</w>
mer k</w>
vic tory</w>
herr lichen</w>
Spek trum</w>
gn a</w>
bu ying</w>
Re par
Mes se
un certainty</w>
man s</w>
Inter governmental</w>
Expl orer</w>
bar ometer</w>
Verk aufs
Re publi
op ho
n utzt</w>
cover age</w>
E W</w>
Argu mente</w>
land wirtschaftliche</w>
hy po
develop ers</w>
Sec ond</w>
Pi ebalgs</w>
sitz en</w>
desi rable</w>
ci ally</w>
üb lichen</w>
bet ru
an den</w>
Str and
ater ing</w>
Musli m</w>
Begrün dung</w>
with draw</w>
verw öh
sign ature</w>
hau shal
gran ten</w>
er mitteln</w>
Stra ft
Schluß folgerungen</w>
S L</w>
Proz ess
nö tigen</w>
er hol
de voted</w>
kümm ern</w>
ger inge</w>
Koh len
m ouse</w>
guarante eing</w>
afford able</w>
Schutz es</w>
G am
w ahr</w>
u tions</w>
poten tially</w>
i o</w>
ent liche</w>
Jer usalem</w>
er arbeitet</w>
B ak
vari able</w>
ordnungs gemä
Ein satz
Beam ten</w>
ü ssen</w>
unterschied licher</w>
Sch o
viol ation</w>
speciali zed</w>
ro of</w>
ra sche</w>
hibi tions</w>
angebo te</w>
veröffent lichte</w>
verur sachen</w>
um so</w>
stre sses</w>
lan gem</w>
gar age</w>
an lässlich</w>
S Y
Infra struktur
Holi day</w>
kli mati
gering er</w>
fair e</w>
di en</w>
Ernähr ungs
Po d</w>
Hä user</w>
Fin d</w>
un employed</w>
institu te</w>
ge sichert</w>
ol dest</w>
diesel ben</w>
Vorder grund</w>
gesu cht</w>
W at
Moldo va</w>
Cook ies</w>
tro ops</w>
stä tten</w>
sen dung</w>
men tierung</w>
f ast
S OL
P ed
sur plus</w>
lin ken</w>
Sa ison</w>
zi pl
verabschie den</w>
R äume</w>
Kon vent</w>
t ut
stau sch
mi c
di al</w>
R I
exp anded</w>
ein geräumt</w>
a res</w>
Dü ssel
Ver f
War craft</w>
R enn
unge achtet</w>
s ein
certi fied</w>
Ex peri
H ek
zei gte</w>
transl ated</w>
X ML</w>
Sonn tag</w>
Mosco w</w>
lei tet</w>
Ober fläche</w>
Er leichter
Energiequ ellen</w>
z ar
tra ined</w>
Tab elle</w>
F rü
trav ellers</w>
behin der
Vereini gtes</w>
Herzegowin a</w>
mar gin
li fer
Minister rat</w>
verbin dungen</w>
re turns</w>
j ing</w>
he sit
h t
Infra strukturen</w>
toler ance</w>
sustain ed</w>
subscri be</w>
fo ster</w>
Tie f
mm a</w>
exter ne</w>
erk unden</w>
Spit ze</w>
Mar t
An sprech
ver breitet</w>
negoti ate</w>
H ein
typ ischen</w>
evi dent</w>
ell i</w>
Z erstör
Europ ar
techn isch</w>
simultane ously</w>
e des</w>
Veranstal tungs
Som alia</w>
P ho
bo und
L ast</w>
Arbeits weise</w>
stag ung</w>
recy cling</w>
T ruppen</w>
R D</w>
Men gen</w>
wir ft</w>
erweiter ten</w>
enor men</w>
dis count</w>
coordin ate</w>
aus gehen</w>
Spr ing</w>
K art
vie wing</w>
so for
M w
Entschei d
ver e</w>
ausge stellt</w>
angeneh m</w>
Ma xim
Leip zig</w>
isti k</w>
Volks gesundheit</w>
wirk liche</w>
ti an</w>
Engin eering</w>
sec onds</w>
respec tively</w>
gri ff
er teilen</w>
differ enti
ab end</w>
Dritt staaten</w>
sta yed</w>
sch wan
altern atives</w>
a mend</w>
Konsult ationen</w>
enjo ying</w>
gel s</w>
wher ever</w>
beeinträ chtigen</w>
ver teilung</w>
intensi v</w>
ei le</w>
Unter nehmer</w>
Li br
Ro ck</w>
Fahr er</w>
Facili ties</w>
ten den
statt gefunden</w>
er fasst</w>
ausge arbeitet</w>
Vor gehensweise</w>
ir on</w>
O G
Fischerei politik</w>
Aus übung</w>
Augen blick</w>
promot ed</w>
ke ys</w>
Flor ence</w>
mit geteilt</w>
mehr fach</w>
fe et</w>
Ven edi
Dres den</w>
fi re
beauftra gte</w>
Fest stellung</w>
gel d</w>
S ens
Le ague</w>
L eh
25 .</w>
se ch
contrac tual</w>
um gehend</w>
classi cal</w>
ah e</w>
Bü cher</w>
Herzego vina</w>
re aler</w>
klär en</w>
Saf e</w>
O t
Ab fälle</w>
wür digen</w>
remark able</w>
befürwor tet</w>
Pe ace</w>
zus agen</w>
system atic</w>
ko rea</w>
b ak
X I</w>
St an
K ie
Haf en
Auf lösung</w>
emphasi sed</w>
clo sing</w>
b ought</w>
Jugosla wien</w>
respec ts</w>
Unterneh mer
Ty p</w>
Spiel en</w>
Arbeits gruppe</w>
nehm bar</w>
agre es</w>
Millenni um</w>
it ar
Informations -</w>
for th</w>
sol di
bel gischen</w>
Um stände</w>
hochwer tigen</w>
ho c</w>
Trans fer</w>
re ini
haf ter</w>
dig ungen</w>
D ingen</w>
verpflich ten</w>
ver pfli
t ability</w>
sch läge</w>
lief erung</w>
beträcht liche</w>
auf gestellt</w>
H oriz
cook ies</w>
broad band</w>
tic ul
Welt wirtschaft</w>
Bl ack
Berichterstat ters</w>
Ber ge</w>
pl as
b lan
Wil d
F leisch</w>
Alb anien</w>
wa days</w>
territ ories</w>
be unruhi
respec ting</w>
manufac tured</w>
angeneh men</w>
Stabili sierungs
An nu
po sted</w>
gewöhn lich</w>
druck s
defin ing</w>
defin ieren</w>
Wachst ums</w>
li tät</w>
beri chte</w>
adi se</w>
Pf lichten</w>
E vents</w>
Bestä tigung</w>
th umb
t um</w>
Ziel setzungen</w>
Hän dler</w>
men ge</w>
ati sierung</w>
Tr end</w>
S li
MO s</w>
Intel li
under lined</w>
ständi gkeit</w>
pr ison</w>
per mission</w>
ex posure</w>
compati bility</w>
Souverän ität</w>
Ni kon</w>
Daten schutz</w>
war t</w>
s ä
refer ences</w>
hei mischen</w>
bab y</w>
bes chä
am p</w>
Sad dam</w>
A z
studi ed</w>
macro economic</w>
WH O</w>
Apparte ments</w>
Pi erre</w>
regel ungen</w>
Belast ung</w>
exp ense</w>
cr yst
Wider stand</w>
Vorsitz ender</w>
Ver stöß
verhältn is</w>
ti ment</w>
st ur
c ommission</w>
Gü ter
ra ces</w>
o urs</w>
collap se</w>
clar ity</w>
simpli fy</w>
sch wä
sam ple</w>
ga stronom
Umwelt fragen</w>
Sozial partner</w>
Bo ot
ver bindung</w>
no wadays</w>
evalu ate</w>
а л
ko dex</w>
Off ic
b aut</w>
Außen minister</w>
vi era</w>
itä tsp
M E</w>
Hand lungen</w>
Urlau bs
sh el
Assozi ations
mach inery</w>
ec ts</w>
ta gs
cer em
aus es</w>
soverei gn</w>
safe guar
m s
in door</w>
cancell ation</w>
Mar co</w>
Ein schätzung</w>
orienti erte</w>
geisti gen</w>
K DE</w>
zunehmen den</w>
motor way</w>
1 40</w>
fe a
Le ar
spä t</w>
N E</w>
ch ro
ut ung</w>
lo ads</w>
ausge deh
as signed</w>
sol ved</w>
schaf ter</w>
rieb enen</w>
ni ght
entfer nen</w>
Rah mens</w>
F abri
mit ting</w>
ei ler</w>
O z
t u</w>
ron t</w>
pen alties</w>
durch geführten</w>
Sie g</w>
O x
spor t
repeat edly</w>
beri chtet</w>
be wirken</w>
Nordi c</w>
Lebens qualität</w>
L or
residen tial</w>
endor sed</w>
acht ungs
E .
3 6
wei chen</w>
unter breitet</w>
m elt</w>
ab gegeben</w>
Wert pap
T F
t as</w>
re x</w>
dest o</w>
d ying</w>
Aus gangs
surpr ised</w>
The at
Gui delines</w>
Altern ativen</w>
enjo ys</w>
Konfli kt
neh me</w>
feat uring</w>
col ors</w>
co ck
ba y</w>
Ira q
D .</w>
Bu g
super b</w>
ag nen</w>
Gol den</w>
rob ust</w>
reno viert</w>
an sprechen</w>
W en
T us
Doku mentation</w>
AL E</w>
big ger</w>
pl ur
leit ungen</w>
Vor gaben</w>
Betru g</w>
Aktionsp lans</w>
ver steht</w>
inter im</w>
consisten cy</w>
boo ked</w>
Mo dule</w>
Ko re
Arbeits kräfte</w>
spra ch
Vene zu
J .</w>
envis aged</w>
ent spre
cal m</w>
Zuständi gkeiten</w>
Zusammen setzung</w>
Sam sung</w>
Custom er</w>
Comm un
um es</w>
versi cherung</w>
and in
sp len
insi st</w>
confi dent</w>
Su ites</w>
verti e
ameri kan
Re vision</w>
Qu es
Durch schnitt</w>
B L
zufrieden stell
j k</w>
E s
ü t
si zes</w>
pharmaceu tical</w>
W ater</w>
wid men</w>
viol ent</w>
quanti ty</w>
estim ates</w>
aus stattung</w>
Met ro</w>
woo den</w>
ver stoßen</w>
l um
far ms</w>
encour ages</w>
all mäh
stan des</w>
contradi c
clo ck</w>
bezo gene</w>
Spezi alitäten</w>
Olymp ic</w>
Liban on</w>
Erleb nis</w>
Entwick ler</w>
der selben</w>
audiovis u
Wed n
Migr ations
zusammenzu arbeiten</w>
Vorbereit ungen</w>
R SS</w>
Joh ann
um ul
se emed</w>
Föder ation</w>
publi shing</w>
orienti erten</w>
günsti g</w>
ch rist
beeinträ chtigt</w>
Pra g</w>
K le
Er arbeitung</w>
ref used</w>
Früh jahr</w>
versch le
ru fe</w>
C ru
co decision</w>
We g
Pl ace</w>
typ ically</w>
tro ck
zw eck
ph a</w>
di eren</w>
con textual</w>
Ost europa</w>
verwal tet</w>
ti gem</w>
Sam stag</w>
Residen ce</w>
Privat sphäre</w>
M é
Hoh eits
Cli mate</w>
sch lu
lo go</w>
kosten losen</w>
Wachstum sp
descri be</w>
comp rises</w>
R A</w>
Nach fol
Chi ef</w>
Ziel s</w>
Unter künfte</w>
Tra ditionen</w>
reve aled</w>
k ennt</w>
0 3
sprech end</w>
cre w</w>
b lichen</w>
air line</w>
W ör
Ri chter</w>
K lo
stimul ate</w>
purch asing</w>
geschn itten</w>
dramati c</w>
audi ence</w>
adul t</w>
Si cht
Schn ell
In spek
belie ved</w>
au ßen
V C</w>
Pen sion</w>
um gehen</w>
supple mentary</w>
is chen
charac teri
He ad</w>
pos s
acade mic</w>
theat re</w>
komple xe</w>
es a</w>
presiden tial</w>
den d</w>
Annu al</w>
promis ing</w>
Legisl ativ
20 th</w>
ver nehmen</w>
pun kten</w>
offici ally</w>
geogra ph
an sehen</w>
Fre und
C lin
keines wegs</w>
Th y
wa ke</w>
ruhi ge</w>
be arbeiten</w>
L T</w>
stra sse</w>
Gepä ck
12. 00</w>
win d
hervorra gend</w>
cul p
al ar
fu gen</w>
e sion</w>
an passen</w>
techni que</w>
Sol ana</w>
Mil an</w>
termin al</w>
proble mati
Chi c
spiel er</w>
pursu ant</w>
konsequ ent</w>
era dic
adju sted</w>
Ta x
enti ty</w>
ch ers</w>
A y
lo sing</w>
S w
Erweiter ungs
citiz enship</w>
Kar ri
vermut lich</w>
ver mittelt</w>
la im
Wohn ungen</w>
Internet zugang</w>
mit h</w>
komb iniert</w>
de cl
ch ungs
bir ds</w>
Durch führungs
hol e</w>
ber ger</w>
Aus legung</w>
ern annt</w>
neigh bourhood</w>
Schi cks
Andal u
dre ss</w>
bene ficial</w>
For d</w>
sec urities</w>
cro ps</w>
tik a</w>
rati fied</w>
hü tung</w>
bü rokrati
ar ray</w>
advent ure</w>
T U
Bürger beauftragten</w>
ob serve</w>
da hin</w>
ver brau
f at
einstimmi g</w>
c er</w>
Phili ppe</w>
4 50</w>
in quiries</w>
a ster</w>
Or ten</w>
Elek tri
Zuverlässi gkeit</w>
S. A.</w>
N er
prospec t</w>
g ori
Yugosla via</w>
S eit
Coh esion</w>
IT Y</w>
pen ding</w>
be antwortet</w>
Pal ästinen
Nachbarschafts politik</w>
umfan greichen</w>
t ü
str ing</w>
red und
neut ral</w>
mi ß
Aus sage</w>
withdraw al</w>
da vor</w>
com ings</w>
N ep
exemp tion</w>
Gro ßen</w>
Fire fox</w>
Coun try</w>
Beschäf tigten</w>
Be au
Aktu alisierung</w>
sti pul
sol ch</w>
re servi
p an</w>
zent rali
wi g</w>
gra l</w>
er arbeiten</w>
Krie ges</w>
Her kunft</w>
j a
EI T</w>
a ster
flexi bel</w>
escap e</w>
ö st
steu ert</w>
edi ted</w>
aff ord</w>
Klar heit</w>
Eff ekt</w>
r is</w>
mith ilfe</w>
metho de</w>
k ommiss
end sten</w>
demo gra
bi ological</w>
T op
Do k</w>
Comm unities</w>
t ori
log istics</w>
dimen sions</w>
continu ously</w>
ac o</w>
fer tigung</w>
en tive</w>
Zwei ten</w>
S ei
sa al</w>
organi sierte</w>
hunder t</w>
Li qui
B arb
lo ses</w>
eth ical</w>
ab ruf
Yugosla v</w>
V IP</w>
Treibhaus gas
S han
O L</w>
Haf t
sh and
qualifizi erte</w>
plac ing</w>
k lus</w>
in spiri
bein ahe</w>
Str ände</w>
Si r</w>
Objec tive</w>
Netz es</w>
N ET</w>
telefon isch</w>
om e</w>
fest e</w>
decl are</w>
Par a
Flug gesellschaften</w>
s ar
il le</w>
K au
vertr aut</w>
po ker</w>
lic ence</w>
beri chterstat
Gewin ne</w>
th ou
sch reck
bir d</w>
Rat schlag</w>
sche dule</w>
necessi ty</w>
Ru f</w>
medizin ischen</w>
lay out</w>
har m</w>
fre ich</w>
S pre
F C</w>
frü h</w>
fre sh
eri a</w>
Zusammen schluss</w>
Jahres bericht</w>
Hinter grund
Ar ena</w>
ent stand</w>
col oni
arab ischen</w>
Prä vention</w>
Geld bu
17 .
sch alten</w>
ma ps</w>
Tau ch
Ba den</w>
prefer red</w>
calen dar</w>
Tamp ere</w>
P sy
russi sche</w>
op eri
bu g</w>
Jugend liche</w>
hi lls</w>
tra ins</w>
re au</w>
hil freich</w>
ec o
1. 1</w>
teil ten</w>
i zed</w>
Kon vention</w>
K S</w>
C ross</w>
dea ths</w>
coher ence</w>
Qu ell
Er halt</w>
i ran
geb unden</w>
entschei det</w>
detailli erte</w>
atten ded</w>
Kat alog</w>
tel s</w>
short comings</w>
he avi
dig te</w>
der art</w>
T ou
Prof .</w>
EM U</w>
rä gern</w>
Merk male</w>
Frem d
Ergän zung</w>
An gabe</w>
technolo gischen</w>
e able</w>
drin king</w>
beru fen</w>
ak an</w>
spie geln</w>
Über sicht</w>
ot t
harmon ised</w>
ge klärt</w>
emp ty</w>
bu l</w>
Wohn zimmer</w>
Produc t</w>
measu rement</w>
195 7</w>
respon ses</w>
ein gebracht</w>
cap aci
Tun e
Einfu hren</w>
su ited</w>
lo aded</w>
Verfol gung</w>
Coun tries</w>
im posing</w>
höch st</w>
Ti cket</w>
Sitz ungen</w>
Kon su
Ex port</w>
z ellen</w>
sichti gen</w>
pu r</w>
pap ers</w>
hi bit
dat eien</w>
O st</w>
Bewus stsein</w>
B yr
hab ili
car te</w>
NI CHT</w>
Erwachsen e</w>
tour na
sen der</w>
cro w
c it
Co ck
ein führen</w>
con textu
arran ged</w>
Nutz ungs
Exist enz</w>
Argu ment</w>
fal se</w>
ch at</w>
bi l</w>
auf hin</w>
an wal
ver wiesen</w>
exce ed</w>
Zin ss
Partner schafts
L CD</w>
Dien sten</w>
Konzep te</w>
therap eu
spec tives</w>
por tra
fahr zeugen</w>
Vor feld</w>
inc entive</w>
ag eing</w>
Sch atten
Bla ir</w>
reflec tion</w>
läufi g</w>
Wedn esday</w>
vor ge
mechan ical</w>
a issance</w>
Wol f
Klas si
wür fe</w>
ung alo
plu g</w>
in direct</w>
char m</w>
ab e</w>
Erkenntn isse</w>
14 .
ge änder
whol es
stand ardi
indic ates</w>
berühm te</w>
Scot land</w>
Ac count</w>
AL L
eb o
re viewed</w>
meaning fully</w>
chair man</w>
ST AT</w>
Objek te</w>
opp on
n es</w>
di an</w>
bi otechnolo
My an
Lehr er</w>
ver wirklichen</w>
bran ch</w>
Presiden ts</w>
Palestini ans</w>
requ iring</w>
er weisen</w>
consi stently</w>
sc ar
pat ents</w>
recip i
fore seen</w>
ch airs</w>
begrenz te</w>
b are
infra structures</w>
St ur
Off enheit</w>
lag erung</w>
B A
pl er</w>
pa ths</w>
gefähr lich</w>
bus y</w>
ausgewäh lten</w>
Z E</w>
Tex til
Mehr wert</w>
Ratsvor sitz
Liefer anten</w>
Einzel nen</w>
Bon n</w>
re al
Doppel zimmer</w>
qu i</w>
occup ation</w>
min es</w>
Vo gel
V assi
k u</w>
3 1.</w>
weit aus</w>
men gen</w>
Verlu ste</w>
G MOs</w>
öl le</w>
tri eb</w>
stri ke</w>
du plic
clo thing</w>
ap ar
D ER
merk ungen</w>
medi eval</w>
k et
di ving</w>
Franzö sisch</w>
winn er</w>
share holders</w>
Bil dern</w>
speci ally</w>
näch ster</w>
mis sed</w>
ani el</w>
General sekretär</w>
h em
glob aler</w>
dr ängt</w>
dopp elt</w>
Proble matik</w>
G ay</w>
exp enses</w>
Gebäu den</w>
16 .
rein forced</w>
Ver mei
U M</w>
PH ARE</w>
K ey
15 .
ti gh
komple xen</w>
appar ent</w>
ver trauen</w>
ob servation</w>
berühr t</w>
ar tik
an ten
Sow jet
Gemeinschafts recht</w>
ann i</w>
Wa sch
Erzeu ger</w>
profession ellen</w>
Publik um</w>
Kris en</w>
D H
per su
metho d
investi ert</w>
Al geri
spar ungen</w>
modi fy</w>
fe edback</w>
enti ties</w>
Markt wirtschaft</w>
Kandi daten
Auf zug</w>
3 00
cy cles</w>
beit re
V P</w>
T o</w>
Schwer punkte</w>
ü stet</w>
listen ing</w>
archit ek
Li stings</w>
B un
bewu ßt</w>
[...]
