,
.
the
in
die
of
der
and
und
to
a
@-@
is
for
zu
den
that
von
für
&quot;
das
on
ist
)
(
-
mit
auf
des
with
:
this
an
be
im
it
eine
are
as
we
es
werden
wir
by
I
ein
nicht
dem
Sie
dass
will
sich
have
not
ich
you
auch
at
from
which
was
wird
sind
/
EU
&apos;s
European
has
or
als
um
über
all
zur
so
also
oder
our
wie
can
hat
bei
einer
haben
Commission
sie
Union
Kommission
diese
aus
?
einen
its
but
nach
&apos;
!
;
more
können
their
durch
am
your
zum
would
wenn
einem
one
there
been
dieser
they
if
%
er
nur
should
Mr
kann
vor
new
these
uns
aber
other
noch
wurde
must
daß
Member
Europäischen
Council
very
only
do
States
...
alle
time
müssen
President
sein
up
about
Herr
man
de
like
sehr
Europe
no
diesem
what
Mitgliedstaaten
mehr
Hotel
countries
ihre
us
when
eines
bis
unter
such
into
out
dieses
war
any
who
dies
well
people
sowie
were
2
between
vom
first
zwischen
some
Parliament
use
information
than
need
now
report
hier
most
Europäische
work
my
Rat
da
unsere
1
many
möchte
make
support
important
his
he
take
gibt
two
damit
Präsident
them
policy
keine
hotel
Europa
market
muss
made
system
s
because
over
anderen
years
Bericht
those
after
3
wurden
development
economic
where
way
under
Parlament
just
gegen
year
had
however
world
may
diesen
how
Entwicklung
heute
public
dann
Maßnahmen
neue
being
even
Ihnen
see
Jahr
immer
through
seine
order
area
therefore
part
Unternehmen
jedoch
within
10
good
here
both
un@@
neuen
ihrer
right
today
services
international
bereits
Zeit
political
europäischen
sollte
possible
could
against
4
place
&91;
&93;
Frau
Menschen
national
Informationen
same
dazu
unserer
country
en
measures
social
rights
then
5
ohne
zwei
e
high
denen
number
Jahren
available
sollten
does
sondern
andere
i
level
end
Rahmen
habe
financial
since
used
own
free
able
&amp;
without
products
Commissioner
finden
future
Bereich
Minister
last
set
insbesondere
much
Community
viele
long
want
Zusammenarbeit
seit
further
allen
during
before
find
view
still
weitere
process
already
case
mich
einige
Frage
+
ganz
doch
während
room
service
jetzt
Ihre
particular
different
including
me
machen
darauf
proposal
based
each
quality
ihr
data
2009
daher
great
energy
point
ihren
seiner
dafür
denn
said
areas
bietet
Lage
liegt
ensure
20
soll
access
dabei
agreement
programme
human
cooperation
Welt
fact
help
weil
situation
o
geht
Länder
per
nun
an@@
Unterstützung
ob
while
-@@
ab
common
get
know
wieder
US
Jahre
selbst
State
re@@
business
meine
er@@
provide
too
three
every
say
day
la
aid
course
cannot
darüber
law
schon
Richtlinie
best
lassen
2010
small
würde
beim
believe
action
trade
30
Land
means
S@@
Arbeit
Internet
Ziel
rules
Committee
15
taken
citizens
China
allem
question
The
next
2007
issue
Vorschlag
offers
protection
security
2008
example
2000
ver@@
debate
necessary
think
Ländern
m
waren
given
P@@
city
6
K@@
wollen
why
clear
deshalb
drei
ten
sector
wo
large
bin
Herrn
systems
mir
en@@
viel
full
Euro
rooms
ersten
Fragen
current
erhalten
change
Teil
möglich
her
unseren
following
give
in@@
company
main
go
12
gut
better
million
basis
unser
stehen
decision
United
state
offer
A@@
far
problem
companies
problems
needs
Bürger
ab@@
d
put
position
T@@
s@@
form
geben
Sicherheit
management
welche
adopted
Bedeutung
legal
B@@
*
te
besteht
etwas
another
stellen
few
health
steht
issues
located
deren
50
_
7
whether
working
conditions
Fall
come
together
System
D@@
production
k@@
politischen
2006
weiter
Recht
wichtig
non
Zimmer
real
Art
€
worden
growth
private
EUR
8
back
again
open
seinen
letzten
E
research
USA
role
making
L@@
group
sagen
second
du
life
C@@
Daten
term
present
Regierung
region
transport
certain
G@@
Parlaments
please
sowohl
innerhalb
Group
industry
ge@@
around
using
Gemeinschaft
local
special
Staaten
sehen
wäre
general
specific
�
account
particularly
Germany
Programm
außerdem
M@@
continue
t
down
shall
natürlich
große
N@@
control
könnte
third
t@@
kommen
environment
y
tun
framework
l
besonders
authorities
government
Court
Verfügung
Kommissar
stay
terms
global
activities
H@@
einfach
bitte
davon
result
budget
Ende
internationalen
vote
progress
line
Problem
aller
less
Politik
Möglichkeit
always
Treaty
become
projects
vielen
Rolle
E@@
unterstützen
2005
Hilfe
Artikel
power
einmal
major
Stadt
legislation
did
F@@
respect
großen
project
100
food
d@@
Rates
once
ja
children
g@@
Region
Seite
Namen
hope
implementation
close
europäische
Probleme
kein
hatte
experience
water
zwar
let
25
2004
women
German
Zusammenhang
several
&apos;t
z@@
crisis
Weise
competition
gegenüber
&124;
11
various
Thema
meiner
Zukunft
V@@
towards
bieten
muß
km
period
key
increase
verschiedenen
alles
Mittel
erreichen
A
be@@
especially
Umsetzung
create
single
2003
R@@
stellt
regional
subject
e@@
Ver@@
O@@
institutions
sollen
called
House
Ebene
ihnen
centre
Wirtschaft
economy
führen
nationalen
staff
whole
dort
Kollegen
weiterhin
beiden
Schutz
site
thank
eigenen
policies
fully
erste
approach
provided
al@@
field
effective
allerdings
yet
000
due
Weg
.@@
C
proposed
Kunden
proposals
W@@
jeder
resources
matter
2002
Frauen
Deutschland
o@@
Directive
2001
öffentlichen
modern
price
start
safety
old
page
politische
found
wissen
le
interest
members
aufgrund
24
­
done
location
Mrs
welcome
9
Beispiel
environmental
kommt
befindet
pro
el
strategy
look
regard
Service
m@@
bringen
Millionen
32
among
y@@
Seiten
i@@
ein@@
air
concerned
Fraktion
nehmen
investment
etwa
forward
least
until
employment
Strategie
website
aus@@
include
Verfahren
et
fast
range
directive
ins
efforts
often
itself
möchten
direkt
taking
Website
really
positive
hinaus
wirklich
standards
unterstützt
hand
weniger
Programme
online
costs
Förderung
Ihrer
value
importance
k
list
training
money
meeting
product
allow
al
indem
Tag
markets
application
individual
software
results
f@@
she
Affairs
Zugang
press
Ziele
n@@
excellent
Grundlage
having
entfernt
Lösung
a@@
gilt
Ab@@
Z@@
bar
An@@
name
September
provides
according
ers
off
home
Europas
society
opinion
co
total
family
resolution
days
de@@
Bank
ebenfalls
Produkte
B
di@@
u@@
going
darin
rate
France
short
personal
improve
technology
opportunity
Markt
40
something
daran
building
away
c@@
J@@
customers
Situation
although
n
addition
internal
p@@
13
enjoy
wish
above
contact
technical
call
play
International
rapporteur
v@@
risk
thus
World
18
parties
rather
b@@
recent
education
di
bzw.
ch@@
Anwendung
gehen
zusammen
Ihren
currently
ask
negotiations
regions
little
Personen
je
programmes
reform
gemacht
responsibility
months
gemeinsamen
14
I@@
u
wirtschaftlichen
Meinung
Uhr
gleichzeitig
Ihr
text
schaffen
design
ladies
finally
Bereichen
TV
Auswirkungen
Leben
00
known
Form
Bezug
sogar
dessen
gentlemen
things
Kosten
solche
requirements
Regionen
Vertrag
j@@
Abkommen
meisten
tax
four
ihrem
points
November
5@@
required
Software
step
l@@
betrifft
Verordnung
responsible
Behörden
principle
solution
related
unserem
wichtige
li@@
Qualität
address
einigen
ar@@
auf@@
cases
quite
procedure
Hotels
Rechte
groups
content
ter
might
developing
land
greater
g
plan
Verbesserung
New
Kinder
nächsten
ent@@
wide
Grund
genau
light
existing
gerade
se
handelt
1999
gute
questions
gemeinsame
essential
wegen
regulation
Verhandlungen
T
needed
16
operation
sei
others
Vorschläge
times
attention
amendments
show
würden
ing
agree
Entscheidung
b
cost
prices
Reihe
ed
Präsidentin
sozialen
nämlich
impact
Madam
bring
darf
dürfen
makes
st@@
achieve
besser
nutzen
him
easy
seinem
network
difficult
via
Presidency
version
concerning
neben
®
macht
additional
4@@
ihm
Vorschriften
appropriate
views
April
Bedingungen
6@@
beispielsweise
Berlin
Hinblick
art
Russia
Haus
natural
um@@
town
erst
states
Dienstleistungen
c
clearly
left
ti@@
force
Interesse
gesagt
Beziehungen
erforderlich
Aussprache
U@@
könnten
note
über@@
ebenso
sicher
funds
arbeiten
hin
deutlich
complete
objectives
strong
Gesellschaft
Gebiet
visit
side
young
capital
reason
derzeit
r
keinen
simply
favour
statt
climate
men
developed
relations
serious
jeden
ihn
indeed
central
D
context
minutes
brauchen
vielleicht
Ort
z
Gruppe
sustainable
Ansicht
cultural
bedeutet
Members
erreicht
assistance
Fortschritte
concerns
changes
II
halten
share
meet
across
vier
agreed
ideal
significant
date
breakfast
along
nichts
h@@
Punkt
del
involved
decisions
past
weit
sea
upon
language
low
obwohl
peace
deal
Menschenrechte
member
Abstimmung
insgesamt
Möglichkeiten
longer
or@@
euro
Beitrag
potential
ate
Die
behalf
internationale
workers
zu@@
zunächst
UN
established
besten
ts
user
x
Article
solutions
directly
interests
foreign
held
ro@@
sch@@
nature
S
beautiful
dar
five
freedom
gesamten
EIB
klar
gemeinsam
es@@
Forschung
Umwelt
objective
findet
r@@
direct
einzelnen
request
themselves
gen
facilities
Initiative
communication
Vereinigten
initiative
que
consumers
partners
democracy
Frankreich
border
integration
weltweit
si@@
Ergebnisse
aim
el@@
schließlich
on@@
notwendig
schnell
situated
60
final
WTO
angesichts
French
Demokratie
Mitglieder
car
verwendet
Re@@
Ein@@
7@@
glaube
events
Verantwortung
IP
agreements
Justice
top
soon
kind
Institutionen
heart
early
bleiben
8@@
jedes
at@@
jobs
house
pay
road
standard
&apos;@@
Italy
apply
near
almost
Investitionen
werde
guests
Verbraucher
Richtung
joint
ra@@
gehört
jede
person
live
dialogue
zudem
Republic
General
Schaffung
Dank
darum
throughout
words
democratic
ermöglicht
AG
Spain
verschiedene
took
verbessern
benefit
enough
priority
keep
lead
führt
effect
event
fundamental
age
Bekämpfung
Wachstum
Landwirtschaft
17
dadurch
Development
Schritt
weiteren
friendly
ago
In@@
re
designed
hinsichtlich
Office
bereit
either
decided
restaurant
consider
fördern
feel
created
though
ar
develop
bekannt
takes
sure
gemäß
Ergebnis
Windows
wirtschaftliche
O
rund
GmbH
Bevölkerung
pages
falls
history
angenommen
promote
active
wichtigsten
vor@@
later
knowledge
fest
Republik
Information
actions
century
regarding
os
agricultural
outside
never
funding
0
Portugal
success
follow
Government
exchange
population
ferner
2013
goods
run
commitment
oft
Angelegenheiten
zeigt
majority
Wettbewerb
levels
Kontrolle
Jahres
EC
3@@
relevant
Ukraine
Turkey
f
Debatte
Liste
Rechtsvorschriften
kleinen
ge
looking
setzen
Nähe
remain
lange
Restaurant
ungs@@
$
increased
living
Gesundheit
Bestimmungen
receive
team
media
included
reach
everything
9@@
Beschäftigung
Japan
tatsächlich
stand
mehrere
Erweiterung
rates
comes
un
type
entwickelt
care
hoffe
einschließlich
Israel
focus
Integration
enden
links
Krise
Projekt
package
station
helfen
wichtigen
hatten
se@@
extremely
Paris
practice
users
Preis
capacity
Nutzung
performance
etc
procedures
200
Handel
Türkei
mail
verfügt
true
higher
amount
seen
wobei
h
somit
Projekte
June
check
sprechen
civil
Aus@@
1998
Ausschuss
guarantee
Geschichte
provisions
0@@
includes
Herren
principles
EG
27
comfortable
space
community
ri@@
voted
thanks
external
sten
material
gestellt
le@@
below
Mail
neu
p
lot
tes
spielen
Y@@
leading
reduce
enthält
Vor@@
South
ung
fight
treatment
Industrie
ermöglichen
Version
=
stage
basic
wenig
unique
öffentliche
file
half
80
21
gewährleisten
ation
consumer
works
wer
tragen
parts
soziale
Verwendung
19
Be@@
opportunities
liegen
big
concern
supply
click
warum
American
Ihrem
Aufgabe
Lisbon
siehe
Erklärung
konnte
Erfolg
music
Einsatz
500
les
demand
ern
industrial
jedem
book
http
Mitglied
hätte
leider
ende
actually
ter@@
Antwort
bleibt
gas
achieved
fünf
ever
www.@@
.com
received
Einführung
creation
Italien
Juni
equipment
cross
los
recently
presented
kleine
innovative
Ausdruck
providing
night
added
week
contribution
am@@
military
turn
Damen
Tatsache
bisher
internet
professional
bestimmte
traditional
Mitteilung
Partner
release
doing
la@@
2020
th@@
thing
America
beach
reports
idea
allows
Convention
carried
beitragen
increasing
built
features
understand
London
add
Bildung
billion
Berichterstatter
act
@
gab
applications
IT
accept
pool
X
z.B.
job
Zahl
web
try
draft
Regierungen
Landes
hard
w@@
response
Minuten
Zentrum
considered
December
certainly
Spanien
East
22
st
Dialog
program
review
stability
sorgen
San
setting
enthalten
à
party
hours
send
Reform
effects
culture
2011
face
EN
Verbindung
return
reasons
enlargement
Central
befinden
1997
Al@@
Online
Russland
prevent
Auffassung
ber@@
Blick
connection
ger
Iran
background
values
limited
Africa
mentioned
voll
customer
body
Hintergrund
Park
instead
Dezember
successful
Lösungen
choice
eren
fair
bestimmten
details
governments
latest
perhaps
Agreement
nothing
gehören
model
famous
Energie
enable
move
aspects
read
Themen
challenges
ungen
verbunden
Organisation
reached
labour
submitted
Mal
et@@
Bemühungen
original
remains
gegeben
efficient
lack
zeigen
overall
X@@
danken
Geld
August
Änderungen
despite
former
trotz
don
neuer
balance
UK
moment
innovation
previous
Gelegenheit
Fund
nuclear
G
Lissabon
L
benefits
ways
oil
perfect
denke
Gerichtshof
bestehen
Sch@@
led
Mitgliedstaat
Kommissarin
as@@
Platz
Management
organisations
English
..
Economic
zurück
Notwendigkeit
instruments
Un@@
shows
bus
mein
Öffentlichkeit
Regulation
commercial
sectors
aware
90
23
gerne
recht
Barcelona
stop
lässt
nice
Austria
walk
writing
leisten
unseres
committee
steps
Greece
completely
bekommen
everyone
accession
Zeitpunkt
medium
ale
mobile
waste
Mai
70
conference
National
asked
Kolleginnen
geführt
choose
heißt
Interessen
simple
sieht
quickly
card
erster
Kultur
Bar
europäischer
contains
matters
La
game
movement
double
series
Durchführung
Höhe
partner
equipped
travel
nachdem
Web
Kontakt
beginning
em@@
Finanzierung
ne@@
highly
gleichen
is@@
beide
Gründen
coming
weiß
holiday
six
fishing
Änderungsanträge
legislative
office
self
size
meinen
1996
entire
verfügen
March
Änderungsantrag
amendment
Kosovo
similar
hohen
zweiten
Regeln
Haupt@@
Mediterranean
zahlreiche
table
infrastructure
contribute
durchgeführt
conclusions
independent
possibility
Ausschusses
protect
300
clean
center
regards
Entschließung
supported
priorities
ischen
Abgeordneten
Verpflichtungen
Konferenz
rule
Foreign
unternehmen
später
Text
purpose
gebracht
wohl
Ireland
Binnenmarkt
2012
&gt;
großer
No
verwenden
M
annual
x@@
ma@@
Anfang
May
criteria
furthermore
monitoring
ganzen
Prozess
hotels
Bereiche
anderer
der@@
businesses
bevor
Preise
discussion
März
function
reduction
Wert
Angebot
style
Woche
Entscheidungen
Ar@@
Mio.
activity
Monaten
transparency
Beihilfen
Brussels
stark
financing
Anforderungen
Policy
bereich
status
sound
mean
integrated
zweite
October
sense
lediglich
gelten
richtig
eigene
it@@
materials
files
creating
entwickeln
computer
moreover
study
1995
ens
folgenden
image
whose
co@@
sagte
dennoch
é@@
persons
men@@
genießen
ganze
document
implemented
meines
Er@@
January
brought
bed
hohe
Plan
construction
Finanz@@
R
Systems
seems
agenda
leben
efficiency
gestimmt
credit
enter
Anzahl
Wettbewerbsfähigkeit
Aktivitäten
mind
Vertreter
ated
Herausforderungen
ke
implement
F
35
2@@
published
gesamte
test
shown
ability
calls
expected
ac@@
complex
prepared
forms
Raum
vergangenen
1.@@
board
link
July
Stunden
Agenda
gives
fall
nimmt
comprehensive
approved
wichtiger
bi@@
po@@
ne
reforms
huge
assessment
Ro@@
star
Western
ziehen
behind
ste
treffen
guten
ihres
sites
ur@@
pressure
anti
Transparenz
digital
lo@@
largest
charge
rest
Mitarbeiter
initiatives
answer
völlig
Nationen
written
effort
vi@@
direction
Kenntnis
safe
Auswahl
applied
Oktober
search
Tage
property
require
distribution
erneut
ad@@
nie
structural
P
Produktion
guest
documents
che
analysis
bank
Design
improving
im@@
payment
code
Italian
source
den@@
45
Amsterdam
em
nor
minimum
Bild
establish
Innovation
Mehrheit
eingesetzt
reviews
per@@
ere
vertreten
Erfahrung
administrative
competitive
Griechenland
gi@@
Parteien
Stellungnahme
solchen
bessere
Standpunkt
British
Arbeits@@
Server
requires
video
Folgen
park
Fällen
Person
Organisationen
ch
Kraft
größten
Wort
In
technologies
North
allein
ändern
front
Social
Wasser
post
Familie
Änderung
äußerst
Wahl
leave
regulations
besondere
Regelung
tools
Januar
Team
Kampf
growing
poverty
keyword
Hand
Juli
kurz
plans
ni@@
28
beyond
scientific
easily
genommen
elements
speed
entsprechenden
banks
alternative
unfortunately
paid
City
floor
accordance
Ansatz
summer
competitiveness
wählen
Unter@@
Anstrengungen
om@@
erzielt
Sprache
V
Grenzen
alten
liche
au@@
mo@@
sp@@
anderem
structure
produced
Spanish
dis@@
Zeitraum
ground
accommodation
ten@@
emissions
U
ensuring
weder
Präsidenten
closed
ons
verstehen
Stelle
statement
gar
to@@
entsprechend
avoid
Brüssel
CD
came
Poland
te@@
fragen
rural
klicken
participation
verpflichtet
Ressourcen
strengthen
Gefahr
prüfen
1.
festgelegt
Schritte
Di@@
agriculture
aufgenommen
Gewalt
cause
airport
politik
Position
Verwaltung
allowed
Annahme
violence
started
chen
beschlossen
places
conflict
nationale
elections
folgende
categories
Secretary
genannten
relation
DE
bringt
ci@@
26
Mar@@
Programms
aims
Funktion
meinem
strategic
geschaffen
leicht
ges
17@@
suchen
popular
bezüglich
Services
target
equal
Punkte
Debian
West
reference
ische
giving
berücksichtigt
ka
konnten
allgemeinen
illegal
crucial
sechs
Umgebung
Business
Rights
est
speak
Meer
technischen
Reformen
einzige
é
Medien
Herzen
versuchen
representatives
instrument
sent
scheint
Linux
Aspekte
atmosphere
humanitarian
vorgelegt
zehn
organisation
Natur
practical
ie
freien
Aufmerksamkeit
produce
op@@
extra
diejenigen
Arbeitnehmer
damage
tool
base
improved
official
Kingdom
cover
build
da@@
relating
wann
types
scope
Behandlung
pleased
Conference
school
schriftlich
inter@@
Einrichtung
frei
adoption
ler
apartment
lower
jeweiligen
Königreich
maximum
operating
v
THE
Centre
Sinne
met
Wirtschafts@@
partnership
developments
bestehenden
technische
lines
Co@@
PC
farmers
unter@@
ging
ol@@
Linie
Security
con@@
option
opening
ausgestattet
variety
Schlussfolgerungen
außerhalb
Market
Bürgern
pre@@
ert
transfer
vorgeschlagen
gleich
Auf@@
Freiheit
vorgesehen
ready
größte
deutschen
lichen
aimed
message
solidarity
OF
1@@
Erfahrungen
task
sen
budgetary
Gäste
terrorism
committed
island
selbstverständlich
cohesion
consequences
download
aktuellen
sh@@
reading
starting
regionalen
highest
zweitens
offered
ger@@
Netherlands
K
carry
Dinge
kam
Berichts
ze
York
average
erklärte
Insel
Arbeitsplätze
distance
adopt
privaten
ine
guidelines
erfüllen
encourage
Czech
class
Museum
Verkehr
concept
compromise
lich
erfolgt
us@@
restaurants
wenige
geschlossen
Österreich
Vertrags
verhindern
Spiel
immediately
ta@@
mm
zusätzliche
employees
neues
Vereinbarung
Polen
fahren
unemployment
ot@@
contacts
affected
Diskussion
sometimes
ser@@
establishment
Kriterien
Pro@@
behandelt
eigentlich
challenge
sales
setzt
drive
Association
pro@@
häufig
GDP
Wasser@@
section
erwarten
Initiativen
1994
expressed
van
phone
Instrument
bit
{
ans
benötigen
film
ca.
late
heutigen
interested
University
Erachtens
mindestens
plant
umgesetzt
Technologie
processes
operations
intended
man@@
Party
nahm
St@@
erklärt
offering
ina
implementing
fields
became
discussions
scale
forces
Jahrhundert
hoch
mainly
DER
measure
Stärkung
Vertrauen
decide
reduced
ck@@
programm
folgt
cities
daily
H
networks
enterprises
sub
Gruppen
Prüfung
leaders
2014
booking.com
numerous
Über@@
Sache
Sicherheits@@
N
ber
eher
promoting
Stabilität
Gemeinsamen
gen@@
sicherzustellen
languages
fisheries
contract
hätten
16@@
Basis
coordination
regime
risks
round
interesting
High
wine
debt
confidence
verbessert
do@@
tell
provision
red
Afghanistan
server
Club
CO2
players
ideas
Einrichtungen
ECU
borders
vollständig
Con@@
Einigung
Schwierigkeiten
electronic
historical
getan
ant
mi@@
Partnerschaft
Bürgerinnen
covered
worldwide
Vorteile
Prioritäten
geworden
Bo@@
parking
useful
goes
detailed
Aufgaben
stärker
erwartet
Sektor
month
secondly
quiet
Russian
Mo@@
Strand
extent
modified
hinter
Li@@
ken
conclusion
Irland
options
Arbeiten
draw
nahe
secure
rise
poor
BIP
au
powers
Site
gern
Vice
ing@@
fallen
Bewertung
Gästebewertungen
Beginn
commitments
Küche
reality
Anerkennung
ta
Macht
express
Nr.
negative
Einklang
ko@@
15@@
schützen
Fonds
ak@@
lives
Bau@@
Milliarden
finance
ating
Ri@@
Technologien
likely
advantage
caused
Ms
gefunden
effectively
methods
fish
Flughafen
fine
learn
Musik
Um@@
kommenden
students
weeks
bald
Praxis
supporting
sources
finanziellen
death
train
75
ates
ations
Systeme
green
sofort
sobald
so@@
ce
größere
Fehler
halte
Rechnung
veröffentlicht
ski
traffic
administration
Ministers
Center
expect
31
bad
St.
child
}
justice
news
Druck
fordert
entspricht
join
ones
Personal
village
erstens
29
seines
10@@
qu@@
nachhaltige
mit@@
Armut
erfolgreich
animal
practices
cut
Villa
apartments
morgen
Trade
Inhalt
Leitlinien
entscheiden
crime
Benutzer
ER@@
Firma
processing
maintain
firstly
B.
Haushalt
Tel
KMU
consultation
zusätzlich
Frieden
introduction
ourselves
ster
Anfrage
Gebieten
tomorrow
Folge
Tagen
Car@@
net
ap@@
planning
Wochen
Staat
income
fordern
otherwise
flexible
separate
Frühstück
raised
Action
Adresse
entry
bodies
Empfehlungen
begrüße
supports
kannst
entsprechende
rich
discussed
tätig
item
Beitritt
introduced
goal
De@@
ung@@
verantwortlich
globalen
vergessen
closely
relationship
09
&apos;ll
ha@@
Präsidentschaft
lang
sk@@
Vereinten
ec@@
word
Werte
zi@@
Microsoft
Forum
bilden
Sicht
selection
par@@
Monate
items
übernehmen
2015
ca
email
uses
transparent
est@@
voting
ag@@
hold
delivery
lose
gewährleistet
Instrumente
friends
Wahlen
verfahren
Konzept
payments
Grund@@
Chinese
letzte
Bad
increasingly
nevertheless
fi@@
finanzielle
ei@@
helpful
betreffenden
Nations
welches
Solidarität
Hinsicht
möglicherweise
sufficient
happy
Ausgaben
method
Stand
talk
vital
sub@@
colleagues
alone
circumstances
Vergangenheit
limit
over@@
aktuelle
Sweden
w
Angaben
kosten
obligations
zahlreichen
bathroom
historic
mal
stärken
granted
sports
Wege
ly
son
currency
Ma@@
Opfer
genutzt
Roma
Luxembourg
begrüßt
zumindest
begin
beste
shopping
allgemeine
signed
Protokoll
clients
experts
Umwelt@@
Abschluss
refer
gesetzt
Bilder
sen@@
domestic
Dokument
legen
Überwachung
Transport
mehreren
laws
probably
anders
darstellt
Tagung
strengthening
demokratischen
Schlusselwortern
port
ausschließlich
head
Falle
dringend
Dienste
ma
Bar@@
discuss
Der
marketing
accepted
Belgium
placed
dienen
listed
En@@
Vielfalt
Romania
Ausbildung
ed@@
ana
Sea
animals
Vi@@
stimmen
participants
Beteiligung
Urlaub
besonderen
discrimination
NATO
darunter
richtige
zeit
Entwicklungen
ländlichen
erfüllt
ad
berücksichtigen
no@@
ting
lokalen
Umfang
generally
Tat
got
getroffen
lesen
genug
lost
proper
chance
institutional
broad
victims
saying
gewesen
erforderlichen
Anteil
du@@
Tagesordnung
recommendations
versucht
durch@@
paar
Google
1992
fuer
oben
Haushalts@@
concrete
14@@
India
überhaupt
besuchen
substantial
kaum
folgen
comments
Atmosphäre
2.@@
pre
400
stets
sport
modernen
Asia
Sitzung
bo@@
beginnen
influence
zurück@@
stated
Dateien
erhöhen
opened
compared
vehicles
DVD
selected
Standards
thought
machine
Neu@@
ergreifen
usually
defined
Koordinierung
freuen
ER
Research
reducing
bestimmt
regionale
congratulate
Zustimmung
Enterprise
alen
February
Tätigkeit
Federal
Aufenthalt
maßnahmen
Restaurants
games
continued
historischen
lies
protected
1993
umfasst
associated
followed
visitors
Einhaltung
danach
Bi@@
il
Standard
meetings
sa@@
pass
verfügbar
Gebäude
anything
wesentlich
her@@
erlaubt
morning
considerable
represents
danke
usw.
Angelegenheit
medical
zahlen
erkennen
mountain
represent
Iraq
critical
sets
player
politischer
schwer
AND
Prozent
scheme
me@@
regular
purposes
eindeutig
plus
ings
staatliche
offen
systeme
authority
unterschiedlichen
Zweck
tourism
linked
Wunsch
1990
concluded
abschließend
worked
namely
street
paper
Terrorismus
gesehen
Gebiete
ST@@
Engagement
notwendigen
walking
running
establishing
01
informed
moderne
Anspruch
geändert
fiscal
ve
Afrika
Gipfel
th
Prime
zone
pi@@
mission
eingeführt
aktiv
konkrete
fixed
managed
Markt@@
Public
ou@@
stress
trading
investigation
normal
betroffenen
organised
compliance
Gesamt@@
Environment
Datei
duty
changed
gezeigt
Eastern
expenditure
Dollar
improvement
collection
nationaler
ent
Osten
Phase
minute
specifically
demands
skills
Y
150
Dr.
überzeugt
eingerichtet
Airport
trägt
images
Banken
Fischerei
prior
derzeitigen
session
Steuer@@
SMEs
endlich
regulatory
unbedingt
phase
z.
persönlichen
erzielen
Po@@
Ge@@
families
Sonder@@
insurance
garden
Computer
figures
consumption
operators
extensive
swimming
Handels@@
Schengen
police
IN@@
begrüßen
wanted
facing
export
Februar
participate
außer
IN
manner
heard
Energy
correct
Untersuchung
Ausschuß
eben
su@@
wahrscheinlich
Vorhaben
gt
95
serve
select
Green
mention
Belgien
vermeiden
loss
0.@@
bedarf
gerecht
amerikanischen
hält
Par@@
Schweden
°
automatisch
unten
Grand
Health
kennen
Produkten
Entwurf
Sterne
earlier
producers
comfort
Verfassung
suitable
doubt
jeweils
18@@
800
launched
targets
wesentlichen
sign
Justiz
Wirtschafts-
Code
Märkte
governance
bewusst
trying
stock
sized
speaking
ra
born
generation
AR@@
failure
Analyse
origin
EN@@
Middle
absolutely
Mon@@
entweder
referred
ul@@
Krieg
Bulgaria
dagegen
Switzerland
recognition
sämtliche
Barroso
worth
Delegation
99
umfassende
wären
erfahren
Absatz
Board
Nutzen
Pressemitteilung
Besuch
Inter@@
erinnern
box
investments
Kommunikation
berg
menu
installation
ds
Strategy
difficulties
Su@@
ex@@
Teilnehmer
schen
unabhängig
Spieler
Schweiz
larger
00@@
recovery
gekommen
PDF
Leistungen
understanding
warm
structures
Video
gelegen
candidate
exist
fund
Vergleich
learning
genannt
comply
verfolgen
freie
Per@@
economies
arrangements
gender
hour
African
lösen
33
ali@@
functions
Produkt
record
Red
powerful
ru@@
isch
erte
evidence
ut@@
feature
Berichterstatterin
founded
criminal
automatically
13@@
ES
bare
res
raise
teilweise
components
licher
zentrale
genehmigt
na
profitieren
Ich
combat
ahead
02
deine
nen
²
infringement
promotion
III
stable
So@@
getting
welcomes
white
Infrastruktur
Berichte
andererseits
Arten
announced
ator
bitten
Karte
Sommer
degree
love
monetary
says
Voraussetzungen
positions
á@@
Richtlinien
nach@@
Madrid
Rück@@
tour
tourist
inside
yes
Ihres
plants
urban
entschieden
jüngsten
presence
photo
Irak
™
gegenwärtig
track
Agriculture
element
erung
glauben
tu@@
Überprüfung
evening
membership
gleiche
yourself
zen
hi@@
Funktionen
Veränderungen
98
Herstellung
fresh
konzentrieren
bu@@
Inhalte
e.g.
Le@@
Anwendungen
path
benutzt
era
flexibility
properly
buy
immigration
hin@@
Se@@
internationaler
informieren
zuletzt
Aufnahme
Antrag
Regelungen
va
Mitteln
talking
möglichst
studies
advanced
Kindern
treten
Partei
darstellen
stands
propose
unless
mann
Leute
playing
48
Verpflichtung
began
auswärtige
tri@@
erleben
map
ho@@
buildings
Idee
Beschluss
becoming
union
denken
Costa
Übereinkommen
ted
terrace
Chance
hierzu
Swiss
played
zuständigen
trust
format
benutzen
Aufbau
appear
Hersteller
ker
shared
consideration
möglichkeiten
erfolgen
trotzdem
ff@@
Europeans
Land@@
Hungary
continues
Rumänien
Herausforderung
markt
36
significantly
Si@@
exclusive
ec.europa.eu
purchase
braucht
Regel
controls
erstellt
etc.
save
Or@@
Homepage
wants
approval
outcome
Lo@@
thousands
übrigen
ban
rechtlichen
easier
nächste
John
Hause
Agency
applies
gelangen
weiterer
sicherlich
agencies
rechts
Cyprus
zugleich
mon@@
klare
kon@@
closer
&apos;re
mutual
3.@@
elle
verfolgt
lernen
vorgeschlagenen
votes
beteiligt
Priorität
Vorbereitung
Gemeinschafts@@
territory
evaluation
defence
permanent
Pi@@
beziehen
Vorsitz
Paper
differences
französischen
combined
Sprachen
Frankfurt
Belarus
spend
....
bestätigt
facilitate
Zeichen
fer@@
teilen
ob@@
con
sofern
Einfluss
immediate
gefördert
operational
il@@
served
gel@@
asylum
Malta
künftigen
acts
Mitte
Straße
customs
abgeschlossen
Maßnahme
Greek
whom
ek@@
Suche
programs
Rechts@@
exactly
speziell
south
binding
Daten@@
wrong
Framework
eb@@
ben
respond
hoffen
electricity
formal
Pakistan
wünschen
Bedenken
entsprechen
tabled
arbeitet
See
sides
remember
Volk
Risiken
unterschiedliche
12@@
balanced
hoch@@
spielt
initial
handeln
summit
Finanzen
Euro@@
Star
Spiel@@
index
Zu@@
else
prevention
mechanism
mobility
won
go@@
allowing
Familien
Summit
Luxemburg
angeboten
achieving
jene
za
Tra@@
wichtigste
Z
ständig
wonderful
ms
presidency
precisely
betrachtet
car@@
freue
Haltung
anti@@
entstehen
Fach@@
í@@
dealing
akzeptieren
follows
laid
exercise
03
erten
überprüfen
all@@
spending
Amendment
actual
Augen
ä@@
Kon@@
lu@@
funktioniert
Status
screen
gave
definition
Teile
speech
core
Waren
07
anyone
65
erstellen
ters
waters
Berücksichtigung
AL@@
threat
sitting
Paket
spacious
geeignet
Abkommens
Irish
peaceful
cars
Geschäfts@@
Arbeitslosigkeit
rapid
registered
festgestellt
telephone
ous
Treffen
Ko@@
completed
Christian
spirit
introduce
motion
Achtung
Grundsätze
wenden
Grundsatz
numbers
geleistet
client
daraus
betont
gu@@
camera
reception
ö@@
anderes
Finland
Ungarn
1991
AN@@
une
ner
schließen
sektor
laut
inform
gefordert
considers
Sport
proceedings
erhält
gesprochen
ster@@
hinweisen
innen
Menge
Preis@@
Financial
taxation
229
reichen
welcher
individuals
beds
sche
erwähnt
advice
Pre@@
55
wider
science
sale
Lu@@
fellow
noted
Anpassung
ya
ambitious
Sorge
gestalten
court
UND
Betrieb
happen
Nach@@
goals
AS@@
guarantees
rasch
tasks
ellen
600
relate
Stimme
planned
continuing
Kunst
hot
ck
eln
dimension
metres
si
baren
went
umfassenden
besseren
statements
jederzeit
Ex@@
Webseite
verstärkt
Web@@
Aktionen
neither
shop
ausdrücklich
Modell
De
Human
adequate
seek
benötigt
obviously
declaration
una
campaign
Air
Man@@
Croatia
Dimension
possibilities
Film
starke
ss@@
season
bilateral
intervention
erheblich
stelle
Währung
difference
Agentur
elegant
positiv
spent
34
ia
einiger
winter
miteinander
Indien
ini
availability
Bulgarien
factors
corporate
represented
species
Zeiten
deliver
betreffen
Wirkung
Unterkategorien
monitor
suggest
mar@@
Mitgliedern
kitchen
schlägt
seem
update
Spa
Entwicklungs@@
dank
IS
RO@@
08
•
firm
shops
i.e.
gs
PL
Lesung
Großbritannien
größeren
extended
ment
attractive
contrary
Kyoto
W
ene
ep@@
thinking
entirely
Gu@@
delegation
kulturellen
brand
strongly
advance
operate
institution
deep
Strategien
parallel
Auto
Mi@@
CH@@
jährlich
typical
Bedürfnisse
zusammen@@
hauptsächlich
Representative
models
instance
Investment
j
führte
4.@@
überall
ischer
pleasant
Sp@@
VAT
vision
verbundenen
informiert
dangerous
seven
eh@@
deutsche
requested
experienced
dient
euch
failed
tern
Rede
fun
tra@@
mechanisms
nachhaltigen
angezeigt
Globalisierung
Maße
database
deficit
All
erklären
preparation
wi@@
picture
Empfehlung
addressed
Bu@@
durchaus
functioning
RE@@
beachten
--
Gesetz
rail
steel
detail
Welt@@
Verringerung
Formen
relax
deswegen
connected
enables
shower
Michael
Zweifel
volle
gewinnen
Ch@@
Hinweis
erhöht
vorhanden
genuine
Forderung
wert
Sal@@
urgent
humanitäre
stellte
Titel
renewable
combination
manchmal
election
Meter
coffee
Station
erleichtern
drawn
Verhältnis
ell
tem
Universität
register
Austrian
translation
gegründet
OS
ys
cht
hear
politics
dürfte
liches
Jean
gegenwärtigen
technological
gewährt
aufgefordert
Tätigkeiten
Internationalen
ender
Städte
Europäer
railway
zuvor
advertising
limits
wood
character
Peter
mis@@
Single
wollte
display
einsetzen
Produktions@@
möglichen
appears
laden
junge
launch
ino
leader
disease
übernachten
approximately
seriously
Name
Unternehmens
schwierig
nachfolgend
Problemen
seien
claims
solcher
Risiko
independence
perspective
britischen
War
Communication
Stellung
obtain
Denmark
manage
sagt
97
vorliegenden
becomes
Com@@
bringing
applicable
devices
Stellen
Palestinian
ship
prepare
inzwischen
machines
Kultur@@
ha
Bedarf
Anlagen
fällt
courses
article
alte
hören
Korea
multi
voice
discover
stattfinden
migration
hingewiesen
identified
wenigen
06
district
zuständige
vehicle
stimme
betonen
Ber@@
geschützt
nearly
parliamentary
aspect
tradition
Elemente
houses
Verkehrs@@
ts@@
Effizienz
improvements
weg
Cor@@
carefully
sin@@
IS@@
sti@@
CO@@
moving
Leistung
betroffen
television
welcomed
eng
ic
contain
covers
tion
Vielzahl
zufolge
cuisine
condition
registration
Free
estate
requests
Forderungen
Hälfte
communities
sensitive
ausreichend
37
platform
ergeben
Niveau
fuel
Drittländern
mark
description
vo@@
geprüft
changing
examples
ven@@
regelmäßig
Island
grounds
entitled
mittels
opposition
Bestandteil
released
Fälle
vielmehr
fraud
af@@
ISO
ver
Kar@@
FR
soweit
96
eingehen
pe@@
Besucher
ange@@
hands
reliable
zuständig
reasonable
relativ
refugees
Wissen
Apartments
Das
des@@
and@@
cards
Emissionen
storage
Fortschritt
Tri@@
globale
staatlichen
Schwerpunkt
charged
Ideen
erfordert
Erhöhung
Golf
Garten
Zeit@@
Aktionsplan
Studie
Institute
Aspekt
richtigen
contracts
accounts
ationen
resort
Übernahme
sicherstellen
equality
ations@@
49
door
qualified
gra@@
liebe
2.
biggest
offensichtlich
5.@@
restructuring
geschehen
erscheint
yesterday
übertragen
Festlegung
conduct
damals
tre@@
Erklärungen
dedicated
verlassen
spezielle
ach@@
black
täglich
ve@@
Erzeugnisse
acht
Maria
pen@@
u.
Street
Installation
aufmerksam
middle
willkommen
Best
sa
Le
outstanding
Klimawandel
Normen
tests
sts
d.
Her@@
Teilnahme
Liberalisierung
Ausland
diskutieren
told
compensation
Deutsche
guide
calling
Einzel@@
ak
forget
Sozial@@
substances
confirmed
Abgeordnete
zer@@
av@@
names
whilst
Latin
gutes
1,@@
Finnland
buffet
zugunsten
Flexibilität
AS
proposes
kürzlich
bar@@
impossible
Texte
aten
zählen
legt
wishes
kan@@
club
garantiert
El
com
extend
04
42
strategies
Du@@
EADS
gain
trip
maintenance
restrictions
Komfort
Press
Dutch
lage
ks
Unabhängigkeit
3D
obligation
ati@@
Gründe
schreiben
satellite
primary
verabschiedet
85
frage
Ministry
Generation
letter
truly
England
elected
Stil
resulting
helping
notes
pictures
industries
künftig
Sanktionen
north
BSE
geltenden
persönlich
dan
nearby
architecture
Jahrhunderts
sun
abge@@
Report
he@@
kept
consistent
testing
identify
firms
described
pl@@
attempt
ors
Open
Groß@@
fire
absolut
exhibition
reservation
notice
manufacturing
Kinder@@
fr
Diskriminierung
absolute
daten
situations
intention
win
responsibilities
compatible
ales
43
determined
Technik
Vienna
sieben
jungen
Rome
sch
IT@@
maritime
kaufen
05
spezifischen
emergency
EL@@
greatest
langen
feststellen
diversity
Qu@@
Monat
ongoing
intensive
ON
Laufe
Zivilgesellschaft
Foundation
booking
38
mandate
manufacturers
länger
assist
Bush
senden
submit
teil
Saint
einfache
groß
bezeichnet
convinced
chosen
Dienst
arrival
break
Fähigkeit
burden
las
surface
thereby
tive
Austausch
Reaktion
Hauses
Vorteil
39
MEMO
großes
Mann
mu@@
Vereinbarungen
Anlage
Worte
vorlegen
Tour
effectiveness
führenden
recommend
Produkt@@
Schluss
packages
ano
affect
starken
pollution
len
issued
contained
PHP
wissenschaftlichen
ses
myself
involving
ir@@
seeking
Mobilität
Turkish
contributions
Teilen
physical
for@@
Steuern
presentation
UN@@
beginnt
Größe
David
enhance
Patienten
Voraussetzung
welchen
64
Hamburg
host
dynamic
signal
ga
transition
wa@@
ü@@
factor
weapons
sanctions
1989
mass
Santa
ausge@@
disposal
successfully
ancient
ES@@
aircraft
mer@@
Terrasse
Zypern
remove
Unterschiede
Du
Abend
route
einzigen
betrachten
imports
Beschreibung
keinerlei
cht@@
schönen
Media
accessible
religious
beinhaltet
category
Zahlen
Netz
niemand
unacceptable
Niederlande
gung
Prodi
com@@
Methode
ko
previously
band
erhebliche
lin@@
Europol
comment
positiven
smaller
affairs
herzlich
Dänemark
Q@@
Casino
grant
eri@@
beaches
happened
schools
weltweiten
fen
fear
Prinzip
driving
mögliche
himself
Kroatien
bear
Rechts
putting
yang
Kirche
Fuß
liability
delivered
Ober@@
extension
Hotel@@
brings
Regional
White
wesentliche
dritten
Gra@@
Bau
ell@@
awareness
Mittelpunkt
flight
92
apart
agency
meters
Funds
tel
zufrieden
unternommen
naturally
Pro
keeping
anlagen
demokratische
talks
angesprochen
exports
vollständige
befassen
weist
installed
Nutzer
forced
Informations@@
unable
cu@@
Gericht
politisch
surrounding
laufen
besitzt
Sehenswürdigkeiten
Politiker
amounts
weiteres
desire
reagieren
unmittelbar
button
enormous
suite
Projekten
feed
Struktur
transaction
dienste
bildet
God
valid
remaining
Hoch@@
Manager
ungs-
association
Nacht
garantieren
250
langfristige
finanziert
claim
color
früher
spezifische
ges@@
ling
wodurch
italienischen
Finance
Worten
massive
delay
warten
emphasis
Mor@@
Berg@@
echte
Company
Martin
künftige
Protection
Absicht
relaxing
derartige
umzusetzen
einge@@
Führung
Ru@@
Verständnis
window
Nachfrage
Verträge
involvement
river
relatively
luxury
Entwicklungsländern
höhere
Do@@
spread
Ereignisse
gehalten
entdecken
Mal@@
Area
investors
ard
ches
OR@@
weight
consists
Gesundheits@@
sichern
drugs
patients
bezug
Verbesserungen
Strukturfonds
Moment
opinions
zunehmend
USB
Wissenschaft
primarily
20@@
h.
under@@
communications
anbieten
abhängig
engine
radio
ehemaligen
judicial
empfehlen
verringern
Links
coast
unit
paragraph
expression
depth
einzelne
expertise
combating
recognised
Sport@@
Tiere
reply
Ö@@
books
schöne
asking
eight
ß@@
voller
Antworten
tr@@
S.
ens@@
foot
verloren
komplett
ser
temporary
carbon
Control
contents
consensus
kostenlos
ini@@
out@@
nennen
enforcement
La@@
Zielen
ty
passed
Partnern
ba@@
except
Food
ah@@
reaching
examine
Global
centres
forum
gelegt
IV
zusätzlichen
cher
ran@@
existence
whatever
conclude
Sinn
ton
depending
Einbeziehung
respective
surrounded
hoher
passengers
Anliegen
guaranteed
ari@@
achten
reflect
mid
Methoden
vorschlagen
decades
Mit@@
teilnehmen
PT
ft
ID
praktisch
Genehmigung
bereitgestellt
diseases
appeal
Auftrag
holidays
Reise
interface
Guest
Grundrechte
EL
ance
AD@@
Constitution
pa@@
sort
sage
pointed
hierbei
Hoffnung
amongst
Geschäftsordnung
schneller
Begriff
offenen
Charter
totally
speziellen
‑
Aussicht
Bal@@
statistics
museum
allgemein
Tradition
inflation
Obama
bislang
Michel
title
anerkannt
pension
cm
war@@
bars
attractions
finding
93
para
Veranstaltungen
Ne@@
Inseln
unterstütze
gestern
Anbieter
zugänglich
taxes
faced
Schutz@@
saw
Kritik
Joint
Gegensatz
meaning
visa
causes
capable
zuerst
ergriffen
41
Me@@
EM@@
Sektoren
ties
Umständen
Player
story
Firmen
nunmehr
Forschungs@@
older
Botschaft
attacks
square
44
beauty
laufenden
banking
wer@@
guter
Gi@@
1000
richten
hervor
officials
consequently
optimal
assets
Netzwerk
ado
breite
ation@@
ro
Canada
device
liberalisation
eröffnet
rechtliche
youth
organization
a.
leadership
Technology
spricht
Option
stone
Arbeitsplätzen
anhand
konkreten
tet
entscheidend
Go@@
invited
Bereitstellung
persönliche
tions
memory
Landwirte
directives
Employment
ING
block
competent
Swedish
gh@@
tried
attack
Festival
liefern
Vorschlägen
multiple
competence
genauso
fighting
tan@@
Programmen
Val@@
einerseits
ó@@
wichtiges
install
Ad@@
hergestellt
Download
ders
ative
bewegen
seitens
Kern@@
stocks
geöffnet
Märkten
leads
spanischen
fand
verstärken
Urteil
Common
glass
honourable
perfectly
fruit
Ent@@
soft
ry
geschieht
write
angemessene
touch
eu@@
focused
wiederum
tackle
keiner
ats
lake
000@@
Beihilfe
Col@@
Sitz
updated
heavy
betreffend
bath
determine
EC@@
ju@@
min
·
Beratung
Inn
Ni@@
traditionellen
sonst
recommended
Kompromiss
Fotos
imposed
Kontrollen
representative
constantly
bestimmter
Licht
acquisition
expectations
ke@@
Dokumente
photos
Agrarpolitik
Paul
acceptable
Support
And
solange
Diskussionen
pu@@
Home
ga@@
arms
ships
Am@@
beträgt
orders
tic
sold
reicht
listen
Dublin
del@@
kan
sell
AT@@
smoking
chain
Van
ben@@
beschäftigt
Hauptstadt
No@@
pp@@
noise
equally
identity
Entwicklungsländer
Fähigkeiten
Sa@@
Definition
charges
artists
pf@@
Grenze
Unterkunft
bel@@
treated
Realität
profit
someone
d.h.
residence
aufzunehmen
AN
IC@@
lag
requirement
bei@@
Ordnung
Chi@@
increases
shares
tur@@
700
ums
industrie
For@@
Director
Beiträge
largely
Allgemeinen
forest
Altstadt
kleiner
mittel
Au@@
Männer
AKP
Mittel@@
up@@
Ausbau
protecting
TO
latter
Deputy
piece
Safety
involve
Wein@@
reden
pour
ding
Eindruck
race
rightly
Strukturen
Studio
Polish
46
abroad
Experten
Staats@@
entered
Natur@@
church
Verkauf
handling
wind
7.@@
läuft
Vorgehen
El@@
Harmonisierung
grundsätzlich
mountains
Staatssekretär
looks
meat
bedingungen
Royal
Post
furnished
3.
ary
Palace
recommendation
object
ces
Education
Presse
Ti@@
grundlegenden
tor@@
Material
Angebote
scher
Arbeitsmarkt
Decision
gezogen
land@@
einverstanden
southern
convenient
einheitlichen
Willen
Unternehmens@@
extreme
Partnership
wirksam
Holz@@
store
verlangen
weshalb
holding
anschließend
merely
waiting
Charakter
sta@@
Resort
begonnen
tion@@
explain
gewählt
flow
Democrats
160
abzu@@
landscape
Bahn
arbeit
texts
ideale
westlichen
volume
Beispiele
prozess
Ba@@
Fi@@
bestehende
Bus
min@@
übernommen
ée
indicated
Protocol
privacy
anstatt
mag
Gespräche
Verwaltungs@@
ki
Stadt@@
Ausnahme
obvious
zwei@@
PPE
Dis@@
zentralen
Ho@@
gewisse
erk@@
Tourismus
golf
lan@@
Mitgliedschaft
rec@@
turned
AL
ort
remind
Link
Erde
angeht
barriers
Gegenteil
Verwirklichung
Verbot
raum
constructive
enen
Krankheiten
Gesetzgebung
Verbreitung
120
Lake
disaster
ED
Beschlüsse
erhältlich
Fax
obtained
People
nötig
Lebens@@
ff
Data
höchste
farm
lokale
advantages
appointed
wirksame
rapidly
19.
begann
Mission
Verhalten
Gott
eingeleitet
contemporary
AM@@
passenger
actively
dealt
gn@@
Start
Kombination
öffentlich
expensive
Amerika
Wien
welfare
News
articles
aler
diverse
Verfügbarkeit
experiences
controlled
Ger@@
trafficking
president
isches
vorzulegen
ata
helps
diskutiert
Grunde
kurzem
fit
Entschließungsantrag
Fahr@@
durchzuführen
king
verlieren
chi@@
Gründung
ore
sharing
Baltic
nations
grundlegende
Alliance
vorgenommen
mode
Rezeption
0,@@
gan@@
Modernisierung
Einstellung
OLAF
Structural
natürlichen
excessive
&apos;ve
rechte
basiert
Cooperation
spa
figure
maintained
Kur@@
Slovenia
Faktoren
ki@@
ren@@
Rooms
ism
rechten
Gesetze
encouraging
collective
Telefon
vulnerable
schutz
angemessen
mer
audio
ded
engineering
Pact
personally
resolve
Verbindungen
recognise
om
sur
ET@@
Datenbank
ic@@
Vorschlags
Beratungen
.de
shape
corruption
teile
end@@
we@@
tobacco
exceptional
Fi
ang
Zustand
Aktion
dritte
colleague
strategischen
schemes
providers
ars
urge
Bewegung
cor@@
Kal@@
Erwartungen
settlement
judgment
award
Putin
akzeptiert
output
Anschluss
Ju@@
watch
ada
kulturelle
System@@
Ra@@
destination
Bahnhof
beteiligen
copy
default
gebiet
helped
Druck@@
Ministerin
ultimately
zweifellos
reserve
zählt
units
vorgesehenen
Lithuania
rent
Schule
manche
Veranstaltung
6.@@
JavaScript
bezieht
strategie
gruppe
Gas@@
ally
versions
Zahlungen
Slovakia
Darlehen
assess
erlauben
websites
Schäden
Flug@@
error
named
ori@@
behandeln
valuable
fin@@
felt
finde
sustainability
ators
politicians
regularly
Farb@@
conducted
First
marked
suffering
Kunden@@
discussing
ves
Gemeinschaften
Landschaft
Card
Wahl@@
stations
exists
Energie@@
nahezu
hinzu
NL
inclusion
dar@@
unterzeichnet
sm@@
chemical
strength
vollkommen
Waffen
emerging
kg
Har@@
vorgeschlagene
Buch
Test@@
chten
maintaining
millions
length
Ku@@
werte
Fisheries
creative
ACP
spaces
skin
ring
nochmals
blue
quick
beschränkt
ara
pleasure
Gesellschaften
amerikanische
u.a.
Format
zer
stronger
subsidies
Square
platz
runs
tor
To@@
vorschriften
sc@@
Selbst@@
vollen
automatic
healthy
Winter
highlight
spring
ou
transactions
drittens
Mr.
Nahen
Farben
Ruhe
Gar@@
enhanced
hand@@
nation
Hand@@
Beach
Day
neuesten
kinds
Fraktionen
Rules
zusammenarbeiten
weisen
Englisch
näher
ti
taste
geb@@
print
Amt
Vizepräsident
wirtschaftlicher
höher
producing
Twitter
define
newly
Bild@@
chte
dans
els
gelungen
öffnen
entwickelten
quarter
hence
schwierigen
Kategorie
opposite
elektronischen
ungs
RO
speakers
verlangt
Untersuchungen
ku@@
47
trifft
moved
AIDS
ba
51
Slowakei
heutige
Versuch
leaving
Politiken
Britain
352
ismus
besides
Essen
Serie
Gewährleistung
vous
onto
Reise@@
wissenschaftliche
stimmt
profile
Veröffentlichung
motor
SA
Washington
bedroom
aufge@@
Westen
ye
ports
steigen
universal
Copenhagen
früheren
wieder@@
Portuguese
Spiele
menschlichen
covering
einzu@@
ausgesetzt
Japanese
Schul@@
Gestaltung
erinnert
fill
ment@@
Klimaanlage
Beteiligten
zustimmen
undertaken
pr@@
Zimmern
counter
eng@@
drawing
owned
52
Te@@
Planung
tro@@
Chancen
schafft
dates
lo
SP@@
pursue
occasion
Lebensmittel
tischen
höchsten
Stadtzentrum
Musik@@
George
constitute
constant
weiter@@
zeiten
entlang
ministers
Munich
ls
Post@@
USD
Klima
Act
depends
m2
historische
wei@@
lagen
bekämpfen
feeling
str@@
stehenden
Poker
col@@
durchführen
AC@@
Süden
fail
Mu@@
Angriff
Maß
vast
letztlich
Privat@@
strict
Binnenmarktes
9.@@
standing
explore
Resolution
Gefühl
Flash
führende
Marktes
Eigenschaften
Live
buchen
milk
Wirtschaftswachstum
Und
Durch@@
organizations
duties
oral
lichkeit
ments
22@@
flat
bequem
20.
oc@@
rejected
Stunde
financed
Express
Schaden
starten
suppliers
ECHO
browser
schnelle
cheap
hilft
drug
eller
organisiert
gte
unto
ice
Energien
Brazil
Erholung
exclusively
ise
weitgehend
ai@@
charming
solve
Kooperation
ps
höheren
heraus
notified
Raums
verschiedener
Gästen
Freunde
és
entscheidender
Mrd.
CAP
Architektur
gesch@@
Karten
hit
Network
author
eye
sichergestellt
elektronische
dinner
ur
terrorist
preparing
offices
faster
beruht
echten
Stoffe
cutting
Executive
intellectual
determination
feld
Annex
Praktiken
Rotary
Alter
Shop
Mobile
Körper
reported
creates
Betrag
proof
Finanzierungs@@
produkte
losen
Umweltschutz
applying
He@@
Verbrechen
erstmals
Montenegro
inter
fantastic
Kapital@@
conflicts
ite
Handels
treaty
bedeuten
MS
Details
Charta
erweitert
objects
Organe
ursprünglichen
chinesischen
hängt
cycle
temperature
Dialogs
conditioning
Estonia
ley
8.@@
Ratspräsident
collaboration
Alternative
Zahlungs@@
festgelegten
Java
werk
Vision
attitude
procurement
cold
reisen
bekannten
gets
Newsletter
boat
Minutes
ker@@
You
widely
fest@@
Northern
Airbus
Lebens
Handeln
import
Schlüssel@@
allocated
furniture
Besorgnis
Pa@@
Balkans
verändert
voluntary
geschrieben
Luft@@
bemühen
Kunst@@
Küste
considering
Roman
21.
supplies
sorgt
Optionen
heritage
gar@@
bemüht
ersucht
fer
prove
continent
Plattform
entscheidende
Umfeld
forthcoming
erfolgreiche
west
Geist
kurze
Kontroll@@
Norden
ste@@
boost
Nummer
Kunde
fühlen
p.m.
TEN
meist
courts
UNION
Suite
willing
IM@@
verursacht
stellung
Anhang
involves
ausgerichtet
Gerichte
Vereinfachung
characteristics
Beschäftigungs@@
Zugriff
removed
knows
gruppen
ernst
ure
Tod
vessels
Flüchtlinge
Freude
erscheinen
stakeholders
WC
Websites
trees
Jo@@
Slowenien
tut
notably
berühmten
gemeinschaftlichen
savings
debates
Fischer
subsidiarity
š@@
entschlossen
manager
impose
Geräte
Great
aktive
ler@@
tritt
precise
ausgeschlossen
Beweis
versch@@
wealth
grow
aufnehmen
\
unverzüglich
Mexico
zentrum
Punkten
entstanden
Anstieg
serves
Boden
Monetary
Anfragen
funktionieren
tours
Materialien
kl@@
Ombudsman
Schulen
joined
fe
bestand
testen
accompanied
Tor@@
teams
aviation
personnel
ese
Sprach@@
Serbia
ethnic
Law
Konflikt
bedrooms
absence
coordinated
hierfür
eigenes
DI@@
Klein@@
copyright
Fenster
fee
weather
tische
wait
Zuständigkeit
notwendige
lovely
obstacles
Litauen
are@@
discovered
Völker
Test
estimated
Asien
Übereinstimmung
Preisen
Ausführungen
ziemlich
Sudan
tieren
besitzen
sugar
danger
fo@@
Zwecke
Wohlstand
Pflicht
cash
Internal
annehmen
Werk
Chamber
emphasise
direkte
Standard@@
frequently
replace
ess
cken
worse
Werbung
Kopf
gro@@
56
perform
Foto
Beseitigung
interessiert
bau@@
productivity
School
Th@@
tz@@
globalisation
Studien
Gold
happens
leiden
fu@@
End@@
ence
Kind
labelling
Luft
Element
Verteidigung
multi@@
systemen
regret
Nein
Aid
presents
ursprünglich
Erfüllung
reserves
Arab
River
gli@@
containing
Rei@@
Mindest@@
peoples
Institution
opposed
Ausarbeitung
acquis
U.S.
awarded
Überzeugung
Formular
appreciate
russischen
acting
Plaza
gebieten
demonstrate
Maschinen
Gedanken
sal@@
loans
respected
intend
Pool
ph@@
Gemeinsame
verhindert
produktion
strategische
Robert
mostly
ther@@
schön
Einwanderung
sozialer
drivers
hervorragende
targeted
Cal@@
leisure
organized
musste
east
journey
kamen
Schiffe
educational
Hohen
direkten
impressive
truth
cre@@
Bundes@@
gel
Städten
Lord
expert
interpretation
Kommissionsmitglied
Pal@@
definiert
fa@@
Bio@@
nachdrücklich
dern
ah
whereas
Pan@@
Gebrauch
kämpfen
resolved
Regime
lie
dy
deiner
parents
Qualitäts@@
mat@@
owners
streets
dishes
divided
sto@@
discharge
citizen
eingehalten
Bemerkungen
Erhaltung
messages
confirm
11.@@
Dauer
hundreds
bekräftigt
4.
Kollege
Unterschied
ME@@
gelöst
Latvia
Mittelmeer
Digital
HIV
Norway
fulfil
MySQL
har@@
dining
Zentralbank
delegations
ländliche
raw
niemals
Room
Belgian
Stability
ausgezeichnete
programming
Migration
quote
sta
geeignete
entertainment
declared
oriented
ungefähr
54
Nord@@
wall
patent
ähnliche
beigetragen
München
Investitions@@
bau
Konsultation
mitten
Umgang
Beifall
det
62
untersucht
Kriminalität
command
schlagen
Prozesses
Skype
percent
Gleichgewicht
owner
Abschnitt
connections
Life
provider
expansion
gegebenenfalls
humanitären
Frist
Lebensmittel@@
Rom
Komponenten
langfristig
ir
eastern
einbezogen
adopting
ven
sonstige
Doha
GAP
Gegenstand
und@@
Wirklichkeit
Hafen
facility
regeln
od@@
Vertretern
cable
Einkommen
User
vereinbart
Kapitel
minority
verleihen
jemand
trend
blood
outdoor
französische
Betriebs@@
vorhandenen
dir
britische
gold
Wahrheit
flights
übernimmt
id
bestätigen
overcome
behalten
schicken
Grenz@@
Männern
Kanada
hostels
driver
Bel@@
Ausstattung
formen
erfolgreichen
sauna
enterprise
gone
negotiating
sum
illegalen
len@@
Rule
proved
invest
West@@
super
convergence
infolge
Ratsvorsitz
ca@@
criticism
Öl@@
ology
einfachen
Stockholm
Hungarian
topic
resource
ersetzt
getragen
Garantie
installiert
erlassen
einheitliche
US@@
updates
fre@@
enabling
Pol@@
ener@@
Budget
Culture
sches
none
stressed
This
sexual
beraten
routes
solid
öffentlicher
sinnvoll
umgeben
Straßen
Erasmus
200@@
prosperity
Marketing
Vorsitzes
intends
transportation
Programm@@
ern@@
proposing
warning
ante
alt
Thomas
career
sis
Min@@
deals
58
Problems
investieren
Ã
answers
Special
verfügbaren
Maastricht
AV@@
Akteure
Ambiente
verbringen
jegliche
behaviour
ai
Ak@@
frei@@
53
89
Kor@@
Ausführung
Ha@@
participating
gem
beteiligten
equivalent
weise
ek
gap
praktische
94
couple
langfristigen
colour
Reduzierung
liefert
hei@@
EI@@
revision
Bay
Science
accordingly
Minderheiten
produziert
Regierungskonferenz
abgelehnt
Chinas
Geschäfte
Kontext
techniques
überprüft
ss
examined
dra@@
Eltern
zed
San@@
dienst
Fernseh@@
Atlantic
GNU
resolutions
lautet
ergänzt
strengthened
brief
bisherigen
essen
präsentiert
OECD
lasting
sending
Ausgangspunkt
Revolution
Vereinigte
addresses
falsch
gebiete
Vertragsverletzungsverfahren
harmonisation
demonstrated
mal@@
bridge
Award
Check
breiten
examination
Projekt@@
dé@@
vieler
Internet@@
Kontakte
Regierungs@@
AG@@
can@@
heating
channels
renovated
Erstellung
Mac
folglich
stein
11.
shipping
tige
Jugend
effiziente
mix
publication
believes
rising
lei@@
tickets
einig
Wein
Ware
metal
signs
verurteilt
component
ON@@
bestimmen
Year
gesellschaft
ban@@
extrem
na@@
72
classic
Ausstellung
abuse
spot
wireless
wirtschaft
sichere
Pläne
ehemalige
defend
Authority
Ziel@@
rat
packaging
gewähren
invite
win@@
klaren
contrast
applause
decorated
ticket
topics
schönsten
drink
5.
Budapest
Mio
bericht
haus
Konsens
saving
Bra@@
Nicht@@
anbelangt
Gaza
Regierungschefs
stra@@
We
fourth
Mensch
ona
Procedure
password
Tisch
internen
showing
Angst
schauen
ausgezeichneten
á
happening
supervision
exception
Rechtsstaatlichkeit
gten
begrenzt
slow
multilateral
derzeitige
One
album
seat
Prinzipien
doesn
fe@@
Haftung
walls
ensures
Bedrohung
91
King
match
Front
bound
managing
gestatten
zo@@
oni@@
minister
DIE
Beziehung
ausgesprochen
transmission
partly
Meeres@@
Top
Israeli
sorgfältig
legally
repeat
zieht
Potenzial
unabhängigen
vorher
tip
lift
regionaler
hardware
blog
66
verkauft
eyes
Labour
welchem
employed
roads
committees
mel@@
northern
übrigens
besch@@
alter
Time
sion
cooperate
justified
Band
AB@@
ins@@
printing
proud
starts
pri@@
NI
generated
performed
Wirtschaftspolitik
inhabitants
Private
sehe
besonderer
visible
edge
Auditors
corresponding
Niederlanden
Brasilien
professionals
kurzen
bezahlen
overview
Gegen@@
heat
films
reduzieren
trans@@
verkaufen
ette
seeing
trends
enz@@
VER@@
entsteht
Hindernisse
remote
griechischen
Hu@@
Anlass
Künstler
ruhigen
Badezimmer
exit
Wirksamkeit
Studenten
returned
lists
EEC
adapt
dr@@
satisfaction
RA@@
Soviet
Bucht
fordere
fort
Bestellung
integrierten
Ministerium
bottom
finished
hall
gespielt
genannte
minorities
entwicklung
Society
gestärkt
periods
funded
glad
rei@@
heit
Br@@
NGOs
carrying
2,@@
geplanten
Kamera
decline
Ban@@
stärkere
meant
institutionellen
Industry
OS@@
facts
ble
Mer@@
log
Fahrzeuge
manufacturer
decisive
Nachrichten
Co
micro@@
2.0
vollem
properties
normalerweise
Außenpolitik
TE
correctly
safeguard
Runde
59
Klasse
introducing
Staates
bedeutende
theme
Korruption
occur
recorded
riesigen
farming
bes@@
Frei@@
unmöglich
Freizügigkeit
Eigentum
satisfied
Egypt
receiving
fördert
USS
Permanent
pieces
inc@@
iert
preventing
Kohäsionspolitik
Pu@@
input
UNO
lay
parliaments
bur@@
Nice
form@@
mini
somewhat
specified
ähnlich
TR@@
plenary
Dorf
Energieeffizienz
EU@@
anzu@@
housing
betrieben
Hostelsclub
Q
zing
José
wirtschaftlich
Process
constitutional
Estland
Signal
Assembly
Black
63
delighted
AP@@
kt
az@@
slightly
Rural
einzigartige
turning
balcony
Consumer
Branche
plays
bra@@
egal
channel
Arbeitsplatz
ID@@
rapporteurs
checks
geplant
festzulegen
western
MEPs
unterliegen
Gewicht
Box
license
ought
entgegen
possibly
Ausgabe
visiting
Bank@@
AT
crimes
bri@@
Via
EWG
showed
Mikro@@
Eurozone
verändern
surroundings
stadt
Tonnen
Sicherung
äußern
entspannen
gestaltet
individuelle
formed
unabhängige
EP
Systemen
Deutschen
legitimate
Dusche
Power
barkeit
je@@
konzentriert
rein
Identität
Anti@@
Förder@@
einfacher
umfassen
Ebenen
OR
gratulieren
fonds
Übersetzung
ausgeführt
ente
careful
wonach
addressing
obliged
islands
leistungen
revised
exclusion
Durchsetzung
angesehen
visited
thirdly
überzeugen
Ki@@
Es
cher@@
demanding
organic
SE
Leistungs@@
penalty
preise
Überlegungen
Radio
Tu@@
eventually
department
interessante
67
dependent
Win@@
mittleren
hervorheben
ok@@
Gentoo
resistance
towns
с@@
gebaut
genden
Georgia
sky
bel
offene
telecommunications
reporting
Can@@
rock
Bre@@
Anti
EZB
Lettland
WLAN
Rio
gespeichert
Pri@@
д@@
digitalen
Verfahrens
ef@@
Gro@@
tourists
loan
lessons
Einwohner
ark@@
regelung
Werke
zurückzuführen
wild
berechtigt
settings
elsewhere
Stein@@
raising
Rechtsgrundlage
ka@@
ex
interior
Prague
Federation
locations
12.@@
Port
ato
ages
voll@@
displayed
Fischler
Training
vorbereitet
distributed
schlecht
coherent
Zusammenhalt
steigern
Überblick
10.@@
Messe
82
einzusetzen
wollten
mittlerweile
Kurs
verehrte
percentage
überein
hingegen
в@@
nine
hair
hostel
survey
module
arrive
Browser
Congress
richtet
verstanden
substance
Lieferung
impression
Premierminister
menschliche
IA
einschlägigen
mp@@
Ratspräsidentschaft
prospects
71
erter
dos
ren
mor@@
Hans
sodass
ade
.....
auszu@@
geboren
.org
Fassung
Sektors
Kräfte
besorgt
depend
replaced
paying
actors
operator
cks
Louis
stored
wines
Wi
Sony
universities
rufen
Erreichung
suites
Delegationen
Farbe
enger
library
Krankheit
Marke
destruction
technik
abgestimmt
Marina
offiziellen
beobachten
konfrontiert
Buchung
relative
ness
zugrunde
Finanzkrise
angegeben
effizient
gezwungen
Einheit
gene
größer
Einstellungen
Außen@@
Wandel
18.
serviert
Bereitschaft
credibility
territorial
info
organisieren
Behörde
assume
aller@@
wohnen
societies
flows
militärischen
losses
originally
Old
Übergang
Verarbeitung
documentation
grenzüberschreitenden
gr@@
foundation
contributed
BR@@
surely
prefer
supplier
Super@@
attached
Tro@@
J
tea
hr@@
quotas
Familien@@
Hi@@
chen@@
Kilometer
candidates
tt@@
letztendlich
erhielt
senken
SCH@@
en-
Rückkehr
sicherheit
schriftliche
Nachhaltigkeit
fashion
ED@@
Earth
selling
Investoren
anischen
burg
avec
angepasst
division
87
verkehr
MO@@
Errichtung
umfangreiche
Eis@@
gewonnen
68
Danish
Cas@@
traditionelle
stages
Gegend
reservations
consent
father
clubs
usual
88
angewandt
passiert
nicht@@
Wei@@
Projekts
root
¤
s.@@
straße
Steigerung
corner
Zone
kostet
lounge
Mechanismen
neighbouring
bre@@
immigrants
vis
afternoon
Ac@@
continuous
leg@@
Fre@@
fehlt
effektiv
abgesehen
solches
Viertel
är@@
Vorstellung
regarded
remained
woman
master
Bildungs@@
competitors
Friday
entrance
enge
ECB
considerably
vollständigen
satisfactory
Agrar@@
fees
ersetzen
onen
EWSA
venture
diesbezüglich
Kauf
tis
Vorlage
Mas@@
AC
enthaltenen
Senkung
Teil@@
university
angemessenen
Breakfast
relaxation
ft@@
IG@@
Ur@@
erreichbar
Schlafzimmer
Hol@@
wirksamen
LI@@
plenty
grateful
Abschaffung
genügend
Grad
ball
cur@@
aside
comparison
Ka@@
windows
Mag@@
val@@
dan@@
cosy
cuts
friend
suggested
Mangel
indicators
programms
lots
Stück
exciting
beglückwünschen
Hall
Know
normally
understood
Hostels
castle
Drittel
vorstellen
ate@@
Zoll@@
lets
schutz@@
gerichtet
amended
Polizei
6.
Geld@@
Serbien
generate
twenty
label
decade
gende
regardless
geographical
reflects
Nord
graphics
Helsinki
Wi@@
reject
č@@
encouraged
Ski@@
entwickelte
Gefahren
nationals
eingereicht
Taiwan
Gen@@
Islands
Department
forests
bereiche
herrscht
Sol@@
lands
machte
bauen
richtlinie
Sub@@
representation
fitness
drop
Einzelheiten
treat
undertakings
por@@
Auge
Youth
severe
Bur@@
installieren
61
Änderungsanträgen
individuellen
bro@@
nonetheless
configuration
producer
zeit@@
struktur
surveillance
dri@@
ey
Netze
pan@@
Norwegen
perfekt
desk
Wohn@@
freundlich
Sonne
concentration
proceed
Bestimmung
Fo@@
europäisches
ane
Verbraucherschutz
Kan@@
Plenum
Lehr@@
Music
elt
Versorgung
ranging
Mechanismus
Haus@@
constitutes
Verbraucher@@
gemeinsamer
Staats-
marks
adults
wing
leichter
Übereinkommens
sicheren
died
valley
definitely
sam@@
Sauna
Auto@@
domain
dro@@
C.
ón
airports
aux
Mitarbeitern
großem
dispute
Ste@@
IL@@
Vietnam
verbinden
Rest
57
ergibt
reconstruction
sel@@
greatly
läßt
tables
argument
kar@@
Wünsche
integriert
einrichtungen
erfordern
gained
deposit
Im@@
post@@
hervorgehoben
realistic
Bri@@
refers
ll@@
suggestions
verringert
par
Sk@@
EEA
druck
earth
TH@@
Medien@@
tigen
vacation
inmitten
Provinz
Webseiten
beschrieben
zentral
internationally
reduziert
festival
Adobe
jointly
cs
Apartment
desired
freedoms
Bosnien
Schlüssel
erheblichen
15.
gestattet
drinks
ieren
enjoyed
wiederholt
Quelle
subjects
stylish
difficulty
ze@@
familiar
speaker
hinzufügen
Ausrichtung
Plan@@
sur@@
elles
electric
highlights
beschäftigen
umsetzen
Thailand
ie@@
gers
vereinbar
Nachricht
Verteilung
virtual
Sorgen
winning
studio
verboten
än@@
nahmen
Multi@@
OL@@
shortly
disabled
allocation
moral
rück@@
hal@@
endes
subsequent
teten
Gleichstellung
James
sought
retail
airlines
digitale
24@@
rental
AU@@
Bosnia
Fischerei@@
gardens
übermittelt
geboten
euros
favourable
è@@
restore
eingegangen
Professor
gang
geräte
vieles
Beschränkungen
Tur@@
reflected
jenen
Update
completion
br@@
tiger
enabled
Growth
Öffnung
Wal@@
excluded
Katastrophe
Commissioners
gearbeitet
vermitteln
budgets
ei
sogenannten
Steuerung
Eisenbahn@@
Ä@@
fs
sensible
occasions
scheinen
Quellen
movements
Force
Verlust
eligible
Verbrauchern
spoken
lunch
ET
optimale
landwirtschaftlichen
Liebe
arising
IC
Edition
mussten
Rahmenbedingungen
Liefer@@
bewältigen
dich
invites
Bei@@
tel@@
Freiheiten
extraordinary
marine
erörtert
It
weak
tonnes
Zuge
gerät
accounting
verdient
Client
proven
ella
proportion
verteilt
hearing
sole
incentives
Modelle
Al
Syria
ended
25@@
dre@@
langsam
gallery
vers
solely
achievement
Lei@@
arrived
netz
Ausmaß
IMF
vereinbarten
jährlichen
Galileo
Ta@@
81
Non
COM
planet
trial
revenue
berichten
implications
verstärkte
Ser@@
eins
aktivieren
Kapital
ov@@
stattdessen
artist
driven
и
EG@@
scientists
Tier@@
Church
Kopenhagen
seite
ergänzen
rechnen
Blog
tar@@
militärische
neun
fahrt
constitution
Fest@@
adjustment
politisches
referendum
departure
highlighted
bs
On
è
Rad@@
Wiederaufbau
Nachbarn
politically
betreiben
Personal@@
beabsichtigt
umfassend
76
hohem
spectacular
Kulturen
everyday
externen
Cam@@
HTML
Plus
generell
shift
7.
san@@
Ziffer
unterschiedlich
natürliche
86
Herbst
fans
clause
tin
Australia
komme
EWR
cancer
zes
MB
schweren
barer
Ergebnissen
phrase
qui@@
bike
threats
hochwertige
geplante
pilot
Funktionieren
Ansichten
adapted
Games
weekend
Versammlung
BO@@
Weiteren
Exchange
erzeugt
War@@
suffer
welcoming
Regulierung
ruhig
travelling
Informationsgesellschaft
Asian
Bro@@
straight
Wir
tested
finances
Show
belief
wesentlicher
count
Währungsunion
ev@@
wa
Wirtschaftskrise
Militär@@
inklusive
Perspektive
AR
disasters
gewissen
erteilt
Stufe
Faktor
Charles
functional
TS
gebeten
everybody
Mazedonien
Islam
initially
zation
stoffe
protocol
ri
transfers
directed
kontaktieren
seeks
Cap@@
authorised
Kampagne
auswirken
Gal@@
Mat@@
preis
Bewältigung
Glaubwürdigkeit
errichtet
30@@
explained
prime
außerordentlich
Fer@@
Stimmen
SV
ausgezeichnet
fleet
bilateralen
beschränken
mother
por
connect
jener
gefallen
angebot
conservation
exploitation
wachsenden
DG
Befugnisse
Versionen
indicate
panel
77
Buch@@
angegebenen
einzuführen
Salzburg
patient
Video@@
missing
Balkon
stolz
imagine
Institut
ach
ong
Wahrung
Ausweitung
Betreiber
23@@
Civil
mental
Puerto
auftreten
900
zugute
concepts
derer
insofern
son@@
aussprechen
Investitionsbank
unterscheiden
Innovationen
jo@@
Town
gradually
permitted
filled
Canon
chs
Flughäfen
fähigkeit
Konsequenzen
tig
Men@@
ends
Star@@
Leitung
filter
Regionalpolitik
ß
vol@@
8.
engage
Apple
Space
aufzu@@
ass@@
Na@@
kraft
ena
Mandat
Ter@@
ll
Firmen@@
preliminary
battle
marquis
Standort
verbindet
layer
DES
centuries
Haushaltsplan
armed
qualität
alongside
Gang
hoffentlich
Wellness
suffered
Gerichtshofs
Los
wagen
looked
Por@@
tag
Master
St
unfair
miles
Touristen
Trek
festzustellen
ola
rare
VI
BMW
vorgelegten
Süd@@
Freunden
arguments
Hof
transitional
Nor@@
het
Not@@
ausgewählt
boot
sing
Bars
nights
lau@@
assure
Verletzung
Balkan
83
kleines
Film@@
handle
arise
hu@@
super@@
frame
ssen
toward
arten
erhoben
legte
mm@@
portfolio
Prozesse
anzuwenden
Alle
stu@@
erleichtert
sia
к@@
rechtzeitig
Jan
78
magnificent
wiederholen
CE
Veränderung
Hei@@
homes
hundred
ang@@
lin
mas@@
Strasbourg
aktiven
Wohnung
li
IWF
Dokumenten
scene
governing
upper
environmentally
normalen
analyse
siert
effizienter
bestellen
ré@@
pure
presenting
beruflichen
ant@@
wrote
sed
Gelder
Videos
beseitigen
Strom@@
football
complaints
Hamas
makers
dumping
uneingeschränkt
ines
combine
vorgestellt
wahren
traditions
bewertet
authorisation
tsch@@
lastly
&apos;m
Sunday
voraus
ausschuss
73
Main
kontrolliert
A5
Sam@@
succeed
secret
Desk
attempts
religion
External
countryside
konkret
fl@@
doors
74
bewerten
gelingt
associations
sections
errors
enst@@
pal@@
the@@
Protokolls
ity
Kompetenzen
programmen
engaged
allzu
angewendet
Bor@@
Macedonia
holds
disk
luxurious
Stellungnahmen
produkten
Rückgang
schließt
Chile
TA
Unterzeichnung
organisationen
firmly
enti@@
beantworten
Chairman
researchers
stars
accident
Papier
Sicherheitspolitik
PS
weltweite
Übertragung
didn
Computer@@
ordinary
17.
processed
approaches
Valley
SAP
UNG
cal
collected
confirmation
Thursday
Sammlung
teachers
Konto
Wettbewerbs
Level
1st
Hostel
Positionen
Regional@@
gemeinsames
Marken
Vorausschau
spoke
teaching
behörden
cleaning
maybe
Gerechtigkeit
concentrate
EFTA
ziele
portal
gross
eingestellt
acceptance
beings
labor
Weiterentwicklung
supplied
Sar@@
army
individuell
capabilities
ften
CS
massage
ello
Konflikte
Deutsch
integrate
Ägypten
Dra@@
significance
Bemerkung
praktischen
ständigen
liked
Entschlossenheit
thousand
anlage
gelangt
Vertrags@@
ère
Page
interessant
irischen
Verlauf
vorliegen
lia
female
ließ
sprach
tisch
Klima@@
Sh@@
geh@@
Situationen
Gran
ani@@
welt
Geneva
Mess@@
fishermen
Büro
Lan@@
negotiation
beendet
Anbetracht
ruling
Kol@@
wachsen
Ernährung
Pakete
videos
M.
renowned
transferred
Administration
finanzieren
bahn
cells
Operation
jetzigen
audit
gre@@
Statistiken
consulting
nu@@
EP@@
air@@
einzigartigen
unlike
accurate
Aufforderung
untersuchen
entering
ns
Barnier
behaupten
gleichermaßen
Ashton
Mexiko
Syrien
Wer@@
erzielten
wirken
Entlastung
Wesentlichen
Lounge
ann@@
ies
kontrollieren
essentially
finish
leaves
befasst
Distribution
urgently
Ausbildungs@@
punkt
tal
eter
erheben
ville
Berichten
Spaß
manufacture
zurzeit
Agenturen
brachte
liste
recognized
Zahlung
unge@@
speichern
pillar
A.
Las
größeres
Morgen
pm
Inkrafttreten
berufliche
Anmeldung
uniform
Abhängigkeit
Real
stärksten
directory
16.
instructions
müssten
geregelt
Volkswirtschaften
Licht@@
zielt
Islamic
vocational
ratification
my@@
Verabschiedung
Chancengleichheit
gesellschaften
chemicals
theory
å@@
Gerät
pol@@
Reding
eat
Fernsehen
findings
deeply
B5
appropriations
Ursachen
My@@
Mark@@
Stiftung
Kommunikations@@
organisierten
Bas@@
§
cast
wünsche
schaft
violations
specialist
PUNKTE
su
museums
Großteil
mes
Cup
Widerspruch
100@@
generations
hardly
1988
anwesend
reich
greenhouse
kur@@
medicines
einzelstaatlichen
sheet
Theater
gs@@
solar
fassen
approve
trips
wirkt
tennis
At@@
navigation
Rot@@
skiing
schi@@
efficiently
catch
illegale
zentren
accidents
unver@@
Öl
Arbeitnehmern
tree
complicated
integrierte
tions@@
negativen
anwenden
designs
tief
artistic
sex
Hong
che@@
preparations
empfohlen
heading
Del@@
Geschäft
villages
hof
colours
extending
schrittweise
Monday
momentan
italienische
Ben@@
GD
79
Kategorien
erlebt
PR@@
projekte
pe
scheduled
т@@
Industrie@@
überwachen
40@@
zukünftigen
inn@@
genaue
cia
subsequently
parameters
Americans
Dritten
wunderschönen
ay
Gemeinde
ATION
Kapazitäten
Rechten
leiten
......
inclusive
cent
relief
1.5
FOR
knapp
bekannte
Werbe@@
69
selten
Außen-
festen
amp@@
appeared
sse
Reisen
Bedürfnissen
unterstreichen
guidance
geprägt
wonder
Pacific
klein
Jacques
inen
bl@@
aufgebaut
sufficiently
hopes
offizielle
Gast
killed
Tre@@
ani
vornehmen
Generationen
reasoned
Reform@@
Volks@@
Registrierung
Vertrages
bekommt
crises
meets
Jahres@@
urs
Eurostat
zukünftige
reliability
Anreize
grenzüberschreitende
Betriebe
festlegen
Entwicklungshilfe
Vater
Gas
9.
blocks
Inflation
fertig
emission
reinforce
reaction
Sand@@
entscheidenden
College
endgültigen
SS@@
grosse
fax
emp@@
AM
weite
OK
Abbau
computers
gekennzeichnet
eignet
sphere
Menü
erweitern
Jahrzehnten
student
2016
Beachtung
spiel
verteidigen
Kontinent
acquired
Schiff
weg@@
lieber
erfreut
ess@@
Kong
м@@
infringements
affecting
Governance
Richard
staaten
worst
Corporate
Sachen
Besteuerung
stammen
12.
gefährdet
mitteilen
wage
consequence
EESC
geraten
parks
lt
whenever
bedeutenden
delicious
qualitativ
yo@@
load
pick
Zeitplan
Jugendlichen
freely
XP
contributing
zen@@
della
AD
pra@@
Fern@@
Lebensmittelsicherheit
profits
compulsory
medi@@
Doppel@@
letzter
cal@@
permit
harmful
produces
zz@@
Umstrukturierung
philosophy
ire
Blue
sierung
twice
Fin@@
conventional
Tschechische
Budgets
Mängel
ownership
beizutragen
Journal
Vo@@
1980
ality
Teams
ce@@
grants
Glück
relevanten
Betracht
dream
10.
SO@@
jedenfalls
Freitag
zimmer
Verhandlungs@@
sounds
agents
Todesstrafe
destroyed
leistet
EGF
lebt
Tieren
GR@@
iPhone
operates
eres
erungen
Feld
relates
niveau
Zwischen@@
anzubieten
Siemens
Franz
gungs@@
reg@@
Tools
erende
bearing
aufs
anschließen
Sierra
symbol
UNESCO
behoben
begleitet
überwinden
vorliegende
granting
Visa
Alt@@
Tests
opens
Mel@@
hohes
soil
bet@@
markt@@
endorse
assembly
coastal
effektive
modules
Sy@@
grown
underlying
resulted
Mut
korrekt
ernsthaft
duration
Lizenz
bal@@
stell@@
Project
verdienen
Email
beenden
aufzubauen
vertritt
350
focusing
ari
Geschmack
Medi@@
endgültige
representing
Garden
Grünbuch
rely
Wettbewerbs@@
Winter@@
alcohol
dominant
sovereignty
rel@@
classes
dung
Allianz
alo@@
switch
autumn
fähig
realise
liberal
EUROPEAN
supposed
clarify
50@@
GVO
deadline
collect
executive
gungen
Patten
3,@@
Suiten
puts
remarks
cker
lobby
stri@@
Wissenschaftler
versichern
consolidation
palästinensischen
vel@@
Anhörung
ama
schwere
smart
satisfy
Parkplatz
keinem
prozesses
Kom@@
Gehminuten
Playa
gegenwärtige
gegenseitigen
Berliner
erst@@
freundliche
abstimmen
gkeit
biodiversity
birth
cell
mittlere
everywhere
united
Überarbeitung
widespread
identification
empfangen
smooth
kt@@
dry
plastic
Verlängerung
UR@@
mi
Zi@@
erkennt
ausländische
dargestellt
push
Inneres
EF@@
commerce
stake
bereiten
wear
organise
functionality
tiert
Schweizer
Defizit
sit
undoubtedly
publications
enorme
back@@
tors
OT@@
liegenden
enhancing
Manuel
similarly
ero
ía
execution
schnellen
Internationale
Spezial@@
ot
Alexander
Ablehnung
Motor
lokaler
IP@@
wesen
35@@
cultures
reserved
Indian
lived
Grundsätzen
ni
у@@
edition
Road
ads
merger
gering
bestimmungen
engines
mb@@
ruft
wellness
suggests
composition
qualifications
faith
denjenigen
Tages
Erzeugung
Beurteilung
steuern
Stuttgart
bares
metro
timetable
--@@
©
Zentral@@
Nos
Morocco
schätzen
director
adding
interne
bonus
Jugend@@
sion@@
healthcare
geäußert
Entwicklungszusammenarbeit
erforderliche
focuses
ac
strictly
doubts
Pflanzen
informal
í
ecological
Castle
Kroes
ökologischen
Donnerstag
13.
upgrade
productive
economically
diplomatic
selbst@@
dignity
Haushalts
84
ride
bild
technischer
employers
Hal@@
ole
As
CON@@
pace
een
applicant
Gewässer
Hel@@
anywhere
leistung
asset
sammeln
Ges@@
saved
Kandidaten
Treaties
präsentieren
verhalten
ky
Aspekten
preserve
hospitality
Börse
Grünen
unforgettable
appearance
gegangen
Führer
Mil@@
National@@
off@@
herunterladen
inger
mt
südlichen
Corporation
Transport@@
necessarily
dark
learned
Eingang
intelligent
ier@@
Zug
ität
ación
Georgien
van@@
vorbei
ken@@
Darstellung
Berg
Pat@@
ž@@
Cu@@
tung
Versicherungs@@
appointment
Image
gefragt
parliament
stattfindet
secondary
übermitteln
mas
Kollegin
branche
damages
lending
bio@@
Opposition
ordered
signing
î@@
compete
spätestens
characters
reiche
müsste
dargelegt
kontrolle
frühen
Heads
managers
compact
amenities
Kürze
individually
expand
Audio
op
snow
mitteln
We@@
DS
Fu@@
Redner
restricted
Volkes
Register
eliminate
Ankunft
ying
Bus@@
eurozone
consult
beschleunigen
zeichnet
vertrag
poli@@
Tal@@
Ost@@
villa
meal
app@@
afrikanischen
stützen
musical
sight
referring
Herz
Venice
tete
Hinweise
prize
hart
PL@@
fortgesetzt
met@@
suit
gelassen
mar
Beschluß
verletzt
Übernachtung
Prozeß
renewed
gate
ast@@
Ablauf
ously
liable
horizontal
neighbours
Mehr@@
Lateinamerika
DC
finds
bereichen
Recht@@
Bearbeitung
atic
enn@@
exchanges
Saturday
,000
amazing
130
Instruments
CI@@
ç@@
türkischen
Geschwindigkeit
Betten
Defence
Gr@@
ised
Liechtenstein
eli@@
chapter
offenbar
olive
Legal
Lin@@
song
choices
selben
Frühstücksbuffet
Wa@@
geeigneten
eigener
ratio
printed
unterbreiten
Hor@@
LE
observed
verwaltung
broader
Gast@@
sauber
standen
folgender
Nigeria
Kennzeichnung
besonderes
melden
Vol@@
karte
berechnet
A4
ska
dollar
MP3
Ausflüge
Gebühren
sol@@
LA
fairly
underground
overlooking
erwerben
gesetzlichen
willingness
könnt
Armee
inspection
Häfen
Bord
sions
satz
tionen
civilian
14.
ica
Respekt
Ton@@
Schulden
Des@@
CO
formation
stammt
Boden@@
zero
Abendessen
freight
antworten
entdeckt
Mallorca
Antonio
überaus
Kompetenz
geln
cool
pretty
tracks
coal
Burma
beinhalten
aren
zulassen
hast
Erwerb
Tool
ris@@
restored
MP@@
incorporated
Finnish
Saudi
partnerships
Source
mere
Innen@@
boards
Gemeinden
lat@@
Journalisten
till
cke
mittel@@
province
virtually
Tor
angenommenen
transit
führung
att@@
web@@
Bürger@@
werfen
tim@@
maschinen
Schloss
preis@@
ceiling
gewünschten
Capital
fan@@
ausländischen
Parameter
faces
comp@@
Erinnerung
erörtern
Fisch@@
verweisen
Hardware
anzuzeigen
heutzutage
Grundlagen
anzupassen
occurred
offiziell
treatments
Strom
beeinflussen
Wiederherstellung
Straßen@@
Meeting
mente
rä@@
ó
e.@@
utmost
SH@@
courage
Planeten
conferences
sten@@
rechts@@
о@@
füllen
sucht
ständige
Zeitung
schwedischen
Vista
fortsetzen
reagiert
Anna
pos@@
bes
EB@@
ala
Universitäten
nützlich
Netz@@
hinweg
tech
servers
spiel@@
Abfall@@
ci
Zwei@@
Strecke
factory
movie
aktuell
Southern
diensten
mo
ton@@
Einnahmen
Stärke
Arbeitgeber
Debatten
zentraler
eck
innovativen
Ausgrenzung
romantic
consultations
Nizza
decken
Han@@
sah
amending
SC@@
empfiehlt
pools
pensions
ideally
Hohe
Fundamental
Verheugen
heads
vo
anniversary
Tibet
thermal
Präsenz
könne
Christmas
Portal
dead
sieren
gl@@
Verzeichnis
besucht
Mutter
Verordnungen
Fahrt
hervorragenden
180
songs
Dritte
spectrum
art@@
a.m.
Dynamik
Airlines
timely
adds
Fortsetzung
Autobahn
gegenseitige
considerations
dankbar
medizinische
Tausende
Basel
erungs@@
Kern
ssi@@
GB
Quality
Reserve
aufbauen
Kredit@@
Minute
NRO
Beschwerden
ner@@
Export@@
wider@@
veröffentlichen
repair
klassischen
serving
grossen
geniessen
Maschine
Ü@@
angebracht
regulated
Schreiben
heißen
superior
revolution
sand
alt@@
Sen@@
gerechtfertigt
Symbol
wege
dasselbe
unity
existiert
ati
anzunehmen
Straßburg
alia
Ratifizierung
mechanismus
nobody
yn@@
causing
sor@@
os@@
explanation
ausüben
usage
ueber
Parlamente
Eröffnung
verzeichnen
komplette
vorzunehmen
script
unbe@@
subsidiary
sights
IF@@
Zunahme
lie@@
DEN
tru@@
fix
GPS
Lau@@
principal
installations
Kurz@@
achievements
König
Mari@@
Datum
char@@
perfekte
Max
affects
varied
dor@@
mine
Wochenende
casino
Relations
Albania
Haushalte
jüngste
promise
attend
visual
ł@@
zweiter
entgegen@@
gleich@@
komfortable
Spitzen@@
beef
records
oftmals
electrical
guided
auffordern
CHF
chinesische
1,5
row
wal@@
a.@@
stem
jurisdiction
mouth
simplification
OM@@
narrow
certification
Iceland
spreche
geringen
medicine
integrity
Friedens@@
Piazza
promised
Garantien
dienstleistungen
fortzusetzen
1987
Socialist
Fläche
Haut
phenomenon
Vorrang
Album
formally
Sri
inadequate
Pe@@
stores
gek@@
Schüler
adi@@
Aufhebung
quota
Content
Massen@@
sz@@
zy@@
Cre@@
zug
ware
haften
gründen
Mini@@
Wieder@@
ron@@
poorest
Binnenmarkts
Casa
Ausnahmen
populations
Entspannung
Mittelmeerraum
logical
lichem
Orte
staying
täglichen
en.htm
Vertretung
gingen
österreichischen
reputation
non@@
weiten
Release
außen
ending
las@@
erkannt
fern
Regions
Passwort
therapy
certainty
mixed
Reservierung
erzeugen
shadow
Wind@@
AK@@
Heizung
briefly
effizienten
produzieren
Bezeichnung
Südafrika
dialog
Sohn
stan@@
Erfolge
gy
neu@@
Monti
Leit@@
inspired
erwähnen
behält
kostenlose
Ein
Deutschlands
hiking
Gol@@
vorsieht
Fa@@
mes@@
Länge
beer
vergeben
ol
edi@@
führer
ultimate
Arzneimittel
SIS
älteren
zwölf
probleme
Benutzung
ide@@
Berufs@@
Anwender
Academy
Kaffee
gedacht
disputes
campaigns
fte
convention
Côte
Steuer
1985
Darfur
zugestimmt
progressive
stre@@
Cha@@
q
angekündigt
sophisticated
Tourism
cul@@
PSE
krise
initiated
combines
governmental
journalists
beibehalten
45@@
erstes
LO@@
Museen
Г
Vertrieb
commit
formats
Holz
insufficient
bach
dürften
sichtbar
eventuell
undertaking
magazine
fewer
Da@@
eröffnen
Ministerpräsident
Bon@@
substantially
acknowledge
fails
operated
fifth
Rußland
erwiesen
Stahl@@
girls
undertake
Wald@@
Ständigen
günstigen
armen
Verstärkung
Gipfeltreffen
Kreditkarte
Met@@
breach
Amerikaner
dei
Pen@@
Bet@@
Ca@@
taxi
Ltd
größter
Bibliothek
zugelassen
Kommissionspräsident
Pack
minor
1986
Klimawandels
trans
joining
camp
Women
CR@@
Kenntnisse
EX@@
Lebanon
hen
Hilfs@@
steam
gener@@
bezahlt
Tal
geschäft
19th
communicate
mandatory
bright
solide
Käufer
belong
äre
Pra@@
delays
floors
electoral
negotiated
Boot
les@@
ansonsten
sorry
spanische
Florenz
gestiegen
begins
sprachen
Ausrüstung
G20
PRO@@
institutionelle
Produktivität
Partnerschaften
zerstört
Kosten@@
Ga@@
bedanken
Haiti
reductions
vice
zukommen
geblieben
kte
fläche
kten
recording
Wil@@
cer@@
kom@@
Leiter
anische
ili@@
plan@@
ros
Besitz
gesellschaftlichen
SI@@
pla@@
surprise
Sound
roll
stand@@
bildung
überlassen
Ci@@
custom
falling
Marokko
specialists
tend
Rechnungshof
freier
Wirtschaftsraum
Edinburgh
Weißbuch
Sol
ase
summary
star@@
gewählten
ay@@
polnischen
stoff@@
native
Declaration
HD
Autos
postal
Motor@@
fly
einander
Zürich
ill
Line
gebilligt
Filme
ASEAN
este
verwendeten
eti@@
Schönheit
auto@@
seats
tariff
Anträge
thorough
bereitet
soeben
Macht@@
Direct
unmittelbarer
Stock
erenden
struggle
13.@@
residents
oni
voraussichtlich
schwierige
listings
composed
ly@@
arrangement
exact
whereby
ativen
teilt
Tschechischen
110
tatsächlichen
rit@@
Ansprüche
Hauptbahnhof
erneuerbare
Family
For
kernel
sem@@
ple@@
Zusatz@@
viable
ged
pressing
Vorsitzenden
Nero
newsletter
wave
¼
Captain
gens
Joseph
mögen
industriellen
publish
max
sleep
froh
tätigen
honour
begegnen
horse
Blut@@
30.
graphic
asi@@
Finanzmittel
gewidmet
recognize
fel@@
Dor@@
Wikitravel
Constitutional
hidden
Innenstadt
atoren
investigations
textile
Lern@@
verwende
bin@@
Nicht
е@@
virus
Euch
bathrooms
Drogen@@
buses
mem@@
Montag
removal
Neelie
bit@@
planen
Emissions@@
posts
picturesque
Wachstums@@
sees
Palette
aktualisiert
Karl
imported
ets
jährliche
geleitet
genauer
ausreichende
urgency
vermieden
förderung
60@@
Mark
nahme
spezialisiert
Notes
retain
strukturen
Werten
ita
erstreckt
heim
selber
geliefert
uni@@
gsten
panoramic
unterstreicht
Fluss
Betreuung
passing
stehende
verfahrens
bli@@
exposed
Opera
Vizepräsidentin
manchen
isation
Karel
foundations
conversion
wachsende
stunning
Vorstellungen
tier@@
Immobilien
Atom@@
manual
deficits
dance
relationships
2.5
don@@
nbsp
Satz
Kat@@
Parkplätze
optional
ordnungsgemäß
steigt
späteren
etz@@
releases
Mac@@
CEO
fra@@
statistical
Tür
Zulassung
spar@@
maximal
pursued
gri@@
forschung
Kirk
Mur@@
meals
cas@@
ingredients
kleinere
Cuba
Speisen
premium
mistake
broken
Innen
shuttle
jährigen
ähnlichen
sonstigen
Mädchen
automotive
chemische
295
IM
ast
sogenannte
verbesserte
engen
ine@@
räume
federal
frequency
credible
netze
dauert
rating
CDs
Nokia
codes
в
ease
ischem
Übrigen
kilometres
linie
ären
drei@@
stes
ausschusses
stoffen
prä@@
gelesen
hor@@
wechsel
kosten@@
HU
Fran@@
.net
verschaffen
ants
Wähler
Abteilung
Elektro@@
Official
letters
port@@
wor@@
Australien
sei@@
Abschluß
ingen
märkte
concert
unnecessary
е
freut
Sha@@
radical
beschließen
conditioned
Entfernung
Back@@
equity
succeeded
openness
purely
oppose
Detail
mittel-
Amendments
überwacht
Performance
erneuerbaren
yl@@
bedroht
Kohärenz
arb@@
Mc@@
spite
senior
grünen
Trans@@
hinzugefügt
vary
vorliegt
SK
Kauf@@
Ferienwohnung
Kapazität
inner
chair
structured
asi
taxpayers
modell
ñ@@
additionally
assessed
flo@@
lösungen
boats
Russlands
comparable
notification
meanwhile
ral
fuels
Nachdruck
repeated
Porto
gem@@
ESF
seitdem
clicking
stories
ish
heraus@@
chi
fell
lar@@
niedrigen
steuer@@
Lebensmitteln
As@@
niederländischen
aufgeführt
deutliche
Zugangs
Eu@@
tau@@
prisoners
ausgehend
tw@@
basically
Valencia
Eigen@@
Einleitung
Inc
beruhen
ierten
Indikatoren
Religion
bil@@
cho@@
ENT@@
legitimacy
tackling
enlarged
Software@@
Prize
Far@@
failing
Drogen
länder
begun
Million
unentgeltlich
Stabilitäts-
Lernen
fehlen
freundlichen
restrictive
visits
zones
Ei@@
Freund
professionelle
ble@@
Kooperations@@
Guinea
ora
Palacio
Telefon@@
wo@@
technologische
threshold
modernisation
glich
Spektrum
victory
erer
herrlichen
nt
buying
Explorer
Intergovernmental
uncertainty
Pla@@
Argumente
coverage
nutzt
Gold@@
Piebalgs
developers
Second
9,@@
landwirtschaftliche
sitzen
ths
üblichen
Begründung
Muslim
withdraw
oren
signature
Schlußfolgerungen
ermitteln
devoted
Pap@@
promises
geringe
kümmern
setzte
Schutzes
affordable
mouse
guaranteeing
Jerusalem
wahr
bewahren
messen
Nieder@@
potentially
erarbeitet
günstige
variable
ji
Beamten
räumen
unterschiedlicher
specialized
zt
Währungs@@
violation
roof
rasche
stresses
veröffentlichte
langem
anlässlich
verursachen
umso
Holiday
alisierung
geringer
Find
Häuser
unemployed
oldest
Vordergrund
dieselben
langer
Cookies
tics
Moldova
Š@@
gesetz
troops
Glas@@
Saison
surplus
Räume
Konvent
verabschieden
expanded
cra@@
eingeräumt
80@@
Warcraft
Zusammen@@
sessions
inf@@
Don@@
certified
ungeachtet
28@@
Moscow
translated
XML
Sonntag
Energiequellen
Oberfläche
04@@
eck@@
Lam@@
Tabelle
trained
Herzegowina
travellers
Vereinigtes
Ministerrat
Infrastrukturen
returns
checked
fli@@
з@@
ov
sustained
foster
erkunden
Vis@@
DR@@
bas@@
Spitze
externe
negotiate
verbreitet
typischen
evident
technisch
Somalia
simultaneously
Arbeitsweise
Last
Mengen
recycling
Truppen
coordinate
discount
enormen
Spring
erweiterten
LE@@
ausgehen
herzustellen
Em@@
def@@
Leipzig
Volksgesundheit
IR@@
ran
wirkliche
Engineering
I.
respectively
seconds
ausgegeben
arts
erteilen
Drittstaaten
alternatives
Konsultationen
amend
stayed
IB@@
Commerce
raten
enjoying
beeinträchtigen
wherever
DA
sparen
intensiv
Unternehmer
Rock
Fahrer
Facilities
Vorgehensweise
sin
stattgefunden
phones
erfasst
rau@@
iron
Ausübung
staat
Fischereipolitik
Augenblick
keys
hilfe
promoted
fle@@
Florence
mehrfach
arm
mitgeteilt
ertes
feet
Dresden
Feststellung
League
not@@
25.
contractual
classical
Bücher
umgehend
и@@
Herzegovina
realer
tic@@
Abfälle
ener
Safe
remarkable
pa
Peace
ables
befürwortet
systematic
Auflösung
Rahmen@@
ú@@
bought
closing
emphasised
Jugoslawien
Typ
Spielen
respects
Arbeitsgruppe
Mol@@
Millennium
agrees
Informations-
poly@@
Umstände
Tages@@
belgischen
staatlicher
hochwertigen
hoc
Transfer
Gri@@
Dingen
ologie
verpflichten
beträchtliche
aufgestellt
Fol@@
CH
funktion
broadband
cookies
Menschenrechts@@
Berichterstatters
Berge
methoden
ingly
Weltwirtschaft
Fleisch
Albanien
Fl@@
territories
manufactured
respecting
definieren
defining
Wachstums
Pflichten
Events
Bestätigung
Händler
Voll@@
Uni@@
Zielsetzungen
grenzen
miss
AF@@
Trend
menge
exposure
prison
Souveränität
Datenschutz
permission
underlined
Nikon
baby
references
pen
Saddam
WHO
Appartements
macroeconomic
studied
Pierre
Belastung
lösung
expense
Vorsitzender
Widerstand
Prüf@@
commission
drücken
collapse
clarity
Sozialpartner
Umweltfragen
simplify
sample
evaluate
nowadays
chs@@
29@@
Außenminister
Handlungen
ME
anten
CA
fun@@
Kra@@
stuff
machinery
Bade@@
Verteidigungs@@
fahr@@
Einschätzung
Marco
cancellation
sovereign
indoor
geistigen
KDE
140
zunehmenden
motorway
Gesetzes@@
spät
Sonnen@@
vi
SS
conciliation
Struktur@@
rechtlich
ear@@
Pet@@
assigned
spiele
entfernen
bet
Rahmens
Tar@@
PO@@
esse
penalties
durchgeführten
Sieg
bewirken
berichtet
Nordic
Lebensqualität
repeatedly
bi
aktiviert
residential
endorsed
trat
abgegeben
unterbreitet
desto
fan
Alternativen
surprised
Guidelines
enjoys
ful
colors
featuring
nehme
bay
Golden
superb
dia
ierung
erin
är
aria
robust
renoviert
Dokumentation
ALE
ansprechen
Gre@@
bigger
Vorgaben
Betrug
Aktionsplans
Arbeitskräfte
versteht
Module
booked
interim
haft
J.
nummer
Samsung
calm
enten
Customer
envisaged
Zuständigkeiten
tik
res@@
Zusammensetzung
Suites
confident
insist
Revision
Durchschnitt
Körper@@
Patent@@
führten
Water
Kam@@
sizes
pharmaceutical
quantity
Metro
widmen
estimates
violent
farms
wooden
encourages
verstoßen
Spezialitäten
Libanon
Erlebnis
Entwickler
Olympic
hren
derselben
RSS
zusammenzuarbeiten
fil@@
Vorbereitungen
seemed
Föderation
istischen
günstig
orientation
р@@
beeinträchtigt
publishing
Prag
Erarbeitung
Frühjahr
refused
holen
dungs@@
tens
Place
Tan@@
codecision
typically
contextual
Osteuropa
AB
Privatsphäre
Residence
Climate
Samstag
verwaltet
kostenlosen
logo
Chief
comprises
describe
Unterkünfte
ersch@@
Traditionen
Ziels
03@@
ving
revealed
kennt
S.@@
airline
zeichnen
Richter
All@@
crew
dramatic
adult
ched
purchasing
stimulate
audience
Pension
believed
supplementary
umgehen
Head
academic
dig
komplexe
theatre
Annual
IV@@
presidential
uri@@
ст@@
20th
ansehen
Nacht@@
officially
Tr@@
sun@@
keineswegs
ruhige
bearbeiten
LT
segment
alität
12.00
tab@@
hervorragend
Dienstleistungs@@
zunehmende
anpassen
Solana
Milan
technique
ok
terminal
hel@@
ori
adjusted
ee
konsequent
pursuant
chtung
lenken
entity
losing
betrieb
greifen
citizenship
ws
vermittelt
Wohnungen
vermutlich
Internetzugang
migrants
kombiniert
birds
fort@@
Auslegung
ory
ernannt
ham
neighbourhood
tin@@
genen
beneficial
Ford
crops
securities
kel@@
array
adventure
ratified
Bürgerbeauftragten
assi@@
observe
dahin
wechseln
Philippe
450
fied
einstimmig
Orten
ktion
lädt
inquiries
yp@@
Zuverlässigkeit
Cohesion
prospect
Yugoslavia
beantwortet
Dar@@
Nachbarschaftspolitik
behörde
string
neutral
umfangreichen
Aussage
wächst
withdrawal
lebens@@
davor
gestellten
lä@@
Großen
Firefox
exemption
EV@@
Country
Aktualisierung
Beschäftigten
SE@@
solch
Rom@@
pan
Milch@@
Neben@@
Krieges
Landes@@
Herkunft
erarbeiten
ele@@
Immobilien@@
Risiko@@
SQL
escape
ando
flexibel
hill
afford
Effekt
EA
Klarheit
edited
biological
Communities
Dok
mithilfe
continuously
dimensions
tiges
logistics
Zweiten
aj@@
7,@@
seh@@
Best@@
fi
jährige
organisierte
kre@@
Yugoslav
VIP
ethical
lic@@
Strände
Ly@@
Sir
beinahe
placing
Netzes
Objective
declare
Fluggesellschaften
feste
telefonisch
hab@@
licence
poker
Gewinne
Ratschlag
necessity
gebühren
Ruf
schedule
medizinischen
harm
layout
cat@@
früh
Jahresbericht
Zusammenschluss
dorf
Arena
linken
Prävention
entstand
Hinter@@
arabischen
maps
vers@@
VN
Baden
Tampere
calendar
Net@@
preferred
russische
oh@@
bug
Jugendliche
hills
geschichte
trains
hilfreich
Konvention
projekt
Sti@@
Cross
PA
coherence
Erhalt
а@@
deaths
attended
detaillierte
entscheidet
Katalog
gebunden
cro@@
Prof.
EMU
Beitritts@@
derart
shortcomings
Ergänzung
Angabe
Merkmale
technologischen
Á@@
drinking
geklärt
harmonised
empty
ist@@
Wohnzimmer
Product
Übersicht
werten
measurement
1957
eingebracht
Einfuhren
responses
suited
med
kern
werke
Countries
Verfolgung
mechanismen
imposing
stick
höchst
Ticket
fairen
Export
Sitzungen
assurance
Ost
Bewusstsein
carte
Erwachsene
NICHT
acc@@
sicherer
einführen
arranged
gut@@
Argument
Existenz
false
chat
LCD
Diensten
exceed
verwiesen
dat@@
Konzepte
oo@@
stützt
Stra@@
Vorfeld
incentive
ageing
Blair
tz
reflection
Wednesday
mechanical
Tran@@
indirect
Erkenntnisse
halt
charm
plug
nis@@
Scotland
Char@@
indicates
Account
zeigte
reviewed
meaningfully
va@@
Objekte
chairman
Lehrer
Presidents
branch
verwirklichen
Palestinians
consistently
requiring
fen@@
erweisen
fanden
enthalt
patents
chairs
Lohn@@
dating
aries
infrastructures
Offenheit
alisation
faire
ausgewählten
gefährlich
Mehrwert
busy
Lieferanten
Bonn
Einzelnen
Handel@@
Doppelzimmer
fri@@
wies
gaben
qui
occupation
begründet
31.
Stu@@
Verluste
GMOs
On@@
weitaus
tra
strike
clothing
Französisch
flu@@
medieval
diving
shareholders
ups
winner
Bildern
quellen
specially
nächster
Generalsekretär
Problematik
Gay
ass
nde
globaler
Rem@@
É@@
expenses
Dec@@
Gebäuden
gerechte
cl@@
reinforced
partial
dual
PHARE
15.@@
apparent
komplexen
ett
q@@
roots
observation
gas@@
Gemeinschaftsrecht
Erzeuger
angenehmen
Krisen
professionellen
Publikum
vier@@
investiert
Bahn@@
Point
Marktwirtschaft
modify
Aufzug
entities
feedback
Schwerpunkte
To
Listings
listening
Ap@@
forderte
kor@@
Ski
Telekommunikation
Spannungen
Jewish
bewußt
Philosophie
zielen
posted
TER@@
Lizenz@@
lung
erfolgte
foremost
fac@@
jahr
Anmerkungen
vierten
leichte
Series
acquire
sation
authors
Modul
verk@@
winners
Inhalten
Beijing
brands
Referenz@@
Democratic
2nd
Güter
platforms
karten
signals
Riviera
beseitigt
height
patterns
kontextuellen
erläutert
iPod
deserves
existieren
mehr@@
din
entdeckst
37@@
hielt
Argentina
natur@@
dieselbe
destinations
ill@@
purchased
sha@@
Höchst@@
competences
Soldaten
4,@@
Kommentare
Werkzeug
Round
investing
Terms
Konzentration
Such@@
bor@@
4303
gefährden
handel
complement
biologischen
explicitly
facto
Finde
contextually
grammatically
verb@@
suspended
elegante
wife
auswählen
confirms
Wall
likewise
Annehmlichkeiten
Gegner
hinzufugen
assessments
wertvolle
performing
gestartet
Fahrzeug
Monte
intentions
digen
justify
genuinely
einzuleiten
gains
kontextuell
donors
grammatisch
pack
Wind
importantly
Steuerzahler
Task
beurteilen
Mak@@
bewegt
LAN
certificate
abrufbar
Mehrwertsteuer
eni@@
ik
Event
integral
Vel@@
BC
sektors
ques
FÜR
stream
Finanzdienstleistungen
refuse
complaint
frequent
Ursprung
lock
teil@@
Köln
kra@@
Schlusselphrase
Schlusselwort
Jesus
nachhaltig
aufgezahlt
cli@@
formuliert
Heimat
riding
Car
iz@@
adaptation
tn@@
abkommen
Ursache
aff@@
gemütliche
Palma
kli@@
v.
Konjunktur@@
Mario
Caribbean
Parliamentary
Kriegs@@
abgeben
Bilanz
Düsseldorf
zog
ungsverfahren
istische
sterben
Versprechen
twin
missions
ack
zustande
Branchen
s-
angebotenen
ausgearbeitet
cap@@
consulted
contributes
ali
Burg
recession
Appartement
ame
regimes
Ja
Innovations@@
person@@
Eurobarometer
falsche
Himmel
Kommissionsvorschlag
demonstrates
Desktop
erlangen
Sommer@@
blieb
Francisco
convenience
expanding
aner
Schwer@@
micro
GM
Klage
quantitative
moments
fall@@
compatibility
prohibited
Zucker@@
5,@@
Original
ж@@
Ereignis
ological
replacement
folder
Wichtigkeit
Moldau
einstellen
Einsatz@@
Venedig
Café
ail@@
hi
IX
einhalten
Natura
pat@@
advise
Ausblick
Fakten
eindeutige
innere
nieder@@
Ham@@
blind
lowest
ty@@
Betroffenen
Perspektiven
SM@@
interactive
tal@@
â@@
Einschränkungen
löschen
URL
getrennt
verliehen
Dom@@
dog
ord@@
24.
Anwendungs@@
kal@@
voters
schem
transposition
dial
chan@@
kol@@
alization
socio
gefährliche
integrieren
Wälder
pays
tos
tage
Weltbank
restrict
Aufträge
orientierte
dens
basieren
Myanmar
Hafen@@
log@@
einzuhalten
beider
Lager
BL@@
Allah
präzise
н@@
boasts
Air@@
verstehe
Tom@@
passt
conventions
alike
s.
Rechner
Gel@@
Directives
rahmen
ordnung
heavily
BER@@
ärmsten
de.htm
examining
27@@
Bauern
müsse
ierte
fascinating
Energiepolitik
Im
Sozialpolitik
Beschlusses
kes
ela
elli
anda
höchster
Jan@@
accuracy
befürworten
verzichten
EK@@
Cologne
IBM
intelligence
grade
characteristic
Sta@@
Nu@@
unanimously
themes
beweisen
radi@@
blo@@
fulfilled
innovations
A.@@
Friedens
emerged
beiträgt
AP
Gerichten
Nation
wirklichen
moderner
Sports
ICT
begrüßte
11@@
preserved
gan
Aussichten
lively
Ehre
Mercosur
syn@@
thumbnail
uren
Guide
1970
einst
orientierten
Ausgleich
Brücke
mark@@
parlamentarischen
pain
Dem@@
Sekunden
ania
ziel
Mitgliedstaats
portugiesischen
bers
Anonymous
alism
geehrte
brechen
transformation
sions@@
Lat@@
geräten
geltend
inquiry
recall
supervisory
opt
berichte
1945
hy@@
Transaktionen
kritischen
Parlaments@@
Haup@@
asks
Dun@@
Erwägung
yed
PER@@
logic
erörterte
eingeladen
underlines
excursions
Vermeidung
esen
Folgendes
gift
8,@@
п@@
Aussagen
respektieren
dauer
gelegene
Verfassungs@@
eco
attract
speeches
Dan@@
Competition
г@@
destroy
36@@
Sim@@
accessories
ALDE
Arbeitsbedingungen
konferenz
verstärkten
Erleichterung
ältere
Times
capacities
split
turns
Filter
monitored
sy@@
Verletzungen
Zusagen
Studien@@
distinction
Book
instantly
Königreichs
demographic
ursprüngliche
lam@@
Sin@@
Indonesia
vari@@
Schicksal
forgotten
grand
Spaziergang
View
xi@@
stance
tragic
Economy
Tagungen
Stahl
Telekommunikations@@
angenehm
flying
Termin
Finanzmärkte
Fisch
threatened
behauptet
kin@@
shot
abzielen
imp@@
schreibt
ensured
unions
belongs
convert
premises
überrascht
betonte
sprache
anerkennen
Wel@@
ehrlich
Smoking
breit
Km
ture
strenge
ermittelt
б@@
Poly@@
funktionen
kurzfristig
Golf@@
Weine
Premium
hospital
worthy
äu@@
cope
tragedy
Technologies
fährt
GU@@
aufgerufen
designer
Intel
Bes@@
jo
SMS
desktop
kurzer
workshops
Alps
hole
soul
Val
prevented
male
stopped
sunny
Professional
argue
Bureau
Rezession
Polizei@@
Werkzeuge
einiges
Schulz
örtlichen
comm@@
recognises
ausgewogenen
strasse
Modus
engagement
stoff
See@@
Wander@@
gelegenen
Ansprechpartner
betreffende
Wallström
rose
Ara@@
Subventionen
wohl@@
Felder
controlling
ron
REACH
MA
G8
Meinungen
apparently
tik@@
ght
pattern
Tauch@@
How
360
Your
Ernennung
mol@@
spare
wake
ably
ø@@
splendid
Hau@@
Kr@@
Konferenzen
erzielte
ändert
bezogen
pursuing
Rennen
angewiesen
constructed
typisch
Fremdenverkehr
Ke@@
Empire
set@@
terrible
endgültig
pose
Verfahrens@@
Zimbabwe
derjenigen
Rechtsrahmen
Section
outlined
Original@@
kleineren
Rassismus
Tel@@
gehandelt
Datenschutz@@
Tunisia
DO@@
Bestände
26@@
adjust
Sach@@
л@@
Slovak
Zimmer@@
Getränke
evolution
trouble
Anbindung
Rubrik
top@@
tischer
consistency
Luxus
Daniel
moves
Gewinn
glichen
debating
unerlässlich
Ausschüsse
facilitating
informationen
Libya
Stabilisierungs-
fol@@
bewegung
Bestellungen
Mini
vorgehen
OC@@
cle@@
creativity
ambition
reconciliation
Istanbul
Intervention
Kuba
undermine
Weltkrieg
hiermit
Bru@@
sheets
Patent
confidential
continuation
bus@@
Bed
Gesprächen
ratifiziert
bezogenen
operative
Rahmenprogramm
TO@@
revenues
EX
20.@@
Taten
Sun
Entscheidungs@@
kommerziellen
verurteilen
paths
Foto@@
stärkeren
measuring
Organen
3rd
proximity
Shi@@
buch
Fans
ching
Gruppen@@
Micro@@
schlechte
wheel
Demokraten
14.@@
Index
Empfänger
würdigen
Ren@@
beneficiaries
vorrangig
HP
ausgestattete
Einvernehmen
Che@@
deserve
Minderheit
centrally
linien
derartigen
án
Instrumenten
Halle
WORD
durchzusetzen
Clinton
fur@@
announce
22.
wirksamer
precision
ernsthafte
chose
privileged
voran
specifications
discipline
dic@@
delivering
regelmäßigen
Autor
Erzeugnissen
eib.org
Vermarktung
Fra@@
Verkaufs@@
holders
OP@@
Pl@@
Gewährung
Missbrauch
analyses
pas
receives
Malaysia
Generaldirektion
ökologische
Weiterbildung
hundert
react
AdR
Quoten
vereinfachen
Plätze
refugee
veröffentlichten
cri@@
bilaterale
Monitoring
schule
ement
continental
Mischung
Zoll
streng
65@@
Kommissions@@
Halb@@
foods
Clubs
Gremien
teilzunehmen
Bergen
derived
dauern
Investition
sted
honest
bonds
los@@
arbeits@@
Gleichbehandlung
Bürokratie
gest@@
kontinuierlich
sake
bul@@
jeglicher
Nichtraucherzimmer
ez
deli@@
Würde
vertraut
ero@@
circulation
ational
pas@@
claimed
meantime
wunderschöne
Bou@@
Unsicherheit
rie@@
berühmte
aden
beantragen
stern
zeichen
Außenbeziehungen
Konsolidierung
slopes
Menschheit
excellence
unzureichend
papers
Verträgen
Dach@@
Flu@@
geschickt
hängen
umfassendes
schwieriger
forth
erwähnten
Reinigung
verarbeitet
borne
hire
organize
ción
CC@@
subscribe
sive
Hände
Zerstörung
specify
perspectives
relaxed
catalogue
irische
Ram@@
23.
ario
Arts
amen
lebenden
wages
Quark
м
gesichert
grundlegender
genießt
closure
daraufhin
ANT@@
retten
gi
mining
teren
rat@@
Bol@@
tä@@
eintreten
Terroristen
Formulierung
calculated
cou@@
eta
Tru@@
genetic
hol@@
£
16.@@
Luftverkehrs@@
solved
Storage
combining
dad
audiovisual
größerer
ausgebaut
industrielle
Madeira
homepage
tat
Benutzer@@
inwieweit
W.
Referendum
acknowledged
Partner@@
bevorstehenden
Kreativität
derung
Designer
ppen
precious
Unterlagen
nachzukommen
behavior
Berechnung
publicly
condemn
schaften
Konvergenz
multilateralen
compare
centers
gültig
concentrated
expressly
Son@@
Tempo
lis
vereint
stro@@
Mrd
Andreas
Handy
judge
pending
NI@@
realisiert
punkte
israelischen
einzig
arrange
ja@@
Raum@@
viewed
Nutz@@
Erbe
Ker@@
bestimmtes
William
experiencing
gradual
Strand@@
zo
han
eingeschränkt
Č@@
Auflagen
220
gend
Greens
Program
Cotonou
Zurich
Festplatte
meter
ther
bereitzustellen
konstruktive
Glauben
realen
CL@@
Versuche
uss@@
lig
ignore
acht@@
Amerikas
etten
sec@@
afraid
1984
Nachmittag
Empfang
recht@@
Roh@@
6,@@
Umstellung
S.A.
occupied
gehabt
inland
Gottes
unterscheidet
quantities
rin@@
hebt
vierte
automatische
ents
accountability
removing
andernfalls
gew@@
ack@@
einzubeziehen
cos
Gewinner
Impulse
zahl
chief
voneinander
lights
sat@@
я@@
Fed
ji@@
Library
ungarischen
Trends
mil@@
aufgehoben
Taliban
Open@@
SDL
zulässig
Anwendungsbereich
ENT
sailing
prozesse
Kl@@
specialised
religiösen
akan
intense
maschine
VI@@
Communications
flag
Europ@@
Bundesrepublik
ont
catering
lighting
departments
bis@@
aiming
tone
exhibitions
rechtfertigen
declarations
ny
Erhebung
Analysen
Ausbeutung
stops
Seele
mergers
Big
EM
Händen
Wild@@
Mittel-
Change
niedriger
aufweisen
transatlantic
dauerhafte
gewinnt
gleichwohl
Amtszeit
NO@@
stat@@
dam@@
Katastrophen
fis@@
behindern
Glas
worrying
slowly
inneren
lauf@@
Vertreters
Ag@@
headquarters
Gesicht
Pr@@
monthly
fitted
concludes
Drei@@
genetically
Standpunkte
konzipiert
soldiers
challenging
Industrial
grad
eigentliche
leitung
drives
Santer
Updates
exceptions
а
beschreibt
maximale
California
Full
assessing
Bett
upcoming
han@@
modes
Ferienwohnungen
tiv@@
Zimmerbeschreibung
19@@
einnehmen
ost@@
low@@
complementary
Bat@@
Sc@@
sh
1979
Hochschulen
simplified
raises
bezeichnen
garage
delete
Top@@
stoßen
mehrerer
Fil@@
Fang@@
hot@@
caught
kritische
Arbeitsprogramm
dem@@
tt
finanziell
2,5
anzeigen
biologische
debated
Metall@@
cameras
Kongo
ungsmaßnahmen
Muster
Cro@@
Gulf
lern
Organization
unlikely
überwiegend
Küsten@@
bereitstellen
Virus
conveniently
settled
Dienstleistung
gemütlichen
Summe
aged
indi@@
ele
SU@@
generous
hang
monuments
19.@@
agentur
Text@@
demokratischer
Mittwoch
spiegelt
Mode
Ph@@
IE
Neighbourhood
unusual
Weiter@@
designated
minimal
Genuss
arrest
Mails
measured
Stabilisation
entes
cancelled
zunehmen
Arbeit@@
rou@@
Access
observations
urges
editor
womit
Kabel
PROCESSED
Bot@@
verbot
noon
Landwirtschafts@@
einzurichten
Menschenrechtsverletzungen
macro
hom@@
Pf@@
vertrauen
gemessen
pur@@
FL@@
fälle
RI
Spar@@
cy@@
Dreh@@
preferences
entries
Venezuela
recover
elderly
workshop
knew
drafting
carriers
emerge
tropical
Qualifikationen
loading
Nahrungsmittel@@
herum
bedauerlich
Krisen@@
intervene
PE
Tex@@
confidentiality
beeinflusst
schenken
endet
Ostsee
var
verordnung
Lamy
Außengrenzen
backed
sicherheits@@
tender
empfängt
SD@@
Tech
klarer
safeguards
Lanka
wasser@@
magic
Hy@@
rescue
Adressen
Neue
gefährlichen
literature
forums
wahre
preventive
qualifizierte
eit@@
Bitte
Je@@
Einwände
tangible
finanzieller
painting
occurs
leitet
eleganten
mitglieder
alist
passion
eur
vegetables
kul@@
Rechtssicherheit
margin
unknown
Village
GA
Pin@@
ION
Wikicars
Spielraum
sus
Medikamente
gesammelt
humanity
twelve
japanischen
Iranian
ausgenommen
newspaper
erreichte
LIFE
osteuropäischen
städtischen
Fri@@
investigate
Wales
Iraqi
fication
assured
tere
ablehnen
Rund@@
semi
Marie
Not
wozu
kette
Kräften
Brand@@
FC
UM@@
Ref
Rande
Bühne
ash
gratis
invitation
Konkurrenz
koordiniert
Kernel
constraints
loser
wars
observers
gesenkt
displays
ermutigen
Danube
Ferrero
fällen
indication
mistakes
Verstoß
diesmal
nötigen
¶
downloaded
problemlos
identifying
Rec@@
Dre@@
sensor
implies
negativ
Small
tower
Catherine
Opinion
Marken@@
treaties
geschlossenen
tons
Beruf
offen@@
Präsentation
einzugehen
Umsatz
Syn@@
Fe@@
deten
connecting
vis@@
plötzlich
tough
Verteidigungspolitik
unterwegs
underline
Fal@@
Zinsen
laser
Hochschul@@
bill
gelingen
Energieversorgung
COUNCIL
Mercedes
gefasst
wert@@
setzung
gegenseitig
decrease
Konflikts
converted
displaced
posi@@
226
äl@@
Umfrage
household
gewünschte
ath
Tunesien
ungsp@@
deployment
teuer
tran@@
dol@@
scenario
frühere
GUE
earn
discriminatory
zahlungen
Eine
regelungen
stieg
alleine
Peru
reise
klären
tailored
terrorists
harbour
Einwanderer
Net
entrepreneurs
treiben
kontrollen
ы@@
dischen
Geräten
3000
gemeinschaft
choosing
Reaktionen
regulate
Vit@@
permits
seekers
Tarifa
bedienen
photographs
Lasten
sectoral
boxes
Byrne
Frank
lab@@
avi@@
whatsoever
nützliche
checking
beantragt
eg@@
racism
Anpassungen
ausgaben
Sky
9001
Massage
behandlung
lays
ethnischen
gebildet
Art.
Seen
Vertragsparteien
Zahn@@
SA@@
End
garten
D.
Ol@@
archive
parameter
Bewohner
Büros
Pas@@
camps
ausführlich
UT@@
theit
regelmäßige
junger
Produzenten
warmly
silver
Anwesenheit
skilled
verwalten
gehe
eingebunden
Fuß@@
pel@@
aussehen
My
excess
Euroraum
absurd
cent@@
26.
29.
interessanten
Direktor
normale
griechische
Bewertungen
complexity
angebote
verkehrs@@
&apos;d
sionen
Behinderungen
broadly
architectural
MAR@@
abend
Stre@@
Überwachungs@@
copies
toilet
jet
hesitate
Phänomen
Out
wenigsten
gebe
warming
lar
Vergabe
gesorgt
differ
afterwards
laying
daneben
tape
Informationsaustausch
kel
Ali@@
Frontex
Fein@@
owing
abolition
enz
і@@
Mar
tips
pul@@
Geschäften
diesbezüglichen
größe
bureaucracy
registriert
avoided
Terminal
Saal
bezogene
Play@@
ink
Wald
lovers
Volkspartei
Erst@@
aci@@
Staat@@
strengen
vorbehalten
fügen
Bir@@
imbalances
tiefe
gesellschaftliche
aan
vereinfacht
Süd
Profil
prestigious
angehören
Fitness
schla@@
lon@@
PP@@
Quartal
administrations
eigentlichen
handled
explains
capture
Objekt
Schuld
cam@@
Stadium
water@@
concerts
analysiert
returning
sandy
describes
VON
Solutions
passen
launching
Waldner
Sur@@
sho@@
internationales
18th
realize
ku
desirable
strategien
crossing
Schnittstelle
Ocean
klasse
Bonus
degrees
ea
consisting
gebraucht
versehene
Subsidiarität
anforderungen
öffnet
Sau@@
komplex
agent
obgleich
reverse
verabschiedete
Fehler@@
participated
Gipfels
Grün@@
losigkeit
orientiert
Fristen
komfortablen
aktualisieren
adverse
adjustments
potenziellen
Menschenrechten
Eingliederung
chter
SME
reduces
work@@
congratulations
pricing
Logik
dollars
plätze
ées
demokratisch
starkes
modernes
announcement
heated
Game
Erd@@
Stand@@
passieren
Lehren
correction
Holland
ently
ausschuß
paket
Alltag
niedrig
versehen
directions
Op@@
flächen
spor@@
Info
vergleichen
olo@@
chern
haltung
Is@@
transmitted
MA@@
ausgewogene
finanzierung
Beschränkung
Schätzungen
Aktien
ulation
angeschlossen
Techniken
Leistungsfähigkeit
kommende
17.@@
Technical
IK@@
einf@@
Theorie
Angriffe
BA
Bewirtschaftung
vielfältigen
angelegt
Ferien@@
konzept
clo@@
establishes
erläutern
ausserdem
admit
ı@@
cooking
sämtlichen
Haushaltsplans
keeps
accommodate
erworben
automation
assoziierten
Language
й
ely
Gewinn@@
Marine
esta
fiel
sli@@
kostenfrei
Juan
moderate
jeweilige
cheese
ian
Strasse
gg@@
ados
typische
Gewerkschaften
stays
nor@@
scrutiny
Stad@@
kat@@
amp
novel
movies
Vorsitzende
interventions
integrating
Gebühr
Park@@
Spezialisten
decent
Beträge
Gor@@
Bulgarian
unterliegt
Amtsblatt
isolated
ath@@
Entwicklungspolitik
Fahrzeug@@
überdies
mini@@
besseres
Wetter
Verzögerungen
angeblich
Wünschen
ats@@
develops
eit
ohnehin
dauerhaften
laufende
dänischen
nah
clock
Route
betriebe
partially
Mad@@
durchschnittlich
Schiff@@
Friendly
Cer@@
cheaper
plat@@
zurückzu@@
demonstration
Wolfgang
Mitwirkung
Bridge
Maritime
leather
Gesundheitswesen
approx
Türen
28.
adequately
Anzeige
östlichen
Schiffen
durchschnittliche
gere
annually
Kongress
schlag
hau@@
wasser
Vereinigung
fal@@
ras
Renaissance
Straf@@
Alpen
gleicher
unprecedented
seminars
tei@@
geschafft
Gam@@
bot@@
aggressive
Bolkestein
favourite
coins
Fair
Vertriebs@@
Funktionsweise
Komponente
Funktionalität
Les@@
wise
tolerance
Renn@@
Hour
transnational
Charme
ч@@
doctors
Schw@@
roughly
liegende
yer
nos
gkeits@@
Stabilisierung
ländern
respektiert
ziel@@
If
Libyen
Versorgungs@@
letztes
gendes
proliferation
branches
characterised
Miet@@
mut@@
dom@@
Linien
IKT
restoration
Gem@@
elf
tom@@
Jordan
Waren@@
baut
deemed
hazardous
Einschränkung
Artikels
Gemeinschaftsebene
englischen
Mul@@
analysieren
Hektar
appreciated
Shanghai
Wesen
begleiten
Rats@@
denselben
essen@@
solving
Kredite
isn
Forscher
SK@@
Speicher@@
1.2
id@@
Vermittlung
RA
meistens
drängen
Nichtraucherzonen
seminar
edit
verlängert
gol@@
konstruktiven
ultra
behindert
Wortlaut
rubber
gent
E.
friedlichen
sil@@
clearer
ê@@
Beförderung
Mei@@
Defizite
exploit
mü@@
marktes
Borg
spielte
procedural
Vertreterin
Abwicklung
Limited
Tab@@
LIN@@
artificial
gal@@
wan@@
Gebietskörperschaften
interaction
untereinander
Log@@
Tau@@
geführten
Minibar
fy
linguistic
hosts
versetzt
invested
bearbeitet
Inhaber
Datei@@
Santiago
Liikanen
Panorama
Singapore
PH@@
deb@@
tierten
calculation
Flugzeuge
incorporate
Ob@@
practically
net@@
Work
dec@@
favorite
peak
Gespräch
anstelle
herstellen
sierte
Parties
Claude
Sant
rü@@
hoped
verständlich
ao
forecast
ckt
geholfen
Beratungs@@
Soziales
thoroughly
governed
4379
Medizin
kids
Akteuren
Frauen@@
avoiding
belonging
autonomy
Liberalen
ön@@
1978
bewiesen
jemals
registrieren
vorherige
fach@@
UC@@
untuk
namen
Dritter
int
Studium
gerechten
Israelis
schalten
prominent
zeitraum
downtown
cancel
Sicherheits-
stellten
remedy
bot
bisschen
einzustellen
grüne
negara
27.
Romanian
CoR
Prozess@@
Tower
handed
Str@@
passende
weaknesses
loved
vit@@
TAC
18.@@
brain
Abstand
separately
Ed@@
sk
verband
alized
anzugehen
counter@@
Il@@
tas
einzelner
ebene
foreseen
ours
GASP
answered
1975
tribute
ernste
Einkommens@@
thanking
inform@@
sagten
suspension
immerhin
temperatures
Frattini
Abgeordneter
Congo
Working
FR@@
SL
zei@@
Bill
verglichen
deutscher
protest
arbeitete
Fan@@
hydro@@
worry
ue
vorherigen
globalization
aut
authentic
ppe
nel
Motto
koordinieren
damaged
obtaining
lieben
ade@@
fears
by@@
conjunction
gases
sharp
Provence
Hussein
äußerster
Einwohnern
ан@@
banned
Verantwortlichen
steigenden
xe
Ps
gerufen
leidet
creature
doctor
inner@@
promotes
arbitrary
Man
Tochter
weit@@
unterrichtet
capability
wir@@
Annäherung
elten
ROM
BE
Wiener
Schle@@
victim
Aqu@@
Trump
Power@@
convince
Tim@@
donor
verankert
eigenem
Grundfreiheiten
torture
suggestion
Moskau
Tickets
inakzeptabel
gesunden
teacher
drafted
Ordner
Optimierung
alismus
Design@@
inspections
GBP
sporting
Gegebenheiten
dly
effektiven
ECOFIN
AH@@
70@@
stal@@
Nichtregierungsorganisationen
kommerzielle
bathing
ams
Sevilla
ausführliche
Beitrittsverhandlungen
Les
bol@@
beliebigen
unstable
Sowjetunion
essence
aum
passes
awards
Class
getreten
Ir@@
retirement
celebrate
kers
Super
sign@@
fires
Lobby
blame
vorhaben
pres@@
Lauf@@
globally
Besonderheiten
reale
wartet
gy@@
pper
preparatory
Garten@@
Waffen@@
Johannes
PCs
Traum
icon
Allgemeine
economics
tica
currencies
feiern
ы
kti@@
PM
Nahrungsmittel
Verhaltenskodex
keen
dt
zahlt
lan
multimedia
CFSP
nden
umgekehrt
erie
Division
gutem
District
battery
sentence
prozeß
ausgelöst
prüft
LED
untergraben
oberen
fines
Anreiz
Ret@@
angemessener
Hilfen
erbringen
Cur@@
felder
Unterhaltung
dairy
ling@@
Gemüse
carrier
Beobachter
bid
ag
Interior
sting
API
Cardiff
Besch@@
bags
schlechten
FOR@@
Partners
schen@@
Laufzeit
Pil@@
nachhaltiges
yo
trennen
validity
humans
watching
acted
abzielt
170
impetus
notify
como
Eigenschaft
amt
welt@@
nähere
Res@@
ал@@
Hil@@
workforce
Agreements
Dienststellen
Bedingung
condemned
golden
aufrechterhalten
Integrität
ford
Pflege
sla@@
Pic@@
worker
2050
textiles
Flüchtlingen
radiation
Olympus
verwirklicht
Kinnock
droht
Zusammenfassung
gemeinschaftliche
dein
Migranten
sierten
1967
begangen
teilgenommen
wirft
households
The@@
rot
controversial
fla@@
spots
ASS@@
Mus@@
1982
1.1
feu@@
Randlage
schwerer
sm
Entstehung
SC
Awards
interessieren
Tuesday
aufeinander
Operationen
Sab@@
Aktivität
Bildschirm
Führungs@@
breites
wald
Schulden@@
GE
privater
bekanntlich
angefangen
Politik@@
bases
Palestine
ehen
schafts@@
thin
gesunde
Netzwerk@@
vos
pt@@
founding
gefolgt
ST
Ferien
Flugzeug
bureaucratic
Gärten
ueber@@
Feld@@
silence
consist
Cambridge
engere
1976
alarm
Rand
organ
elling
ersuchen
cleared
bestens
gewisser
greift
Conditions
electronics
unmittelbaren
Flüge
eingerichtete
Reich
getötet
ativ
Fel@@
beside
ks@@
interview
VII
posed
Ltd.
Viviane
schönes
auto
Beendigung
Übergangs@@
Galerie
ho
sischen
Fußball@@
CD@@
cally
Finanz-
churches
Bil@@
Konstruktion
freiheit
ě@@
aire
Aufsicht
disappointed
149
Smith
cking
let@@
Mis@@
vernünftige
verbindungen
nis
erbaut
automated
Johannesburg
fur
Indi@@
unterbrochen
stood
yst@@
Panel
spüren
Direkt@@
Wettbewerbspolitik
ück@@
ungsin@@
engineers
cio
e-
Milosevic
ining
freundliches
Alpha
vereinbarungen
gesetzten
DI
bio
iner
Studios
125
qualitative
lang@@
Finanzierungen
kapazität
receipt
extends
gebäude
lige
zahlreicher
plane
Mes@@
Lehre
68@@
versorgung
dungen
Zufriedenheit
Auskünfte
ever@@
Deposit
optical
equ@@
Rechtssache
Geb@@
Verbrauch
Wille
vin@@
hopefully
Leuten
officers
Ran@@
shaped
einheit
tierte
64@@
suche
tariffs
stringent
ш@@
chemischen
autonomous
Gesetzes
Internetseite
Klaus
3.0
3.5
ceremony
Forschungs-
genes
21st
commonly
fortunately
,00
performances
vorzubereiten
Palästinenser
friedliche
separation
lacking
Begrenzung
broadcasting
eries
technologie
dominated
angenehme
teils
exploring
lakes
Uruguay
Heritage
searching
oria
Aufnahmen
laboratory
kritisiert
NGL
aqu@@
regulators
translations
pping
Review
employee
cargo
identical
wenngleich
environments
Sarkozy
schützt
Bag@@
begrenzte
ür@@
fifteen
Schrift@@
Zusage
Aktien@@
Copyright
Strukturreformen
lich@@
fahrer
lesson
feels
determining
Universal
diesel
ater
loaded
gab@@
Timor
cotton
Karriere
verstößt
Euratom
medicinal
druck@@
Kas@@
ards
sters
keinesfalls
photography
squ@@
visitor
Plans
gelernt
vorgesehene
tan
Communist
Koordination
Sor@@
stru@@
anna
blicken
investor
unlimited
linge
Binnen@@
bread
pin@@
Eigentümer
Indonesien
hygiene
Simbabwe
voraus@@
geschätzt
filling
eda
Trennung
Editor
recommends
sab@@
zwingen
Absch@@
teilnehmenden
solo
What
kultur
plain
bedingt
Datenbanken
Opfern
Übermittlung
wel@@
ning
Travel
Hitler
eingerichteten
weekly
grew
Cannes
UM
guides
ruhiger
specialities
ließen
Obst
Bezahlung
Breitband@@
Sel@@
hosting
komfortabel
Handlungs@@
hafte
Satelliten@@
DIN
standes
indispensable
nachdenken
Äußerungen
schwedische
breaking
arti@@
Search
schlimmer
Hot@@
accessibility
Alpine
gter
ising
column
binnen
ain
Kli@@
verknüpft
harmony
guard
betrug
expressing
railways
Eli@@
Consulting
eure
01.@@
Hör@@
lungen
zin@@
EH@@
Ibiza
sau@@
führender
Nature
safer
angehen
vertical
backing
paradise
Erneuerung
Natural
Werk@@
Cli@@
umwelt@@
Gültigkeit
rue
deadlines
Genf
accompanying
gener
fate
Beitrittsländer
circle
Ay@@
24.@@
resident
Wahrnehmung
tensions
Verfasser
Themen@@
Beste
eigen@@
survival
Anregungen
112
mach@@
stecken
downloading
auszubauen
clinical
üblich
holder
Don
Ratsvorsitzes
Governments
Ven@@
einziges
interinstitutional
entrepreneurship
fro@@
Fehl@@
Urlaubs@@
namens
Termin@@
.ch
confusion
vernünftig
Realisierung
hervor@@
38@@
kritisch
Haushaltsjahr
securing
outset
Cala
101
MwSt
Evaluierung
ör@@
bern
eien
legung
Zielsetzung
regi@@
Rechtsprechung
chocolate
wn
stabile
databases
zurückkehren
dige
flash
RELEASE
modest
Ankündigung
DA@@
ruled
Hannover
tatsächliche
Rue
Order
enttäuscht
Apache
regionen
Regimes
gie
verweist
Einbindung
engagiert
ín
fügt
Gallery
belegt
AKVIS
Fehlen
incompatible
cel@@
nat@@
shore
d.@@
sä@@
Konfiguration
vereinbaren
DNA
Wert@@
fat
executed
Heimatland
offset
rain
längere
RD
Laeken
nten
rehabilitation
Zivil@@
Cathedral
ordination
Infrastruktur@@
ausführen
Kaiser
Konflikten
ат@@
Schnell@@
renewal
berger
motions
verleiht
History
Israels
ökonomischen
stücke
ř@@
Heil@@
blu@@
systematisch
Milch
limiting
Customs
Chemikalien
alliance
tension
vorkommen
inequality
Reader
Drittländer
Basi@@
05@@
badly
chambres
distortions
unterhalb
Frankreichs
throw
Menschenhandel
Carlos
CC
Panasonic
linking
vereinbarung
hersteller
Liberal
Case
embedded
introduces
Beweise
License
genetisch
dert
Cat@@
enorm
argued
New@@
admission
CS@@
salt
ering
detection
Facebook
einmalige
dangers
erb@@
defense
Cy@@
vorzuschlagen
Hoheitsgebiet
Flug
labels
Poli@@
definitive
independently
districts
erweiterte
Berater
assumed
dal
bewirkt
Einfuhr
Industri@@
erneuerbarer
sn@@
Entschädigung
Mau@@
characterized
Airways
denden
translate
consolidated
bedenken
häuser
TER
turnover
login
Kirchen
explanations
erwähnte
fehlende
EVP
verify
falschen
suddenly
Effekte
fying
Handelspolitik
GMO
cas
Tourismus@@
Kurse
bist
forming
AU
BI@@
entnehmen
QU@@
Plat@@
Statistik
wording
Bewegungen
accepting
ć
surprising
stein@@
flowers
Aufrechterhaltung
cache
Erreichen
ping
beschreiben
Stellvertreter
fliegen
ehe
safeguarding
inbegriffen
Hin@@
Mail@@
Anleger
Herrschaft
crystal
credits
Articles
Basis@@
Fernseher
alisiert
projekten
Übersetzungen
accepts
tight
denied
bedauere
lohnt
girl
mus
Citizens
tem@@
landes
Nar@@
WWU
Aufruf
ignored
bekräftigen
ligen
uneingeschränkte
Karten@@
pop
Sustainable
theater
survive
Verts
UL@@
eth@@
Welthandelsorganisation
Kluft
Buenos
Tat@@
Directors
consolidate
momentum
Besitzer
größtenteils
Abstimmungen
ura
Regi@@
fr@@
mündlichen
Joe
zumal
möglichkeit
realisieren
lö@@
Ermittlung
Tabak@@
roles
Cubase
Renten@@
accelerate
promising
benannt
Brok
Argentinien
Leonardo
nit@@
Dat@@
appreciation
2030
Third
OSCE
verkauf
camping
strukturellen
wil@@
talked
betragen
klassische
Len@@
newspapers
breathtaking
Autoren
zwanzig
gue
Is
dell
Prüfungen
Oslo
OSZE
Armen
cc@@
effektiver
Unit
knowing
fü@@
ong@@
Workshops
verbindung
erstatten
gin@@
TACIS
verbieten
Athens
clarification
notion
dent@@
wishing
paintings
90@@
Bedienung
müßte
vorn
übergeben
herrliche
stellungen
incredible
Abenteuer
piano
schlechter
errichten
Directorate
tour@@
wendet
EW@@
gear
approves
controller
Regel@@
Produk@@
versetzen
Aires
Barack
zivilen
ô@@
schw@@
voranzutreiben
Jazz
gegebenen
sons
Müller
fusion
vorzugehen
HR
ungst@@
far@@
Geschlechter
gestellte
irrespective
Jahrzehnte
qualifizierter
Mountain
strange
startet
Kreis
Zwecken
Botschafter
aluminium
Anzeichen
glaubt
Eurojust
Set
immense
justification
ä
Wartung
unanimous
deck
Wie
ap
Up
profound
gam@@
vil@@
Juncker
Wissens@@
steckt
allmählich
Interface
sofa
wen@@
RI@@
mineral
Learning
Korean
machten
nennt
optimum
Flotte
Domain
rivers
disabilities
Textes
isolation

Chris
Gegenwart
schließe
Vassiliou
bles
pact
CAD
Environmental
gänge
südlich
m.
2.2
fließen
ен@@
ehrgeizige
Säule
Speed
tungen
More
Kontakt@@
wünscht
folgendes
wofür
ärer
Schiffs@@
var@@
Out@@
alisieren
ausgelegt
Cra@@
ols
SL@@
akzeptabel
Ja@@
5th
Ansätze
certificates
abandoned
advocate
4th
scenery
verhandeln
mieten
Nielson
nachkommen
Verstöße
gur@@
visas
zutiefst
ige
Logo
ßen
Anweisungen
Handels-
vorhandene
Naturkatastrophen
Gran@@
vermögen
Lang@@
Zentren
wh@@
FAQ
setup
bereitgestellten
psych@@
Bü@@
tot@@
criterion
sam
Fusion
cy
fits
judges
angeben
pfen
Sicherheit@@
fünf@@
Personen@@
Augen@@
rank
Halbinsel
Ernst
belt
Volkswagen
advances
sexuellen
Attraktionen
tausend
conformity
actor
Elevator
wahrnehmen
preisen
eingehende
Verkäufer
thoughts
nördlichen
märkten
KOM
strive
Wahrscheinlichkeit
abzuschließen
Jahrzehnt
vali@@
lauf
gewünscht
onic
Papier@@
venue
1968
Tendenz
married
panels
fought
Jung@@
verschärft
allies
powered
head@@
betrag
Service@@
gäbe
eignen
Christopher
қ@@
Zug@@
Inanspruchnahme
supplement
unterstrichen
ï@@
yellow
nah@@
Verschlechterung
quelle
mirror
genauen
tiven
TS@@
beitreten
cod
generating
Arzt
Sign@@
beschleunigt
refined
Officer
objections
istic
rep@@
tschechischen
Nov@@
finest
Bremen
lifelong
vessel
neueste
Straftaten
grave
kit
Aufteilung
bands
Verhinderung
restriction
Mit
Pass
advisory
entscheidungen
alle@@
Ausgang
schrieb
Schatten
tells
bird
fault
ESA
gebühr
Tragödie
bre
en.@@
verwöhnen
Scheitern
materialien
Zei@@
gaps
abends
traditionell
Gegenstände
gewählte
bt
ε@@
exklusive
schaden
23.@@
banken
Besuchern
lehnen
klares
din@@
liquid
Automobilindustrie
Metern
Ecke
POLICY
arriving
oli
P.
1983
Dienst@@
Kommissare
begrenzen
explicit
delicate
kin
Tom
Holding
wahl
hectares
deeper
dy@@
bag
striking
abgehalten
fahrten
Kopf@@
parent
Privatisierung
Coast
gezielt
beauftragt
Vollendung
Landwirten
anyway
taught
telling
Legitimität
ech@@
Aufstellung
exklusiven
tho@@
permanently
best@@
Maschinen@@
bild@@
auer
Sand
Anhänger
activated
indications
Fahrzeugen
Chicago
bat@@
R.
Jobs
Freizeit@@
ILO
Weekly
methode
bon@@
Gibraltar
val
5.000
dauerhaft
gran@@
walks
enes
Parks
cycling
wen
PAR@@
Sitz@@
T.
gym
kurs
formula
1973
Augenmerk
Display
Teilnehmern
fon@@
Touren
regrettable
Statute
1981
Gewässern
Thai
talent
Ufer
korrekte
ming
Nat@@
commented
Kre@@
ambitions
liber@@
dementsprechend
systematically
qualifizierten
eating
App@@
Gesellschafts@@
dru@@
ites
Budgetary
zweimal
rejection
Verwaltungen
til
editing
128
stände
Konferenz@@
rolling
officer
leichten
ye@@
Wit@@
Diese
Mailand
Aufwand
Abu
tical
Wettbewerber
kri@@
gathered
Tokyo
во@@
profitable
reine
2.1
tie
delayed
zig
Hauptziel
riesige
Av@@
Left
durchgesetzt
Agricultural
landscapes
harte
wenigstens
Entscheidungsträger
nutzbar
auszuüben
Job
nationales
votre
frisch
Humanitarian
kompatibel
Instanz
presentations
1990s
enter@@
cinema
ausgegangen
realized
Ganzes
forestry
reiterate
ignoriert
Hügel
defending
influenced
expresses
gef@@
gia
distributors
intensity
ical
steuer
enforce
Lanzarote
pun@@
nung
Victoria
Dach
ün@@
30.@@
Angeles
mangelnde
ced
Sozialfonds
Dam@@
dependence
1977
betreibt
civilians
transformed
Geschäft@@
Gefängnis
299
lichsten
unterhalten
Rechtsakte
Ein-
gste
unverändert
basierte
Zwangs@@
profiles
22.@@
saal
Satelliten
benötigten
Miguel
abilities
traditionally
saubere
ray
separated
consultative
Unterdrückung
veranstaltet
vorangegangenen
Der@@
Archiv
Premier
ра@@
gewöhnlich
intelligente
ino@@
ots
kriterien
stabilen
belegen
impacts
pillars
Luggage
demnach
ery
Zucker
discovery
axis
Vergnügen
lawyers
vorhin
divide
Eigentums
einzigartig
accused
Tee
weißen
SW@@
Gerichts@@
Merkel
fangen
Stein
Ersatz
Unternehmen@@
geld
atory
hän@@
etwaige
Hill
lingen
kun@@
deutsch
incomes
fairer
hört
deckt
telecoms
gewahrt
tern@@
34@@
cooling
vielfältige
basierend
wünschenswert
networking
charter
Brief
Bevölkerungsgruppen
gezielte
Jackson
PVC
Verzögerung
üben
indigenous
foodstuffs
fruits
vorzu@@
ved
anbietet
limitations
по@@
ALL@@
schutzes
Arbeiter
Phasen
trademarks
Betriebssystem
pipeline
Europäisches
t.@@
minds
fügte
durchsetzen
längst
emphasises
Herstellern
196
ander@@
begeistert
nissen
bien
österreichische
Sil@@
erreichten
pressures
erinnere
interpreted
sto
reinforcing
bedingten
differently
Chancellor
fic@@
spi@@
camp@@
Malmström
mündliche
Substanzen
versicherung
refusal
dogs
prompt
privatisation
politiken
gei@@
75@@
damaging
tube
Walter
Jur@@
soci@@
Ausstellungen
authorized
SP
beat
urged
Word
Hôtel
planung
demnächst
tier
disadvantaged
clothes
completing
Zer@@
Menschen@@
V.
übersetzt
ut
deutlicher
toll
responding
Lomé
Mach@@
Statut
Ad
Verbindungs@@
Alpen@@
routine
Zimmerservice
classified
nte
Wertpapier@@
contest
Privacy
personenbezogenen
score
spiritual
höchstens
MEDIA
begrenzten
Projek@@
geänderten
Ben
List
Wirtschaft@@
Verhütung
classification
Deb@@
handels@@
Light
Kohäsionsfonds
außergewöhnliche
irgendwelche
Einladung
elte
starker
unteren
eux
nationality
socially
Fon@@
Vorbild
Wechsel
Eintritt
Bali
AUF
Berichterstattung
tv
gewiss
onia
daughter
SD
trails
Cou@@
leiter
zuverlässige
Ereignissen
exclude
initiate
überlegen
arme
Stellenwert
ys@@
Bit
Treibhausgasemissionen
Zusammenbruch
zwangsläufig
continually
Mary
Hongkong
Multi
utility
LateRooms.com
secured
seiten
dive
adidas
unfortunate
Strecken
Poker@@
motivated
oring
plate
wholesale
ältesten
koennen
muy
complimentary
zel@@
500@@
marking
gekauft
aga
rational
Dienstes
Korrektur
Einheiten
Sat
Algeria
aly@@
lens
haven
instability
steigende
transparente
gelang
preservation
Temperatur
indirekt
schieben
750
Lido
ans@@
licences
realised
Anreise
eu
Konzern
Angola
struck
cattle
ktionen
Minimum
verabschiedeten
conviction
Den@@
sämtlicher
ere@@
33@@
gefällt
gesucht
Finanziellen
Herberge
Almunia
uner@@
Ty@@
concessions
ete
ар@@
Verkehrsmittel
fein@@
lag@@
technically
Lag@@
ermutigt
illa
ologischen
Euros
ust
Münzen
celebrated
Ukrainian
abhängen
Verhältnisse
estimate
get@@
thirty
resorts
züge
ко@@
té
zuverlässig
Taste
Schwimmbad
Entschließungen
defects
incorrect
verschiedensten
run@@
Key
idealen
aro@@
sinn@@
runden
Kap@@
halb@@
Architekten
Features
bs@@
asiatischen
PC@@
Supervisory
gation
Gepäckraum
Tyrol
fähige
kn@@
seed
optimalen
enthusiasm
abgeschafft
Schi@@
definitions
deleted
dor
streben
Währungen
EST@@
defines
Cab@@
anc@@
besetzt
Tak@@
maintains
sie@@
recruitment
mati@@
tigkeit
intergovernmental
0.000
od
Cultural
Ärzte
profession
wire
Lager@@
File
gaming
zügig
Army
Wiederaufnahme
volles
Miss@@
weitem
reaches
monopoly
Vereinbarkeit
на@@
stones
Sicherstellung
biotechnology
isch@@
idealer
intensiven
Organ@@

missed
förder@@
Tag@@
eff@@
ANGENOMMENE
Quali@@
cease
reproduction
zieren
Übersetzungs@@
berg@@
SI
Van@@
anstreben
Rand@@
dated
antes
younger
Hübner
о
Absichten
ausmachen
Dienstag
eingereichten
Zentralbanken
preserving
Voraus
Temperaturen
arrested
Start@@
waves
Gesundheitsversorgung
Streitkräfte
maker
Junior
geeinigt
Elementen
unterzeichnen
transeuropäischen
och
spezi@@
passive
Criminal
parti@@
Italiens
häufiger
tag@@
verteilung
Luftverkehr
teste
Rö@@
Finanzrahmen
Demokratischen
obstacle
demanded
Material@@
kompletten
Fleisch@@
Excel
Chef
og
zukünftig
allgemeiner
imperative
Colombia
abuses
writer
encounter
safely
chtet
Aktionsprogramm
tungs@@
Neues
partition
dynamischen
tus
Taxi
Blut
tex@@
alive
aussch@@
Heating
alla
1500
organisms
Wo@@
zw@@
UV
gent@@
Justiz@@
Thessaloniki
sweet
matches
continuity
unilateral
Adriatic
Bedrohungen
reich@@
culinary
Leid
esti@@
Kir@@
alternativen
beihilfen
expects
Nepal
Palästina
circuit
bo
inevitably
configure
gesundheits@@
unmittelbare
problemen
Classic
buch@@
illi@@
Solidarity
1974
quo
styles
ë@@
Gelegenheiten
SSL
sightseeing
Forest
limitation
Birma
Tele@@
IGC
container
dien@@
indirectly
Angleichung
t-
getestet
vorge@@
tägliche
Avenue
Friedrich
mehrmals
kill
Shops
Siena
clauses
sos
bedauerlicherweise
washing
habt
ARE
sport@@
stor@@
denk@@
Hotelsafe
Stoffen
getroffenen
Audit
align
Socialists
tiny
inspiration
bestände
kurse
Superior
Kanal
hinter@@
ico
cooperative
21.@@
arch@@
verbundene
murder
Kreuz@@
befreit
otel
RAM
verteilen
tional
bedürfen
süd@@
abteilung
Scientific
CM@@
Formel
Automobil@@
fare
Tief@@
luggage
datum
arbeiter
schulen
trademark
witness
municipal
ett@@
exp@@
Netto@@
niedrige
gemeldet
listened
türkische
öl@@
distinguished
Regulierungs@@
Prestige
viel@@
bears
verbesserten
fenster
kompliziert
Herz@@
sup@@
resistant
Listen
gather
Flächen
founder
Nobel
F.
Foren
Effektivität
Products
hunting
geren
selecting
Reihenfolge
rad@@
MEDA
untersagt
deinen
coalition
Erika
à@@
Afrikas
Algarve
Team@@
Bay@@
Tier
forecasts
emotional
lifestyle
Lim@@
loses
lager
ocean
floods
chances
tten
Fr@@
Rechtsetzung
elemente
DJ
diert
wissenschaftlicher
Fortschritten
vorsichtig
16th
Lodge
zione
Geschäftsbedingungen
Oxford
ffe
G.
Sofia
Bologna
INTERREG
enemy
auszuarbeiten
ski@@
tags
applicants
Picard
breeding
Ther@@
Handlung
locally
Geschenk
zukommt
tierung
sheep
els@@
Ring
competing
EFRE
existed
Sonn@@
alised
ami
installing
anderswo
sichert
yield
Implementierung
Deluxe
Presse@@
nachhaltiger
lec@@
volumen
RES@@
Erbringung
lian
Göteborg
Begriffe
evil
Nachbarschaft
Gelände
meister
delivers
jugoslawische
verehrten
László
arises
Bier
coordinating
boundaries
attach
pass@@
Industriepolitik
TC
methodology
hinzuweisen
Ul@@
Zealand
unanimity
entsprechender
ered
umzu@@
DEM
IL
licensing
firmen
Subsidiaritätsprinzip
ignorieren
tab
DM
killing
Alkohol
Straßenverkehr
vorbereiten
deny
Erfassung
ney
Granada
Geber
Ton
Our
lers
studios
Kathedrale
Whirlpool
Erfolgs@@
geachtet
sent@@
General@@
Harbour
Planet
raschen
initi@@
brutal
Mitgliedsstaaten
Aktions@@
segments
Vertiefung
verschieben
skill
Heim@@
Stellvertretender
FI
langjährige
quarters
sozial
Cl@@
s.com
1960
aufgeführten
thirds
Chr.
frischen
prüfung
Sales
conscious
inevitable
Spuren
Kraft@@
Finanzminister
ę@@
Arzneimitteln
umfassender
schnelles
auseinander
vorausgesetzt
Leben@@
Albert
Dir
rigorous
musik
tly
überschritten
workplace
PA@@
An
engagieren
korrigieren
Palazzo
Tatsachen
leitungen
aids
frist
Erkrankungen
verbleibenden
fragile
zwecken
aufgaben
dioxide
Verein
innovativer
viertel
denkt
Mand@@
Umweltschutz@@
esten
Griechenlands
ises
H.
refurbished
1,000
fähigen
vicinity
worauf
shoes
Ve@@
Grande
Jury
bewegungen
Heiligen
Kno@@
pot
Zusammenhalts
Gut@@
Queen
vic@@
carries
vorrangigen
transatlantischen
verbindlich
Ausfahrt
westliche
exceptionally
Asyl
ERDF
einheiten
Algerien
CAR@@
Comm@@
fundamentally
rein@@
dete
chti@@
endeavour
verliert
geo@@
rice
netzen
Schottland
spo@@
countless
beachtet
genügt
Bran@@
Fun@@
Fort@@
designers
Future
gangs
Sat@@
Potential
Montage
establishments
Fertigung
ausstattung
assen
Variante
Bluetooth
beträchtlichen
amerikanischer
ş@@
lichkeiten
Ele@@
protective
schlage
lifting
APPROVED
Manhattan
ambience
Ausfuhren
bekanntesten
Camp
gesetzliche
verhältnisse
ffs
Radi@@
vergleichbar
weitergegeben
verbindliche
vorne
на
Label
earned
werks
olo
visibility
Ausfuhr@@
sinken
verschoben
äußerte
sum@@
blocked
gefährlicher
discretion
costly
viewing
ologische
loc@@
Kim
й@@
Block
interference
collecting
organising
etes
verbreiten
distinct
ova
eds
Antoine
Mutter@@
ato@@
ausgewählte
oper@@
Vil@@
ро@@
sont
mento
Mittelmeer@@
tracking
Swimmingpool
Kampf@@
intensivieren
Tam@@
recalled
Reichtum
anzusehen
Vor
Wärme
wahr@@
assisted
Denken
Sicherheitsrat
mengen
dis
deciding
hunger
Delta
but@@
ministerial
po
herzlichen
lit
situ@@
chn@@
eingegangenen
fach
Telekom
Leidenschaft
Schließung
fing
e.V.
Friedensprozess
unterstützten
ihrerseits
Question
tunnel
voranzubringen
west@@
Sun@@
som@@
Auseinandersetzung
10,@@
ausgedrückt
ehrgeizigen
angestrebt
netzes
gehenden
Wilhelm
libraries
zus@@
Hen@@
Monats
swi@@
beautifully
Nachteil
commodity
dear
deployed
chtes
igen
EST
neo
Cold
samples
nia
veränderten
Cube
prerequisite
resolving
Parlamenten
Den
enth@@
Dringlichkeit
elektronischer
dent
ration@@
amtierender
system@@
Gesamtheit
beschränkungen
anmelden
Shopping
finanzierten
verursachten
fossil
MIT
excluding
zerstören
zusätzlicher
hide
headed
geschwindigkeit
Feuer
Tony
Schal@@
polnische
villas
Advanced
Lufthansa
Medical
TI@@
outs
Sec@@
Hague
maßgeblich
gerechnet
smoke
Wenn
einsetzt
angle
Drive
issuing
Tipps
Prix
sad
towels
glichkeit
reasonably
Betrugsbekämpfung
EUROSTAT
vacuum
Lizenzen
interoperability
Peking
zuzu@@
Kriterium
endi@@
territorialen
boom
reactions
Insel@@
GL@@
boden
colonial
echter
Of
baus
modifications
chef
entfallen
warranty
anrufen
ry@@
luxuriöse
evaluated
ausgestatteten
Marbella
elimination
wed
orten
Boot@@
screening
einbringen
stück
terror
mounted
divisions
volumes
kraft@@
rechtlicher
URBAN
hôtel
Komplettpreise
exploited
Gate
dur@@
Medium
gericht
Steel
Dé@@
transparenter
rarely
marriage
grass
bestehender
Sorgfalt
Regen@@
Ausgangs@@
aks
runde
updating
berufen
pull
albeit
licht
hofft
Outlook
Befehl
Gy@@
Wohlbefinden
Store
etta
spell
Christ
Pedro
Buchungs@@
Gemeinschaftsrechts
Überwindung
Canadian
alpine
bat
Leone
bung
DEBATED
geteilt
teln
perceived
Auftraggeber
relevance
Biotechnologie
strukturelle
preference
normen
Chat
improves
formerly
Mount
noticed
abschließen
Banking
Children
realistisch
capita
Nachfolger
entworfen
Sozialdemokraten
Für
Lab@@
minim@@
strengere
Aufklärung
anerkannten
placement
opponents
Zugangs@@
gewachsen
doc
bestellt
sums
optimieren
Aussch@@
Laden
Artikeln
grenze
grid
17th
Fußball
Verpackung
featured
Sum@@
Ai@@
Eurex
grundlegend
query
éri@@
ined
0,000
shock
faktor
ute
Credit
collections
EUROPÄISCHEN
verträge
geschützten
irgendeiner
dynamische
Buffet
Berichterstattern
DVDs
bindet
auff@@
Rechnungs@@
Channel
dateien
dari
festivals
Burundi
nes
wissenschaftlich
hes
Störungen
benachteiligten
Freien
Hunger
promenade
ici@@
Kri@@
brother
sitz
weichen
Signale
pit@@
dere
Demokratisierung
Speicher
Versand
erhebt
107
EURO
Grafiken
erhielten
Nordirland
cked
mos
CF@@
sends
width
Hindernis
trials
Wider@@
ausgeweitet
.The
Geldpolitik
freiwillige
liquidity
½
burdens
Loch
counts
ordnungsgemäße
gelöscht
Ungleichheit
atten@@
Mobilfunk@@
detention
lend
Anmerkung
Fragestunde
beg@@
kr@@
Ny@@
ausgestellt
Ambassador
mutually
Nuklear@@
dust
hinzu@@
erfassen
criminals
plugin
climbing
Erdbeben
Pel@@
onn@@
Kopie
Chechnya
104
ausreichen
gru@@
Norm
Note
ries
mailing
EIN@@
Seeverkehr
ér@@
finishing
Mechanism
prevents
Dimas
barrier
AFFAIRS
15th
Komplexität
tram
Brenn@@
gesetzlich
berührt
Beibehaltung
modification
vielfach
hing
Bl@@
religiöse
weapon
stroll
ausgeübt
geschlagen
boy
Navigation
Adam
Beruf@@
überarbeitet
Entertainment
mobilen
glücklich
beobachtet
Voyager
Gest@@
Go
Musi@@
repression
Kommentar
inviting
fabric
za@@
doppelt
WiFi
groß@@
spec@@
fulfilling
Ex
ics
Schluß
konkreter
Stefan
morgens
gründlich
settle
festgehalten
Regulierungsbehörden
Rhine
6th
befürworte
Pop@@
Bestandteile
Anne
shooting
temporarily
overnight
multinational
excise
stätte
allowances
infolgedessen
abzulehnen
1.3
europaweit
verification
stic
außergewöhnlichen
subscription
contracting
Seminar
earthquake
stoppen
stimulus
gültigen
Todes@@
.com.
Seiten@@
Sky@@
Ungleichgewichte
Lebensbedingungen
Henry
Ausbruch
filters
buyer
finnischen
exquisite
subsidiaries
bedeutendsten
geltende
Gener@@
Eintrag
Shuttle
stating
interfaces
Umweltpolitik
bilder
Obergrenze
freiwillig
Fischereiabkommen
metals
Guatemala
beschloss
breit@@
Europa@@
übrig
wandern
drehen
besticht
lic
Gei@@
upgrading
tolle
Ratstagung
teach
purchases
alem
multiannual
traders
Stadtteil
gehörte
kunst
.eu
ace
Beschwerde
racing
Segel@@
fran@@
Einsparungen
Busse
Wand@@
cha
draws
palace
versehenen
Griff
gestützt
mittelfristig
ils
cr@@
Geltungsbereich
tremendous
Engine
speaks
Rohstoffe
visi@@
parlamentarische
Zeitraums
SPA
Persönlichkeiten
Facility
Plugin
automatischen
elite
vorsehen
recalls
Juden
Transpor@@
energies
rac@@
Warsaw
ranges
Maßstab
Orientierung
scenes
opp@@
bruch
Büro@@
546
bekämpft
Schwächen
39@@
Materials
fünfzehn
problematisch
begreifen
Szene
billigen
rufe
malerischen
Zwischenzeit
Tennis
Jack
Nutzern
damaligen
Umwelt-
Zellen
Muslims
Ster@@
Beitrittsländern
Technologie@@
erschienen
Es@@
bestanden
bek@@
potenzielle
Recommendation
reveal
umfaßt
incidents
reader
direkter
gemachten
Syrian
Interventionen
Neuigkeiten
Streitigkeiten
tende
perception
emergence
Verona
Cri@@
Übereinkunft
Sem@@
Rechnungshofs
eingehend
vineyards
Hom@@
resumed
Building
beheben
abstained
Lieferungen
Pakt
bedauern
tät
netz@@
statutory
vent@@
Innern
Heiz@@
Kernenergie
schriftlichen
stock@@
incident
Nachteile
verfasst
ssen@@
dende
noisy
pride
Netzwerke
Cav@@
zugenommen
Age
eo
gewann
Konvents
verlust
geführte
Ausdehnung
0.5
berühmt
reflecting
Dich
timing
gezahlt
HO@@
Aufsichts@@
ELL@@
alien
fühlt
exceeded
conducting
ami@@
klausel
Kallas
zuversichtlich
güter
meaningful
Assoziierungsabkommen
Days
Zentrums
Diversifizierung
Kindes
frische
hospitals
qualities
menus
Plattformen
Railway
pointing
Elite
Rein@@
Zubehör
werk@@
processor
Fahrplan
vertiefen
BU@@
Beobachtung
woods
eliminating
stabil
Gleichheit
orange
aufkommen
complied
fa
büro
Treiber
luck
studying
Representatives
ater@@
ien
book@@
tiere
individu@@
Flo@@
uss
UPS
red@@
tuna
risiko
erhöhte
incoming
Kolumbien
lob@@
disp@@
globe
Rat@@
aufrechtzuerhalten
296
listing
überschreiten
harten
ball@@
warmen
FA@@
licensed
Beamte
Aviation
threatening
Folge@@
comforts
Fokus
höherer
befreien
Bab@@
142
www.eib.org
conditional
beliebten
meint
prejudice
supporters
sincerely
ham@@
dreams
setzten
lim@@
Bewerberländer
ander
Modalitäten
demzufolge
dahingehend
Stimmung
einrichten
unified
Edel@@
Zinssätze
Gesam@@
pdf
Heimat@@
sensitivity
kilometers
activate
fed
Petersburg
bauten
qualification
Mauer
Nationalpark
seaside
chtigen
Wurzeln
mitzuteilen
Verpackungs@@
wertvollen
Früchte
Franco
eth
Sicherheitsrates
ratify
Gefangenen
feelings
Afghan
EE
Aufstockung
kap@@
Mugabe
wunderbare
eventuelle
Literatur
erender
Folter
dramatically
cing
hell
Logistik
beweist
ul
ION@@
broadcast
nachzudenken
Dek@@
sexuelle
tournament
A1
Beschleunigung
dienst@@
wiederherzustellen
await
interessierten
crop
cop@@
Organismen
änge
livestock
vorschlag
KO@@
Spaniens
precautionary
Autonomie
deterioration
.-
vorschläge
weiterentwickelt
überwachung
Integrations@@
therapie
af
Einfuhr@@
Zeitungen
Einfluß
anim@@
schöner
ig
Tei@@
competitions
glücklicherweise
fertigen
werken
einbeziehen
Gastfreundschaft
stei@@
lungs@@
Kommissars
zonen
Berlusconi
wedding
tile
AF
voices
chip
ATE
dig@@
iten
detected
abzugeben
highway
thy
deck@@
ord
bond
bedingte
cat
salon
musicians
Bavaria
Inn@@
hon@@
Handelsbeziehungen
aufweist
GO
our@@
ju
steuerung
erkennbar
Baroness
Dep@@
jan@@
zeitlich
Begleitung
nd
zweites
angeführt
Gru@@
ceilings
aufgezeigt
compensate
Christen
symbolic
plates
attitudes
fin
Trans
advised
Texas
tonight
niederländische
adi
panorama
ands
thereof
tu
Politikbereiche
Uganda
Beitritts
gio
schwarzen
detect
rücken
joy
profitiert
gischen
dd@@
somewhere
verhandelt
Theatre
Stufen
Exporte
diplomatischen
Halbjahr
lü@@
unweit
mixture
Interoperabilität
Benjamin
Landschaften
landing
lichste
Singapur
statute
elegance
generic
95@@
verhängt
і
Гј@@
pine
Dubai
kreis
Oracle
packed
Prä@@
Spam
openly
Bundesminister
Sammel@@
printer
upload
dengan
arbeit@@
Beitrittskandidaten
Giovanni
Scottish
vorschlägt
distribute
Ungleichheiten
subjected
Rotterdam
Carl
Konzepts
Schlaf@@
wick@@
bewährte
Print
Zertifizierung
kas
besagt
statistischen
bikes
breaks
arena
silent
Unregelmäßigkeiten
Golfplatz
Regulations
Canal
gehalt
aging
kopieren
MI@@
Leon
desselben
democracies
endless
Erdgas@@
demselben
zi
gambling
zweier
hosted
reservieren
Button
islamischen
trail
menten
Converter
stag
Toleranz
basierten
PR
chens
simpler
Wor@@
1969
1950
ungsphase
Mühe
verkehrs
Kin@@
ome
austerity
Spanisch
burger
termination
Provider
ungsh@@
mild
ICE
attempted
Demokratien
hinterlassen
spezifischer
Vorwand
Jews
spam
stätigkeit
UNGEN
gtes
sw@@
charging
besichtigen
enne
verschwinden
Bestell@@
gefühl
lock@@
Echtzeit
offences
batteries
dictatorship
themen
Sä@@
additives
verlängern
fies
Mountains
cian
Goals
schlug
großartige
fostering
wind@@
agi@@
Schengener
gos
bone
spieler
gaining
Italia
mache
zugesagt
couples
niedrigeren
zung
persönlicher
attraktive
sciences
identifizieren
graphical
Bestrebungen
199@@
INI
laundering
quest
Gerichts
Sortiment
withdrawn
zwecke
insight
unvergesslichen
stärkt
entscheidung
LateRooms
haftet
mg
54@@
wesens
fahrzeuge
Befreiung
hotel@@
cru@@
kultureller
Info@@
Arbeitszeit
fung
cultivation
5000
Vorbehalte
sach@@
ferry
Angehörigen
Smart
itäts@@
tries
Einblick
entwurf
Pass@@
Young
Plug
eria
beurteilt
0,5
bürger@@
orte
Präsidium
diesjährigen
Brun@@
Schritten
institute
fore@@
maßnahme
pursuit
Potočnik
Projektes
requesting
council
Kompromisse
sätze
Volkswirtschaft
erholen
tailor
DS@@
Sahara
alleged
Cancún
Ganzen
dossier
Geschichten
Nachweis
Garda
Konzert
tures
sender
robots
toys
Kun@@
Gesetzen
faktoren
Laser@@
Verk@@
outlook
â
horses
distant
175
swiftly
Rettungs@@
Ž@@
Bangkok
Aluminium
accessed
nahen
corporations
Call
schn@@
Pilot@@
erschien
nette
cereals
Schl@@
Platform
Meer@@
tively
Base
späten
beliebt
veterinary
Freihandelsabkommen
Barrot
informellen
ard@@
craft
Merger
Internetseiten
chter@@
Buchstabe
lischen
befindlichen
replacing
bert
ester
Masse
fehler
recipient
jan
glicher
ständiger
widerspiegeln
Tschetschenien
poses
Massnahmen
Split
Fla@@
Charlie
Territorium
positives
sadly
biofuels
convincing
Co.
feasible
ash@@
sses
vorrangige
wunder@@
passenden
insert
Gutachten
1980s
veranstaltungen
verhältnis
Montreal
til@@
ARD
punkten
irregularities
Gemein@@
hervorzuheben
judiciary
Nazi
aten@@
Monaco
decoration
Multimedia
sicht
hrt
gh
diger
Hollywood
esch@@
06@@
ota
geladen
frag@@
boys
rated
Räumen
arian
lev@@
stetig
wasn
Meinungsäußerung
Dörfer
famili@@
seller
encountered
streichen
unterzogen
Reg@@
gestrichen
responded
dest@@
Deep
still@@
ms@@
ares
Passagiere
outline
Geburt
3,5
herunter
GATT
Benutzern
Rimini
quasi
Innsbruck
AUS@@
Überschwemmungen
Bandbreite
admitted
Haar@@
gathering
Mozilla
beratende
zusammengefasst
Chaos
eil
kreative
schwach
enjoyable
beläuft
tief@@
Rab@@
Termine
atischen
nnen
Bangemann
Länder@@
10.000
aktiver
Bin@@
æ@@
Spirit
Feuer@@
Carlo
más
Lösungs@@
agieren
englische
unlängst
gehende
projected
ula
55@@
Boutique
Balance
defeat
ose
Ausgaben@@
Song
oberste
Manchester
symbols
Künstlern
attraction
Wunder
transported
Legislativ@@
derartiger
zar@@
KG
aufgeteilt
Camp@@
Vertrauens
Vorjahr
break@@
Mitglieds@@
shed
Kit@@
Gemeinschaft@@
provisional
Ball@@
io
swift
capitalism
aktivitäten
Erwachsenen
Einsetzung
fir@@
Interview
Holy
Akzeptanz
7th
Anbau
bemerken
CPU
Komm@@
Stat@@
Croatian
Fuss
Mitgliedstaates
TM
tre
Konsumenten
Gedankenaustausch
tiefen
satzes
hinausgehen
Pascal
incurred
conc@@
Verknüpfung
C5
uring
adapting
ffen
bicycle
flora
num@@
Fusionskontrollverordnung
restoring
unterrichten
folgte
irgendwann
teure
instant
organs
Stränden
Songs
Haushaltsmittel
2.4
festhalten
mount
materi@@
vernünftigen
Watson
Stern
bru@@
ae
wahrgenommen
verhandlungen
layers
ures
Tour@@
Romano
Dur@@
gelegentlich
pin
wür@@
decides
Instabilität
motor@@
coach
anhaltende
pped
ICA
Verschmutzung
Package
scho@@
Camping
Wetter@@
Wettbewerbsverzerrungen
täten
Nationalen
overwhelming
Festung
massiven
platten
sozusagen
berechtigten
Fertigungs@@
muster
wished
Rindfleisch
Kühl@@
enshrined
teilung
Assessment
Kleidung
Play
angemeldet
bewährten
giant
Zauber@@
ESS@@
indicator
AV
ideological
Real@@
chtige
Horn
Child
Ermittlungen
Sli@@
Accession
löst
IR
appointments
Aufnahme@@
Weihnachts@@
ergab
Ernährungs@@
belaufen
Works
modular
ey@@
sser
1971
α@@
ße
legislativen
geografischen
legacy
DB
adjacent
VIII
Controller
BAR@@
jury
Kanäle
touristischen
origins
Acht
Ari@@
ists
legi@@
nom@@
execute
102
tter
newest
customized
roll@@
excuse
Klärung
Roten
schneiden
analy@@
Rahmenrichtlinie
Infos
NOT
thematic
ony
concluding
nearest
frontier
o.@@
HI
toxic
angegangen
originating
qm
thi@@
kräfte
gkeiten
bedeutender
Bern
gegen@@
teri@@
persistent
Magic
Kohle
geschäfte
zogen
einleiten
chung
operativen
stil
103
Kohäsion
begeben
anfangen
EIT
beliebtesten
Ansatzes
Elektronik
chts@@
anz@@
Rental
Bit@@
teur
portion
protests
Ersatz@@
pets
APS
fs@@
gefangen
energie@@
seas
Solar@@
Völkern
attempting
Schutzmaßnahmen
Information@@
I.@@
May@@
ix
1.4
spreading
Good
down@@
Messe@@
Organ
Porsche
blocking
Pon@@
Produktion@@
lac@@
Patri@@
boosting
polis
transform
führ@@
Tochtergesellschaft
Luftfahrtunternehmen
surgery
kontinuierliche
disparities
hairdryer
sson
Gesundheits-
1972
Seattle
Maison
protects
euer
Kodex
sincere
injury
posting
anen
ausgedehnt
becken
ETS
herself
fastest
Il
retained
ßt
accompany
Canaria
anwendungen
Unterricht
prohibition
Harry
wholly
Christians
Schulung
Hoffnungen
publi@@
herrschen
günstiger
Zeitalter
Canary
mile
tically
Guests
pushed
mäßigen
erei
eve
CIA
ador
omen
passport
outermost
worried
kurzfristige
Anlage@@
stufe
kompetenz
geschenkt
Konzerte
Mitteilungen
105
endem
Vorredner
abgedeckt
builds
Vorgang
moralische
Kühlschrank
age@@
koordinierte
holes
wirtschaftspolitischen
Pakets
Lichte
schien
Werken
schiffe
schwarz
Klick
booth
Beauty
durchschnittlichen
Ministerpräsidenten
queries
Verkehrs
strikes
stands@@
nya
spa@@
Vermögen
Applikationen
nutrition
Betrieben
anscheinend
rid
tar
Andris
antiken
Terrorismusbekämpfung
Banken@@
kunden
unternimmt
landschaft
disagree
Vorstand
immunity
flü@@
Soft
downloads
OG@@
aufhalten
traf
Getreide
Sü@@
25.@@
Assistance
guiding
Erziehung
versorgen
ambi@@
sympathy
SN@@
Tit@@
Mali
legendary
portable
Fan
flexiblen
dorthin
static
municipality
iranischen
Gleich@@
я
übermäßigen
healing
ERS
Trading
settlements
Sie@@
ean
punishment
ре@@
pedestrian
Standorten
NE@@
Lama
Feu@@
hielten
DV@@
innocent
Kä@@
Radio@@
messe
behold
Freizeit
accommodations
unterstützte
Statement
Aut@@
78@@
cup
makroökonomischen
Ethernet
Teils
zögern
bisherige
dliche
FIN@@
Florida
mung
bewundern
produkt
Memory
anhaltenden
Rica
bekam
herkömmlichen
strecken
Fundament
eingeben
chips
Höhepunkt
cont@@
chart
ел@@
prof@@
Ministerial
Pay
mäßig
1040
positively
strategischer
vegetable
Lyon
theoretical
Javier
problematic
stricter
wan
88@@
115
chem
abandon

lieb@@
Was
fragt
anticipated
veränderte
boarding
CA@@
Police
personality
nous
burning
Week
cap
leu@@
99@@
Blu@@
compromises
nächstes
varies
itali@@
comfortably
Lauf
aring
Fracht@@
submission
wirtschafts@@
universe
schrift
leistungs@@
proves
Sav@@
Erste
nik
zza
Everest
Gesch@@
ano@@
beides
SOL@@
Zy@@
RT@@
Ratspräsidenten
mont
cho
FT@@
probieren
Reisenden
lik@@
vibrant
guitar
komponenten
Rate
tum@@
Versand@@
Mé@@
Dafürhalten
embargo
dou@@
Portfolio
indischen
Grenzwerte
enforced
ht
ökonomische
japanische
korrigiert
kommunistischen
Beschäftigungspolitik
bemerkt
Versicherung
Gesetzgebungs@@
Preises
power@@
bahnen
Besteller
Inc.
ð@@
Sanierung
stufen
viertens
angenommene
furnishings
zukunfts@@
Jet
ι@@
Gl@@
overseas
wettbewerbs@@
eingestuft
Unterstützungs@@
Fle@@
shorter
mur@@
Europäischer
Erfordernisse
Klausel
gues
Christdemokraten
breiter
Personals
deliveries
stechnik
Zutaten
invoice
attaches
Möbel
pic@@
modelle
Behinderung
judgement
ausgerüstet
Kontinents
stimulating
bestrebt
12,@@
Schulungen
zugreifen
bereitschaft
Orts@@
patch
Streit@@
gangs@@
anzuerkennen
Mittagessen
Nordkorea
chamber
bedien@@
auen
Interessengruppen
Umstand
accountable
00352
Simon
surveys
terraces
Dol@@
intuitive
ausgeben
Dom
Kunststoff@@
Schlacht@@
distinguish
roman@@
hr
Belastungen
rear
dropped
wanting
fishery
ava
brenn@@
readiness
ellem
tout
ausbildung
Aufschwung
Liber@@
Marketing@@
Intensivierung
altogether
Ale@@
sle@@
UNG@@
illegaler
120@@
ail
lement
Mah@@
blieben
debts
Lar@@
Off@@
48@@
ih@@
llen
Spe@@
underway
Photo@@
bulk
2.3
psychological
Messenger
asse
tter@@
ances
ão
ik@@
Workshop
freiwilligen
240
Ze@@
baggage
tackled
Geh@@
tig@@
diagnosis
gliche
wie@@
bili@@
McCreevy
Med@@
Ce@@
inequalities
varying
mers
mines
protein
ners
Hunderte
potenzial
subsidy
merged
Asi@@
loud
belastet
Lesen
offener
но@@
gon@@
strom
Gremium
Lande
play@@
Spielern
tat@@
Doppelbett
economists
diversification
Jahr@@
bett
anspruchsvolle
dealers
shi@@
gesendet
Auftrags@@
beneficiary
variables
moon
Motoren
manipulation
distortion
VA
gesetz@@
richtung
chts
Kalender
ALL
geschlossene
exemptions
chapters
Cho@@
lifts
AA
tendency
decor
Besetzung
human@@
artikel
tanks
Entdeckung
vorübergehend
Bern@@
erbracht
documented
expan@@
simplifying
mot@@
änderungen
bestehend
pushing
revolutionary
Dro@@
mischen
pos
contamination
beträchtlich
hinzuzufügen
er-
tank
Wohl@@
witnessed
modus
möglicher
distinctive
nachgewiesen
cz@@
anz
Beta
tliche
Part
automobile
viability
abgerufen
Seminare
MIDI
Ständiger
markiert
Behandlungen
Eleganz
margins
Sto@@
glob@@
Stro@@
Jahrhunderte
agen
illness
eggs
27.@@
schlimmsten
Trau@@
admire
internally
blick
datei
Wol@@
selector
vorgelegte
varieties
NGO
herbeizuführen
Contact
atten
unofficial
Bed@@
readers
exercises
Posten
ordering
retention
eil@@
Autorität
recognising
Servic@@
nets
transparenten
emphasize
wiesen
Basic
amtierende
Kurs@@
preferential
Flughafen@@
versprochen
schau@@
smallest
amtierenden
sixth
Sho@@
restlichen
opera
targeting
Auslands@@
origin@@
Olympischen
Bis@@
thinks
utz@@
painted
Est@@
disastrous
1.000
bedient
wi
Diktatur
häufigsten
Kabel@@
Ära
E.ON
County
Bul@@
Tabellen
summ@@
Cruz
halben
setz@@
Hum@@
ktion@@
CN@@
pol
onwards
Begeisterung
sien
terrain
Atlantik
delle
impede
earnings
yr@@
erzählt
Ky@@
OM
diet
Zollunion
Wissens
oils
eliminated
handelte
Kle@@
ähnlicher
Betrieb@@
Rhein
financially
geschmackvoll
3.1
Auszeichnung
kommunizieren
Angeboten
beziehungen
literally
Dritt@@
lle
ungarische
Turin
Reichweite
Reden
Renten
Überleben
tagen
galt
favoured
elli@@
historisch
án@@
Wärme@@
х
schwachen
Leiden
kem@@
chains
Patente
flood
blockiert
reiterates
unabhängiger
verläuft
shortage
eingesetzten
Prüfungs@@
designing
communist
amb@@
Urteils
erfahrenen
beglückwünsche
verwendete
ranking
derogation
zia
paint
sische
teilte
Troika
Punta
Flüchtlings@@
vente
verweigert
Buchstaben
müßten
pflegen
Wohlergehen
MB@@
Christ@@
bets
Problem@@
schläge
Modellen
portugiesische
sou@@
STR@@
renovierte
occupational
regierung
german
vent
Strafe
EURO@@
ц@@
warrant
herunter@@
TEN@@
Unix
Tabak
plätzen
Meister
С@@
abhängt
Löhne
Schu@@
Oliver
priced
zugewiesen
fertigung
Resultat
Gegenden
Unions@@
aufrecht
Fremd@@
geringeren
Rollen
experimental
Stars
mess@@
Transaktion
versorgt
sustain
ING@@
ungsplan
Festivals
wirkung
valued
one@@
forwarded
MP
Hochschule
audiovisuellen
confronted
Szenario
Gestalt
ströme
ades
Verband
kommission
Gepäck
renovation
boutique
Collection
Alpes
verdanken
ý
Janez
très
Dr
Salz@@
fluss
Summer
Appell
weakness
Zagreb
Messung
hyper@@
Paradies
Ausschüssen
dissemination
kes@@
Verkehr@@
popularity
zierten
GI@@
Lagerung
attraktiven
surfaces
geared
YORK
Auskunft
Partei@@
Tanz@@
instances
directors
Geschäftsführer
hearts
enters
Vorkehrungen
EDF
stadium
PP
keyboard
Weitergabe
Kontinuität
OU@@
Jordanien
feeding
demonstrations
Malware
traceability
p.@@
abolished
grain
tied
reveals
Ersuchen
cour@@
fern@@
С
rischen
adopts
1.0
Commander
widerspiegelt
lieferungen
niveaus
Bayern
Lav@@
у
WITH
schul@@
frames
Mandelson
besserer
Deine
rus
Lust
Musiker
retailers
UP@@
strand
virtuellen
Ramblas
chers
utes
Germans
Up@@
gemütlich
dachte
gebung
tent@@
Unfälle
reformed
vorläufigen
trag@@
fizierung
Vier@@
vertrieben
remuneration
Donau
BM@@
Richtigkeit
successes
Schlussfolgerung
Blizzard
Os@@
modernsten
fold
Photo
int@@
650
Kooperationsabkommen
bestraft
Campingplatz
resume
integr@@
einräumen
beeindruckende
mehrjährigen
Bad@@
Anleihen
uk
frontiers
Vegas
Rücken
reali@@
Milliarde
developer
bewahrt
CP@@
municipalities
retro@@
Var@@
Freilassung
bearbeitung
starb
т
intensify
klein@@
Comp@@
Pflanzen@@
Kul@@
lier
stabilisation
Bruder
deter
disch
PCI
brilliant
hl
Erkenntnis
Aufenthalts@@
bly
Salvador
angen
sonstiges
Interpretation
Jahresende
Akademie
paragraphs
unverzichtbar
Lit@@
Nutzungs@@
vel
compiled
Kameras
mail@@
scheinbar
Aufstieg
Entschließungsanträge
Auswirkung
Eurocopter
correspond
Johann
Dienstleister
vorwiegend
Katastrophen@@
belgische
painful
Athen
Bewertungs@@
scht
sofortige
gische
Terror
buttons
aufhören
diversen
part@@
hinein
Sydney
uro@@
acks
rechnung
Swoboda
Nachbarländern
Visual
Führ@@
Creative
Ausstellungs@@
schuldig
Red@@
kirche
festgesetzt
Mehrwertsteuer@@
sequence
yn
billi@@
anbieter
Hintergrund@@
atur@@
Null
clarified
geräumige
outer
slight
drag
Einkaufs@@
stran@@
pers
ни@@
ais
cabin
Publikationen
ausreichenden
Ansprüchen
wisdom
wirtschaftliches
harmonise
conf@@
severely
ession
Unfall
10,000
peer
230
acid
Application
unchanged
unzählige
ständen
rt
pupils
Vernetzung
altitude
Exhibition
römischen
Vorsicht
Vermögenswerte
optimiert
Josef
Gesundheitsschutz
Migrations@@
Dal@@
gelt
Schne@@
gratuliere
pada
BG
snacks
protectionism
Cash
ada@@
Handelspartner
zusammengestellt
Konzeption
nett
benachrichtigt
congratulating
Bemühen
democratically
vertrauens@@
Therapie
Installations@@
gor@@
versuche
Ersten
Entscheidungsfindung
zurückkommen
Institutions
Vari@@
Marc
ward
disappear
MEP
fitting
stainless
fet@@
Zielvorgaben
то@@
Zeile
Einzelpersonen
conservative
Gedanke
untergebracht
gefahren
Tajani
Staff
IMO
verlaufen
PRO
gedenkt
Use
memories
seeds
News@@
Photoshop
GEN@@
cream
probe
erschwert
Arbeitnehmer@@
employ
EOS
disadvantage
reiterated
tigem
bottle
Rü@@
überdenken
CFP
Malaria
dal@@
FTP
Dauer@@
episode
burn
definierten
israelische
chtungen
Wechsel@@
strongest
Absatz@@
wettbewerbsfähig
Fischbestände
deutlichen
ansprüche
Bike
orientieren
Aus-
halb
High@@
diff@@
ña
не@@
serial
Richtlinienvorschlag
Yo@@
schein@@
termin@@
physi@@
urlaub
roten
Zölle
acute
Rechtsvorschrift
Fluggäste
Egyptian
Androulla
nachfolgenden
Secretariat
nightlife
dryer
Ali
dieren
Mont@@
banana
kon
grey
alis
administrativen
viruses
aka
Eindämmung
Aff@@
multilaterale
YouTube
höhe
isse
Arabia
Labor
threaten
Mot@@
Kloster
Gesetzgeber
diplomacy
freundlicher
Modell@@
ases
gesetzes
attending
bugs
Love
shut
Lissabonner
loads
2017
scripts
lehnt
liberalization
Erwägungen
kapazitäten
obliegt
fache
möge
Vorteilen
ów
aspirations
wuchs
Fische
kurzfristigen
Nahrungsmitteln
Mayor
26.@@
audi@@
relevante
misleading
rad
Dossier
Bla@@
Prince
locked
risen
schnitt
ller
würdig
Vermögens@@
sleeping
schwer@@
visu@@
tec
inde@@
Humanressourcen
formulieren
ample
reform@@
galleries
aufrufen
Bugtraq
Wachstum@@
SEO
Rau@@
,5
Extra@@
soli@@
Anhebung
Volumen
Viren
veranlassen
Miß@@
Pressemitteilungen
zentrales
birgt
Erweiterungen
unden
Catholic
allgemeinem
Flynn
zier@@
ssa
isti@@
ow@@
intimate
harder
Dialogue
wär@@
eten
jenseits
Endes
atische
Downloads
Last@@
cla@@
Pfeiler
Solarium
educated
slide
terminals
accomplished
vulnerability
seither
oms
Hilton
sü@@
Bio
Hai@@
verwandeln
Ant@@
Klassen
favor
ENP
Handhabung
ille
gast@@
closest
vorgeschrieben
üblicherweise
vern@@
Rehn
förmlich
exported
Core
ggf.
Zivilisation
nuklearen
inv@@
eiten
attracted
istischer
sicher@@
Genauigkeit
Bestand
Nicolas
Grundsatzes
Abend@@
bold
UEN
noble
ThyssenKrupp
guilty
Mira@@
sorts
esp@@
mid@@
geeigneter
disability
configured
28.@@
einzeln
FER@@
reihe
refund
density
gne
wahl@@
Anbietern
understandable
Guarantee
Krebs
pet
Supreme
280
worlds
Räumlichkeiten
kla@@
Gewähr
destabili@@
Entwicklungsziele
gewaltige
Welle
ANG@@
Prognosen
chaired
Petitions
1958
Georgieva
Funk@@
Pfad
einkommen
1.6
erwarte
außer@@
Add
108
Programmes
personenbezogener
tauchen
Linken
Anschluß
Aktiv@@
bun@@
Finanzielle
Sciences
economical
Bevölkerungs@@
heits@@
voltage
Mandats
radioactive
nord@@
3.2
halt@@
Strategic
analog
formular
gra
versichert
Gesichtspunkt
measurements
dish
pesticides
wachen
quoted
positiver
Pir@@
auferlegt
breakdown
beherbergt
öffentliches
Abfällen
akti@@
geräumigen
identifies
Alters@@
Norwegian
Errungenschaften
anstehenden
positionen
solle
abzustimmen
lying
Fülle
suspected
cathedral
Ros@@
namentlich
Lücken
~
ml
zieh@@
submitting
SO
Früh@@
trinken
RS
gemeint
bekämpfung
magazines
Cape
poorer
PayPal
lauten
richt@@
injection
comprising
Hat
lem
begab
betreut
II.
Netzen
Stephen
M.@@
Konkurrenten
matching
Kenn@@
holz
entre
Ball
Theater@@
fixing
juristischen
Lee
journalist
Ferienhaus
shell
ous@@
angaben
singer
ausgeliefert
writers
hob
WM
irgendeine
ż@@
Jacuzzi
auswahl
56@@
tasty
Abfall
Gau@@
versprechen
rows
odi@@
erinnen
naher
uter
simulation
Wireless
konto
FuE
esa
erstklassige
Diskussions@@
Reisende
irgendwie
terrasse
jazz
GFP
praise
Liberia
Andor
alternatively
beizubehalten
einheimischen
rief
smo@@
Anzeigen
couldn
natürlicher
Veranstaltungs@@
unglaublich
Militär
kir@@
herausragende
pragmatic
intent
Free@@
tert
Tür@@
institution@@
incomplete
palästinensische
Auswahl@@
trigger
ked
MHz
reicher
sko
CMS
brachten
Sender
aufgegriffen
som
DER@@
10.00
mus@@
Freie
Geldbußen
10th
linen
Depression
regulating
grund@@
Spiegel
NE
befürchten
Vorsch@@
Immunität
signatures
administrator
sat
promotional
steady
treating
ECH@@
hochrangigen
flower
tner
corresponds
früh@@
Erforschung
Geldwäsche
mäßige
drew
baths
handels
experiments
Band@@
ranks
atively
gerichteten
failures
Auswärtigen
schwerwiegende
Zo@@
alisierungs@@
aling
Brief@@
billions
resi@@
beschlossenen
tte
inos
Reparatur
Run@@
Auf
frozen
voor
policymakers
judgments
exzellente
Geheim@@
fabulous
phases
dian
Dienstleistungsrichtlinie
minibar
Hahn
gründet
suits
wiederhole
entziehen
crash
trä@@
mood
english
ode
europ@@
Bibliotheken
tico
employer
Serbian
Fall@@
dimensional
heruntergeladen
Liga
tro
zio
Nah@@
Ernährungssicherheit
Wasch@@
erh@@
Befürchtungen
besuchte
Marx
Bürgerrechte
Häusern
irgendwo
benachbarten
HOTEL
Resources
Roth
outbreak
Durchbruch
topical
Redezeit
lio
ultra@@
Sou@@
ular
schlicht
commands
Pun@@
Wettbewerbsregeln
possession
L.
ause
tissue
coastline
klarstellen
attraktiv
territoriale
deposits
exotic
standardisation
Urban
eben@@
soviel
inappropriate
wählt
Genugtuung
Kreatur
Kürzungen
LabVIEW
titles
eingehenden
explo@@
pläne
reward
Politikern
Ten@@
chtig
Zivilbevölkerung
eva
Warnung
gekürzt
Erweiterungs@@
Gender
Kapitalismus
Delors
gesetze
Wolf
NH
Scott
Kürzung
chem@@
nutz@@
vin
Verbündeten
holdings
Einreichung
Genfer
ds@@
diente
wunderbaren
Finanzhilfe
komplizierten
Malaga
cin@@
ref@@
ò
tigt
reaffirms
Maus
psycho@@
Wachstumspakt
Zustellbetten
steten
Anleitung
appelliert
evi@@
Cel@@
Points
Recycling
Medina
timber
random
lla
Layout
aro
mé@@
Rep@@
öl
Etage
modi@@
Deckung
Grundzüge
beunruhigt
Ass@@
Mitentscheidung
Pes@@
BAE
Gebäudes
zurückgegangen
Phot@@
II@@
Botschaften
plot
courtyard
omm@@
motivation
2.6
Championship
ernsten
catches
bir@@
Fur@@
EK
Arctic
HER@@
mul@@
prin@@
tidak
Castro
café
Günter
Studierenden
Political
render
135
Höhen@@
NET
fehl@@
Ausgewogenheit
об@@
Stor@@
.NET
häusern
drucken
With
Import
ā@@
Palast
sul@@
Erläuterungen
Gab@@
linear
Next
shaping
virtuelle
Österreichs
übernahm
kunden@@
invasion
Seville
Konsum
HTTP
Polo
neuro@@
Bestreben
lte
Conclusions
assumption
vereinen
Ecofin
ow
coin
bookings
earliest
Eingabe
tol@@
sende
TNG
eingetragen
190
Quer@@
impressed
archives
firma
vul@@
Night
bridges
SilverFast
trucks
Ash@@
trendy
experiment
GSM
Forums
variations
Bürgermeister
einfaches
Wanderungen
hil@@
Disabled
zweck@@
liberty
zahl@@
Brown
ozone
intermediate
Person@@
fischen
fuhr
trace
schriften
genügen
ßer
copper
Joaquín
propaganda
Temperatur@@
historischer
Ganze
ás
unabdingbar
tes@@
Marktzugang
tiles
Fest
Cards
geringere
fes
Slovenian
Ple@@
successor
Herr@@
irs
Orange
Schwarz@@
verschlechtert
Wandern
appropriately
Pom@@
Prozentsatz
humanitärer
Beschaffung
heiten
Human@@
birthday
verzeichnis
Stärken
gebucht
sel
Mitgliedsländer
bury
wins
zahlung
pole
Chinesen
Standorte
Tuscany
DEL@@
Währungsfonds
Nachbar@@
Heidelberg
Vorhabens
prosperous
wander@@
Bour@@
recreational
Drucker
Übertragungs@@
dealer
wechsel@@
Mix
Rumäniens
Gut
quoten
Type
Now
Lot@@
flexibler
Energieträger
Chianti
Model
gels
gesunken
entstehenden
aufgeben
Gebiets
Magazine
denti@@
Gütern
Kenya
extremen
Tourist
Südkorea
к
Patrick
verified
annex
substantive
stischen
generates
IRC
Fahrrad
Brandenburg
wet
Zuwanderung
auction
Wohnsitz
elung
Erteilung
ruins
sar@@
pp
Jahreszeit
GO@@
ит@@
Wissenschaftlern
wohin
zugeben
Guantánamo
KM@@
C.@@
nähe
peripheral
dlichen
symboli@@
ausländischer
Mobil@@
attentive
mill
DO
assisting
Meldung
Monitor
irakischen
Eck@@
rhetoric
bn
bewaffneten
Bürgerbeauftragte
abgesch@@
fehlenden
trug
INTER@@
TI
Klaren
3G
Kali@@
oasis
Brau@@
Etagen
Meilen
fter
spürbar
dom
sl@@
Tribunal
Spi@@
Lücke
miss@@
outcomes
Werner
wheels
σ@@
stehe
schei@@
Stabilitätspakt
sern
menü
Operational
wy@@
angeb@@
Geo@@
privat
shipment
dio
hinreichend
gefertigt
erfolgreicher
Get@@
57@@
gle@@
optimized
Ecuador
Hö@@
klar@@
UNHCR
terer
petrol
E.@@
Protektionismus
zugeschnitten
democratisation
Streben
aufnahme
thick
Councils
Russischen
upgraded
recovered
sensors
1200
vermieten
diesbezügliche
Weiß@@
Abgabe
coupled
raums
architect
races
benefited
dische
Eisenbahn
mobili@@
investigated
Generaldirektor
Strafen
forderungen
Lady
Designs
Graz
Fachleute
Arbeitsplatz@@
kop@@
duc@@
jemanden
auftritt
Breite
tune
ott
François
fridge
Pisa
erbar
rats
zwingend
ativer
reminded
alists
Metal
Benz
Mobilisierung
Democracy
verschärfen
Zeitschrift
bed@@
Meeres
judged
indicating
ec
AND@@
Rohstoff@@
cab@@
Ah@@
Salon
schädlichen
earmarked
ator@@
leit@@
Energi@@
intensiver
Kel@@
nördlich
Ansehen
Astrium
ITEMS
NT
institutes
speeds
From
Quote
vereinbarte
deepening
surfing
13th
juristische
stretch
There
beitrag
Rats
Instance
Hotelzimmer
seg@@
demonstrating
einzuräumen
Local
Feedback
homo@@
illegally
Spiels
Map
wur@@
ernsthaften
smus
yen
ertem
Koalition
steuerliche
Einsatzes
Jahrestag
Solar
Azerbaijan
11,@@
veri@@
Koordinierungs@@
hinnehmen
corrections
TA@@
0.1
Einreise
donation
lieren
geehrter
acy
Monte@@
statt@@
echo
XI
template
büros
mmer
buffer
Visum@@
Blan@@
kat
activists
300@@
Verlagerung
Satellite
å
Studies
berechnen
salle
kombinieren
LEADER
Chemie
Umweltverschmutzung
flug@@
ativ@@
Formate
Erdgas
backup
Erwärmung
ret@@
Demo
anteil
Sitzungsperiode
mails
Double
Do
Zukunfts@@
Luc
ston
MAN
effizientere
Turm
Karibik
stätten
Streit
Energie-
lawyer
taten
chronic
zwecks
Shell
ria
servi@@
44@@
Saf@@
xen
modernise
critics
cure
wovon
discounts
genocide
qualify
31.@@
rie
weitergeleitet
Haltestelle
perfekten
Kn@@
Aids
finger
Käse
positioned
straßen
ideology
animation
Filmen
mali@@
Klang@@
fru@@
Tunnel
stra
Alb@@
widmet
promptly
grenz@@
clearance
tranquil
pré@@
privileges
marble
Graphik
occasionally
Entsorgung
barely
hit@@
Vinci
convey
mounting
containers
verarbeitung
erwarteten
eingebettet
Fluggesellschaft
corrected
Weltmarkt
mittelalterlichen
umgewandelt
Luis
ausgewogen
deliberately
liberalen
behilflich
Luft-
umfangreiches
wand
captured
Europäern
quer
Gift
Qualifikation
Promenade
soliden
ethnische
INA
VE
gelangte
inventory
Zuschüsse
Oper
politi@@
Diagnose
analysed
Bedien@@
Am
sible
GS
verbände
mili@@
Polens
ank
TB
coating
seasonal
Sozialpartnern
Vertragsverletzungsverfahrens
Terrace
exakt
gespräche
tenden
angehört
offenkundig
hum@@
Politikbereichen
Renault
Amts@@
Aufpreis
prizes
Lor@@
zü@@
revolution@@
Kofinanzierung
Texten
zigen
Nav@@
versuchte
Armenia
dge
leverage
Form@@
gau
antique
Mam@@
schweigen
befaßt
Gemeinschaftsunternehmen
1930
mitglied
Ankara
Cs
uro
leb@@
seinerzeit
Auflage
atur
ically
AI
verarbeiten
ет@@
mothers
wirst
ums@@
xes
richtlinien
essi@@
multilingual
infected
realities
GE@@
counting
CAN@@
folge
Catalunya
IST
steep
São
Felsen
schloss
präsent
ema
fachen
GH@@
stens
aufnahmen
Brand
Beantwortung
commissioned
führend
beauftragte
betreiber
historically
künstlerischen
substitute
Auswertung
appelliere
block@@
advocates
Posselt
critique
längeren
lien
auszuweiten
SEN
elektrischen
deprived
decreased
AGE
grund
ängen
Steinberg
direc@@
refer@@
Kompromiß
ausbauen
Inneren
merits
Pur@@
LA@@
Hof@@
sooner
gla@@
Befriedigung
zivile
dringende
zurückgreifen
Lieblings@@
flug
Bei
Beschlüssen
FAO
recreation
hindern
vorab
afrikanische
BS
Horizont
Marktanteil
lifetime
Globalisation
niedrigere
BA@@
Meldungen
Belliard
Verkehrsmitteln
Rose
minors
detaillierten
sozial@@
rer
Speicherung
beteiligung
definitiv
gewerblichen
Caucasus
überra@@
Chan@@
funktionierenden
Wäscheservice
CSS
empf@@
Digital@@
Beihilfe@@
Acquis
Cafés
descriptions
DF@@
NA
breaches
Kino
vegetation
ausgeht
anwendbar
Freedom
indicative
sensiblen
verantwortlichen
PNR
mature
Newspapers
Schlacht
passage
schreiten
Wand
Audi@@
triple
clearing
Periode
Luftverschmutzung
Mannschaft
Luftfahrt@@
chro@@
accelerated
popul@@
Kla@@
Century
hoping
geographic
Belange
servants
congress
attacked
benefiting
Untersuchungs@@
alert
legten
dose
Franzosen
verdeutlicht
Black@@
Auslieferung
FI@@
shoulder
eleven
leiste
Krankenhaus
abzubauen
beverages
Schnee
bü@@
iness
minded
scan
abhalten
imagination
Primär@@
erzählen
enzen
Busquin
distances
repercussions
stunden
Fachwissen
architects
sequ@@
html
Ausfuhr
mortality
rises
Sei@@
orts
alls
verwandelt
PXI
inch
Aussetzung
evenings
14th
erweist
Starfleet
shame
swe@@
pil@@
Margot
Nan@@
entails
sicht@@
Engagements
intra
disproportionate
Auseinandersetzungen
dicht
Pilot
aboard
grundlage
spe@@
oning
bestätigte
Frequenz@@
boot@@
Fotografie
Tempel
willst
festigen
richtungen
Tiefe
erische
proportional
pot@@
sudden
snow@@
halbe
Continental
WordPress
Fli@@
Säulen
Südtirol
zoom
sierungs@@
magnetic
einziger
Funktions@@
Vollständigkeit
nukleare
stationen
pair
inherent
Lebens-
optionen
SF@@
Vorgänge
tausende
λ@@
frameworks
Vergütung
Bristol
Semester
befand
gemeinschaften
drastisch
massiv
unterschiedlichsten
krieg
mobilisieren
lokal
disc
persecution
Memorandum
Dolomiten
dirty
Aktionspläne
bedauert
Bananen
Erkki
pots
ministerium
Palais
gütern
mag@@
exempt
anger
declining
bra
productions
kenne
dlicher
gewaltigen
Upgrade
Anlaß
feldern
doppelte
stattfand
ELDR
organizing
husband
SAT
absoluten
Komplex
Unterrichtung
Sozialisten
Nachrichten@@
Kartell@@
Kompetenz@@
leitete
Ethiopia
Verlag
beschriebenen
folk
disappeared
consultants
breast
Sup@@
Colombani
Wagen
kehren
salaries
speisen
fairness
Pack@@
bester
Wirkungen
vir@@
inas
refrain
Equipment
Fernando
speculation
Versch@@
Auftreten
unterricht
FREE
utter
07@@
Luftfahrt
tun@@
Gil@@
anymore
ore@@
devastating
Fontaine
bürgerliche
uncertain
1900
NO
remedies
Vin@@
Hintergrundinformationen
Orchestra
Oli@@
AW@@
tec@@
erend
gründete
Gothic
atz
strip
109
desert
strikt
ь@@
Rou@@
detriment
itäten
Mozart
begannen
Sites
kritisieren
Mare
Aparthotel
approving
Fro@@
aki
hinaus@@
eling
nötige
verteidigt
Festsetzung
Schwimm@@
Rettung
exportieren
Stei@@
benennen
Flusses
reforming
Etappe
Futtermittel
Labor@@
260
malaria
echtes
Herman
bauer
tti
encouragement
yard
außergewöhnlich
angehörenden
rot@@
manually
†
sachen
Beilegung
gänzlich
kW
bananas
Zivilisten
Spannung
footing
Schla@@
Pop
lum@@
mittlerer
Mercure
refreshing
Nahrung
ERP
picked
MPEG
Besitzstand
Umweltschutzes
professions
tot
geber
gesetzgebung
aded
Klimaschutz
warnings
dalam
purchaser
atives
gesteuert
pt
chteten
objektiv
fauna
geschah
Mehrzahl
eröffnete
symptoms
etic
ungspläne
Pariser
proportionality
fabrik
proportionate
disclosure
kostenfreien
Typen
Kampagnen
liert
installer
sicherung
Einigkeit
DF
Symbole
He
OF@@
ο@@
Eis
Pressekontakt
hilfen
injured
Dru@@
Dimensionen
auszuschließen
unüber@@
Erlaubnis
Brazilian
UK@@
Verantwortlichkeit
MEN@@
Stück@@
Verurteilung
makroökonomische
Managing
occurring
wearing
Watch
persuade
grenzübergreifende
Fremdenfeindlichkeit
enemies
Forstwirtschaft
Veröffentlichungen
herauszufinden
Pau@@
Commonwealth
exceeds
einheitlich
synthetic
Volk@@
sahen
Annan
Nach
daten@@
xenophobia
med@@
Eur@@
spac@@
Centro
brand@@
Kriege
etzen
nete
forever
90er
ange
Teilnehmer@@
aufgegeben
stung
344
gestaltung
Upper
absch@@
LL@@
commend
CP
archi@@
Finn@@
conceived
filed
celebration
Unrecht
exporting
quar@@
dreht
gin
Jun@@
steuerlichen
Ehr@@
Logistik@@
Toskana
dänische
fas@@
ring@@
accessing
Art@@
screens
zah@@
mercury
mä@@
realisation
ausfallen
gentle
masters
anschauen
spreis
Angestellten
formulated
Schlüsselrolle
bahn@@
suspend
realistische
gefährdeten
Verbrauchs@@
blauen
Expo
Blumen
Dry
thrown
Vitorino
gt@@
counterparts
Erlass
angelegten
konstruktiv
Long
Bauern@@
Schie@@
norms
einstellungen
Arafat
contradiction
entfernten
gängigen
IND
Züge
rea
Behauptung
bedaure
har
bewertung
Handelsabkommen
05.@@
Sz@@
resist
strengths
commodities
Mars
Wäldern
Schreyer
nominated
laundry
scenarios
Gute
quali@@
ą@@
moder@@
с
ination
schwarze
erklärten
fizierte
³
überwunden
translators
alize
wende
unterworfen
Harmonie
bevorzugen
Rel@@
entschied
QuarkXPress
vaccination
successive
erstrecken
Beiträgen
gon
kung
Direktzahlungen
Diamantopoulou
sympath@@
einheitliches
proc@@
acken
tet@@
Schalt@@
strengthens
ind@@
assuming
Sozial-
Virtual
Besucher@@
Linz
großzügig
abgebaut
FT
orn
yacht
Farm
elektrische
Börsen@@
Mass@@
accurately
elen
fifty
geleistete
supplying
rocks
err@@
smoothly
Stamm@@
Dolomites
Bonus@@
mais
Ou@@
solarium
editors
imply
erei@@
unde
Assad
Dame
Care
tur
dental
Electronic
Stress
Pad@@
Leser
wis@@
Kamin
ologen
tia
1948
aut@@
Machine
RE
organisational
Andorra
Zins@@
infection
eingeleiteten
älteste
Immigration
strecke
prevail
pur
reinen
Alkohol@@
euro@@
Europarat
herr@@
mitunter
Alicante
zur@@
Tauchen
heben
poultry
Hun@@
berichts
ganzes
factories
fabrics
drängt
einrichtung
Freihandelszone
wolle
angekommen
optimistic
fasst
Fahrrad@@
Segment
4000
brücke
Wohl
Vladimir
therapeutic
Has@@
AVI
gun
acknowledges
entschuldigen
Bewerber
verantwortungsvolle
Variablen
tired
veranlasst
Mitbürger
lacks
Wes@@
Table
Aussehen
inhaltlich
Filter@@
Jonathan
entlassen
Senior
Lärm
Rechenschaftspflicht
übereinstimmen
populated
letztere
Otto
Wiederbelebung
tura
Regierung@@
Poettering
Finanzsektor
228
college
Krebs@@
bücher
4.5
BB
fang
zusammengearbeitet
Urteile
PI@@
manages
oned
11.00
137
EPA
Stream
Rhein@@
ecke
bevorzugt
ankommt
Alp@@
begünstigt
oli@@
sätzen
Ré@@
Übersetzer
Konservativen
devote
Estate
risiken
intern
herauszu@@
verpflichtungen
broke
Herkunfts@@
98@@
incredibly
Vertrag@@
beliebige
zehn@@
rom
äm@@
anerkannte
transposed
Networks
21000
Sac@@
Nächte
ligh@@
highlighting
Haf@@
μ@@
mitzu@@
ure@@
derogations
ankommen
calculations
instruction
erledigen
AST@@
Wettbewerbsbedingungen
systematische
000.000@@
MON@@
offensive
Außenhandel
angelegte
ier
cooperating
hem@@
affair
liest
Kab@@
schaft@@
cken@@
Read
Geschäftsreisende
Umsetzungs@@
Recovery
managements
ité
Rosa
Flugzeug@@
experten
gipfel
Chirac
ager
sit@@
Roger
ann
springs
gebiets
mediation
rent@@
Folgenabschätzung
prostitution
vergleichbare
zustand
entre@@
Sandstrand
dest
awaiting
Plätzen
111
RAT
christlichen
prints
einschränken
Geltung
Oberflächen@@
getrennte
law@@
Abreise
wesentliches
Mö@@
rap@@
VO@@
Flora
storm
Vertrauens@@
hochwertiger
Unterscheidung
gentechnisch
Größen
alarming
02@@
Naples
glo@@
Metro@@
nahme@@
Umwandlung
EFSA
verweigern
specification
Menschenleben
Kfz
communicated
Terra@@
switching
Verbraucherpolitik
neten
Völkerrecht
lessly
wä@@
horizon
new@@
bran@@
hard@@
belastung
selective
fibre
.-@@
Japans
eindeutigen
Meinungsfreiheit
Weg@@
nar@@
TW@@
ер@@
Koch@@
yearly
v.@@
Ferrari
synergies
Konferenz-
übermäßige
entdeckte
pon@@
Henri
erledigt
76@@
derivatives
CET
ritt
dire@@
kos
Russians
gesundheitlichen
Kurdish
GCC
eingetreten
deficiencies
OV@@
Fehlern
incorporating
Georg
ς
OL
CNC
Valle
sand@@
regel@@
Erwartung
strategisch
familie
cigarettes
CAN
tlich
sche@@
Schwäche
bou@@
Ozean
Imperial
Trinkwasser
Richtungen
junior
Handbuch
4.1
Codes
uta
ysteme
mangelt
Property
Secure
ited
Infineon
pap@@
weaker
langjährigen
truck
influences
eile
überraschend
FIFA
remit
aufen
Insurance
lebende
billigte
ausrüstung
freigegeben
Identifizierung
Sir@@
händler
notable
englischer
Nau@@
cocktail
entfalten
angesiedelt
Hü@@
Dorf@@
redundant
Nag@@
GIMP
jugoslawischen
Australian
vac@@
verzeichnet
Verwertung
Ry@@
stür@@
Zell@@
protocols
Torre
Angela
Olivenöl
anta
multinationalen
Gründer
Nachtleben
Kit
foreigners
comparative
dlich
1965
conscience
forbidden
DS9
Cambodia
Profile
einzigartiges
entail
spatial
milestone
bits
apo@@
geni@@
fei@@
Kontra@@
dine
kit@@
begründen
ESS
teu@@
Präsidentschaftswahlen
ction
Versorgungssicherheit
Wach@@
zumeist
nä@@
Mehrheits@@
Stimm@@
ausstellung
kö@@
dity
für@@
VII@@
personalized
ses@@
exc@@
mün@@
Erfordernissen
CRM
zusehen
Mun@@
Trocken@@
besonderem
lege
Geldbuße
Alzheimer
Fischereisektor
operationellen
motto
Autom@@
Messen
slot
ep
Darlehens@@
deci@@
Momente
zustellen
TRA@@
domains
ing-
vorantreiben
dreißig
informations
Mitentscheidungsverfahren
Themas
Cul@@
anci@@
unab@@
thaus
worum
Gefühle
Konsum@@
nein
schu@@
Chair
FF@@
steadily
1956
hung
Stick
Rücksicht
actu@@
Rückverfolgbarkeit
Branchen@@
pet@@
ax
Brian
Rock@@
multitude
wers
Ath@@
Ursprungs@@
toren
shipbuilding
Az@@
Anteile
Banner
biegen
pack@@
Whit@@
Adria
Notfall@@
jüngster
studierte
laufend
Neuerungen
angesprochenen
jahre
chaos
Active
Linien@@
stische
gängen
HD@@
800@@
ensystem
rote
eingesch@@
1962
triggered
licenses
hub
ethics
Kraftstoff@@
ule
tian
Standpunkts
Nom@@
Kron@@
EF
prozessen
regeneration
mainstreaming
Erörterung
Paar
schrecklichen
loop
Unionsbürger
persönliches
abolish
Agent
evaluating
tering
plastics
erhöhten
potenziell
insofar
Milano
auszutauschen
nowhere
rei
DAS
Badewanne
mie
Fire
aufzuheben
aya
frühzeitig
1990er
vorangetrieben
Mobil
län@@
Varianten
Rauchen
iel@@
Persönlichkeit
Experten@@
Arabien
sper@@
pretext
Industrie-
komplexer
Synergien
gültige
bindung
undermining
Hä@@
schein
bisweilen
Kaliningrad
tisches
Ji@@
ons@@
aussieht
Prüfverfahren
bür@@
dress
cement
stabili@@
Asyl@@
zent@@
Management@@
Wellnessbereich
¿
Pfund
Kreuz
Málaga
innov@@
laptop
diameter
Hyper@@
Cadiz
ziger
blow
nov@@
Grafik
allocate
einhergehen
DP
schwan@@
hörte
tener
heim@@
SY@@
transpose
Bernard
TACs
Durchführungs@@
Gründungs@@
erzeugung
Radisson
halle
Zoo
Gur@@
sé@@
austauschen
participant
backdrop
After
befugt
dam
ratings
alisi@@
marken
tives
approaching
erzeugnisse
08@@
Stau@@
ketten
Markets
Anforderung
erheblicher
eradication
agen@@
adhere
ook
Rob@@
Rasse
Edi@@
ethischen
zufriedenstellend
Richt@@
fortress
lebens
zuzustimmen
Zuschauer
Fax-
Eigentums@@
vie@@
brochure
sound@@
ope
fair@@
Lebensdauer
Schön@@
horn
Miert
Signal@@
jump
Frühling
Veranstaltungsräume
Besatzung
fairs
socialist
harmonious
posten
Temple
hierdurch
grünes
shores
weitergehen
enheit
HR@@
powder
versäumt
Assoziationsrat
Neuen
auslösen
.jpg
Einstimmigkeit
dele@@
tschechische
moratorium
beherrscht
stimmte
anspruchsvollen
Markus
Nordsee
Spock
atte
warned
Bai@@
demo
Partnerländern
harmonization
Lac@@
insisted
halls
teeth
1961
somehow
Organisations@@
Arbeitskräften
Fair@@
struktur@@
Luxus@@
uphold
auszuführen
cycles
funktion@@
ungser@@
Rahmenprogramms
herausgestellt
key@@
damp@@
roadmap
Morgan
conception
Male
jer@@
Prozessen
grundsätzliche
Belgrade
Gardens
15.00
eri
erlangt
Konsequenz
brown
sister
ка@@
1,2
verbreitete
äh@@
Trust
warme
Bedauern
Kranken@@
oxi@@
nica
Binnenmarkt@@
bank@@
gig
jeglichen
Sendung
pump
Rail
klassen
ausführlichen
Gleiche
Tax
gger
graduate
Water@@
Dalai
shapes
zentrums
terin
basin
Versicherungen
Verdacht
unzureichende
determines
sinnvolle
backs
Ausnahmeregelung
Schienen@@
unexpected
Leader
binden
m.@@
juice
lebte
BUSINESS
obligatory
nachgekommen
Armenien
Zonen
lad@@
durable
connects
GNOME
Mont
TH
bemühungen
Museums
Wegen
Verbände
counterfeiting
Liter
Nuclear
ähnliches
confined
dienstes
anybody
AZ@@
professor
Ausschreibung
Schwe@@
Low
zeu@@
Erdgeschoss
Schriften
Def@@
beeindruckenden
seating
Špidla
Schau@@
plac@@
ρ@@
stattfindenden
Gastronomie
Touch
Advisory
Behandlungs@@
samt
202
stau@@
č
etabliert
longest
criticised
schnellstmöglich
anerkennt
wu@@
Tem@@
lengthy
stepping
Autovermietung
sy
Etikettierung
Zufall
flüge
maxim@@
verschieden
Logos
merit
TP
EZ
midst
nutzung
wand@@
thou
Führungsrolle
Konflikt@@
spre@@
frankly
Tot@@
komp@@
Lloyd
catalog
Veterinär@@
exceeding
begehen
elect
encryption
Flair
wirksames
Bezirk
Handelns
Bell@@
Irlands
recourse
benötigte
cosmetic
injuries
Vorschrift
Magazin
mächtigen
digten
wem
übergreifende
bereichs
Staatsführung
р
nationalism
Baby
donations
Som@@
sitzung
nier
mented
1939
Son
lief
Bosch
assumes
collectively
tongue
rumänischen
unnötig
Champs
Haut@@
Infrastructure
gründliche
declined
Mobiltelefon
cave
fulfill
Resolutionen
vgl.
disappointing
schancen
delightful
utili@@
aquaculture
Motors
sendet
Paket@@
konsultiert
320
Meilenstein
ny@@
Akt
beihilfe
beizu@@
Patch
1966
hydrogen
Prioritätsachse
kampf
emotions
Can
Imm@@
Erholungs@@
Ausbreitung
achtet
ITER
dev
Cuban
uno
foot@@
kontroll@@
einmaligen
positioning
sitzt
suspect
unite
Rohr@@
extract
lush
Stil@@
Erfordernis
Applikation
Cr@@
hör@@
jedermann
Schreib@@
aesthetic
bricht
Commons
nisse
schle@@
Frankfurter
wn@@
edo
Konzerns
isten
tiefer
complying
Bearbeitungs@@
agreeing
elec@@
DR
exercised
Promotion
aktionen
Solidaritätsfonds
ecosystems
Acrobat
Rückzug
asses
beratung
Schnittstellen
Auffassungen
FO@@
tends
Other
inkl
GSP
hybrid
Telefonnummer
gourmet
CI
.html
fester
ris
pumps
phenomena
Production
Schli@@
asa
gewerbliche
carriage
verhaftet
freiem
postponed
forefront
identifiziert
überleben
fizieren
Fotografen
Osteuropas
imstande
emo@@
sendungen
gni@@
Flagge
Erdöl@@
fleets
commenting
vorläufige
Carmen
Key@@
angeregt
scanner
Conil
gewinn@@
GALILEO
Bundesregierung
verspricht
Bulgariens
123
wissenschaften
nder
210
aciones
begriffen
liner
Kommissionsmitglieder
rob@@
sektor@@
eingenommen
studieren
lten
atik
Import@@
Lon@@
documentary
ick
transferring
Session
ratifizieren
Vorbeugung
engaging
childhood
privilege
PD
cette
Sachverständigen
Studierende
spitze
beschädigt
eno
vertreter
conversation
gefähr@@
Laos
Weihnachten
Vide@@
confront
OU
Rücktritt
Tierschutz
eintritt
Dell
RU@@
Produkts
stete
Rompuy
serie
Aktiengesellschaft
Vormittag
Laser
Spor@@
Block@@
0.00
Garage
Schuld@@
gross@@
Andrea
46@@
Abfahrt
vere
Audio@@
strebt
Grundprinzipien
surf
transportiert
Alt
Translation
P.@@
lagern
construct
Hon@@
KL@@
verbindlichen
schä@@
alternativ
Boeing
glia
Tol@@
festgelegte
thro@@
Bilder@@
Brot
Trainings@@
Villen
entwurfs
grenzübergreifenden
fulfilment
insecurity
ffer
Reinigungs@@
kenn@@
fixes
Resultate
kapital
pity
demo@@
communautaire
äch@@
exchanged
Textilien
Amsterdamer
gna
Strafgerichtshof
Aufenthalts
expecting
Einmischung
cozy
Sound@@
Corbett
Generalversammlung
fo
Mir@@
dying
laboratories
bestmögliche
open@@
Track
seri@@
Reit@@
tap
nominal
dings
ogra@@
Füßen
conform
Donald
Schuhe
Treasury
ght@@
2.000
alisten
Körpers
Aserbaidschan
Competitiveness
cker@@
precedent
dit
negligence
ART
übersehen
claiming
versatile
Eing@@
Serviceleistungen
flan@@
Lie@@
ansässigen
1970s
oberhalb
Sisko
Verpackungen
kammer
Energiebereich
Haag
enchanting
sentences
asti@@
Baum@@
willen
vergrößern
ersuchte
Durchschnitts@@
Universitäts@@
Kandidatenländer
Martini
100.000
derte
temple
fahrzeugen
deutet
Ursprungs
verfügbare
sammlung
DNS
Verkehrspolitik
Gleichberechtigung
GIS
possess
benchmark
Leistungs
hausen
fast@@
Wirtschaftswachstums
Alan
Mou@@
Panama
honor
versi@@
mobilisation
Touristen@@
baltischen
Laundry
hier@@
Enttäuschung
47@@
bass
Fort
onie
kohärente
09.@@
Beihilfevorschriften
außenpolitischen
G7
Spezi@@
unwahrscheinlich
einseitig
Massenvernichtungswaffen
blatt
tastefully
Ring@@
gehörten
Substanz
Province
KS
time@@
reibungslose
Jürgen
Lö@@
Inform@@
freies
monitors
ökologisch
Regelungs@@
Cast@@
whi@@
unterstützung
fourthly
Einwanderungspolitik
offence
traded
pipe
Entsendung
gepflegt
monopolies
Sus@@
arch
Schauspieler
Ner@@
FS
fragte
learnt
relocation
Records
informing
stet
Blo@@
defended
kle@@
buyers
marke
calculate
casting
Ljubljana
verhängen
Residenz
Script
aggregate
29.@@
Vir@@
unvereinbar
handy
1964
spätere
Konditionen
eingeschlossen
Suu
MC
Wirk@@
mediterranen
Oil
fruitful
ington
unclear
Ressource
Tragen
Analy@@
eing
Willkommen
comple@@
Ludwig
schwache
beeindruckt
appeals
Kyi
gesteigert
reviewing
Clients
geschützte
gli
altered
photographer
Befragten
Mitarbeit
KB
biking
Senegal
traces
drawings
Konzern@@
fragmentation
Bun@@
aufgetreten
dynamics
beta
Oase
Rest@@
Entwickl@@
Stop
shots
bulgarischen
Leist@@
beziehungsweise
harmon@@
hervorgeht
entfällt
Sex@@
bittet
terroristischen
н
breakthrough
Aktionäre
thread
Partition
rs
Eritrea
dramatisch
mac@@
Terror@@
Four
Meerblick
ordentlich
Abbas
Arbeits-
Innenhof
Verhaltensweisen
bergen
Brennstoffe
pflanzen
Challenge
empfehle
geographischen
tiv
noti@@
eBay
gespannt
schiff
threatens
ado@@
meistern
aga@@
betting
Chin@@
g.@@
REI@@
undermined
fications
coup
BE@@
stürzen
OP
Kommunismus
aco
dramatischen
ZU
Movement
butter
oul@@
Entwicklung@@
cluster
vy
Prin@@
Mexican
doppelten
mobilise
differing
benachteiligt
Albanian
industri@@
bans
städtische
π@@
Container
browse
monastery
URE
schäden
Diplomatie
tum
bewe@@
any@@
tiker
Leh@@
rede
IO
Bak@@
concerted
übersetzen
attributed
einsatz
Rang
Konten
grün@@
Pflicht@@
trillion
Quar@@
fireplace
Hospital
Differenz
Kommunen
deliberate
seid
gemeinsamem
Eden
fürchte
zip
Textil@@
Installer
Russen
bereit@@
wü@@
besetzten
entwicklungen
Yu@@
tation
roaming
Dubrovnik
lifted
nachweisen
Feri@@
geradezu
hochrangige
Brüder
Neuseeland
Cairo
hed
Sekretariat
z.@@
tätigkeit
feasibility
Comfort
shelter
launches
globales
Moderne
logos
да@@
Panoram@@
luft@@
höchstem
Reihen
kreativen
Rentabilität
ond
Instituts
erachtet
gestal@@
Integrated
anfangs
ace@@
Wellness@@
inspiriert
Stehende
GB@@
Romagna
Industries
möchtest
Birmingham
dependency
inserted
Anfänger
Kop@@
Tarif@@
mins
gifts
Body
cartel
ehemaliger
heiligen
Pot@@
ONE
criticisms
reimbursement
IST@@
deinem
Aktualität
verschafft
VW
digungen
Oc@@
iting
Sicherheitsstandards
rigid
worthwhile
Angebots
erfahrene
profil
fremden
benchmarks
weiße
bewährter
reaffirmed
bitter
Industrieländer
Skript
Spezifikationen
zwingt
Eric
ordnen
digung
τ@@
worin
2,000
ineffective
destroying
alise
gewährten
hen@@
emissionen
associate
prosecution
ax@@
Ideologie
Images
barem
Universi@@
appliances
draußen
projek@@
Bett@@
Palm
disciplines
cit@@
binary
prakti@@
Gehäuse
welch
Elektrizitäts@@
Benita
caution
renommierten
Ökonomen
ehren@@
dum@@
iss@@
nachts
ausgeglichen
ANA
TCP
Attraktivität
Kalten
berry
swim
moralischen
chy
WH@@
understands
Aussprachen
ansch@@
wunderbar
mankind
realization
großartigen
konventionellen
Unionsbürgerschaft
complemented
alis@@
violated
Zigaretten
GT@@
proprietary
03.@@
yan
peninsula
Gerichtshofes
1963
mußte
Parlamentswahlen
Aussen@@
abili@@
uit@@
Volksrepublik
luxuriösen
Haushaltskontrolle
constituency
ausmacht
verletzen
Jahrhunderten
Eigenmittel
mis
issen
geringem
informative
ESC
proving
5.1
Flugzeugen
rup@@
explaining
zellen
atics
sty@@
objektive
appellieren
peaks
haus@@
Photocopying
Rechenschaft
Barbara
Weber
premi@@
regelt
Economics
SAS
Fitnesscenter
Urheberrecht
Provinzen
iling
t.
bak@@
Asset
billiger
premature
agu@@
Jungen
K.
annimmt
Metall
volunteers
Paulo
Dokuments
uma
emphasized
ua
Fotokopiereinrichtungen
Bangladesh
militärischer
konkurrieren
12th
verhelfen
side@@
Antibiotika
Zertifikat
forcing
Fischer@@
Motion
Denk@@
großzügige
Ausschluss
Glückwunsch
Gall@@
gele@@
13,@@
rebuild
Informationsschalter
zwischen@@
Differenzen
salary
professionalism
verbin@@
verbrauch
Menschenhandels
drama
.000
297
Schlag
spreise
Eisen@@
woche
Pixel
Cox
Modells
Nordamerika
Erb@@
herstellung
ICAO
optimization
welle
Genehmigungen
Terrain
Wandels
06.@@
blend
Staatsangehörigkeit
BV
Pensionen
Grüne
No.
menschlicher
cafes
seal
Afrikanischen
erholsamen
Aufsichtsbehörden
Bestes
mainstream
dün@@
Äthiopien
rati@@
121
outlines
Vernichtung
örtliche
standardmäßig
Tochtergesellschaften
Independent
miß@@
KON@@
reichlich
remark
erneute
Cyber@@
Gir@@
Registrierungs@@
qu
Kinderbetreuung
Energiesektor
116
Mahlzeiten
harsh
graphy
UEFA
patri@@
revise
beginners
Haushaltsordnung
personenbezogene
entstandenen
Maßstäbe
ausgewogenes
Liberals
refusing
verursachte
straightforward
soziales
exert
zzo
anmerken
kits
strah@@
Bettwäsche
Spenden
griff
oth
atorium
Keller
abonnieren
entrusted
etto
reifen
unterzeichneten
disappointment
Sichtweise
aufzustellen
ough
Fangmöglichkeiten
comitology
MAT@@
Ökonomie
rentals
Übernachtungen
befugnisse
tà
PI
Veranstalter
cleaner
icons
slaughter
rounds
sick
Tisch@@
colourful
Ausflug
zerstör@@
Sprachen@@
vollzogen
VP
Johnson
Kommunikationstechnologien
isi@@
Kampfes
106
repräsentiert
incidentally
wettbewerbsfähigen
Auftritt
observer
Frieden@@
EPP
allowance
amo
Min
literary
Rechnungen
genehmigen
80er
nü@@
vez
Jones
proceeding
mixing
chtete
obligatorische
slave
ICES
Aussöhnung
Treffpunkt
nau@@
piracy
Soforthilfe
Color
Wür@@
obersten
funktionierende
sono
1944
Rosen@@
ished
Verschiebung
reproductive
confused
virtue
Boston
Audi
Demonstration
kommen@@
einfließen
spiegeln
SEN@@
Fortbildung
Reservierungen
Cleaning
acion
Zertifikate
delight
Rad
Programmierung
sharply
zierte
Transit@@
feder@@
Hir@@
verzichtet
gates
ML@@
Matthias
Träger
Yahoo
challenged
aufgeworfen
hip
automati@@
COMP@@
cloud
Geburtstag
nachzu@@
Servern
logging
Com
gro
Over@@
kauft
Provi@@
Elba
Rechtsakt
secular
Heathrow
ehr@@
550
zeugt
gui@@
Heinrich
ckte
Jesolo
Verfassungsvertrag
Administrator
Nationalismus
Gutes
Thematik
Honduras
Zir@@
betroffene
mand@@
consultancy
scenic
slo@@
existierenden
äußert
EIN
recordings
capitali@@
Wissenschafts@@
Stri@@
SLR
Er
schwerwiegenden
Loyola
gratitude
Snacks
employs
Pflege@@
ösen
wards
preises
antrag
fried
Ok@@
halter
unterlagen
Mobility
wol@@
dare
horizontale
appalling
statistische
ziert
wach@@
Arbeitslosenquote
Schmidt
Umwel@@
creditors
Interventions@@
gelung
unnötige
lucky
offline
Erwerbs@@
SG
Entwurfs
gun@@
Liebhaber
hitherto
lieferung
Haushaltsausschusses
Clo@@
erneuert
übergreifenden
fällig
COR@@
scandal
145
Tendenzen
Medizin@@
Thyssen
Exekutiv@@
attain
beschließt
kno@@
schlafen
beliebte
Disney
ме@@
ration
VIS
Tode
Riga
stepped
Chapter
emails
arkt
satz@@
Sensibilisierung
ester@@
Platten
Cla@@
anführen
Elisabeth
raum@@
schwächen
App
Geduld
Mitgliedsländern
reis@@
Fot@@
Sul@@
enthusiastic
landen
jeher
Ori@@
sexy
kümmert
magical
rooted
artige
Modern
Kommando
NCC
BBC
Total
Wett@@
rest@@
ingu@@
royal
Kette
Wan@@
lesser
Mike
Importe
tones
Verhältnismäßigkeit
definite
Fertig@@
appearing
readily
entrepreneurial
Rabatt
Gaulle
Industrien
yours
Marktteilnehmer
gelder
Siedlungen
ops
reichsten
aver@@
Einwanderungs@@
Gehör
Jarzembowski
französischer
exercising
Plänen
sert
Dri@@
defect
papier
öh@@
schluss
nichtamtliches
Pul@@
126
contaminated
unification
digitaler
Hoh@@
gescheitert
schädlich
continents
interviews
Diplom@@
alcoholic
horny
peri@@
snack
rahmens
Sharon
Ivan
zzi
proactive
Lebensstandard
Niederlassung
Vortrag
interpret
Affiliate
aches
zufällig
Schiene
Definitionen
Preisstabilität
winds
dichte
finnische
1800
likes
provinces
foreseeable
vague
patio
erschweren
oven
Leucht@@
Grundstück
poorly
Cent@@
Ghana
awaits
serv@@
deregulation
Sebastian
Roman@@
memorable
Tibetan
Bahrain
At
Cecilia
Pit@@
travelers
jüngst
kenntnisse
Krieg@@
Slideshows
HT@@
Laufenden
fizierten
Impuls
Interesses
XII
tigung
geforderten
farmer
rechtmäßig
ausschlaggebend
tigsten
last@@
schicht
eigen
Direktinvestitionen
bad@@
schten
publicity
einzelstaatlicher
sanitation
einsehen
seize
hydraulic
Cameron
Zend
maß@@
generator
habitats
balls
rum
Columbia
dokumentiert
Py@@
Energieverbrauch
MM
Büchern
acceding
explosion
tili@@
Parlamentarier
SOLVIT
weaken
Warschau
Boote
inspectors
verwaltungs@@
Kämpfe
stam@@
Di
abzuschaffen
nei@@
tness
Course
Tap@@
amos
Speci@@
bekannter
Bildes
aufwand
Cop@@
eira
Thermal@@
Beobachtungsstelle
Internets
integrierter
beginn
erzeu@@
bia
traten
Beh@@
disarmament
prec@@
mono@@
Hab@@
Einstieg
opposing
airspace
Rohstoffen
gesetzte
Hilf@@
YOU
Mannheim
850
Green@@
Erinnerungen
übersch@@
arium
dice
zurückgezogen
Kost@@
Wörter
Campo
Berufung
steh@@
Anpassungs@@
Innovation@@
Ambitionen
Spass
bon
agn@@
Leder@@
Verantwortlichkeiten
FA
Currency
Einträge
Archer
Wohnungs@@
Defizits
etti
berater
banning
Besuchs
bevorstehende
balances
vertrags
zeitlichen
valleys
prohibit
entirety
dness
ately
optimize
herum@@
antitrust
ü
Map@@
kitchenette
echt
tö@@
appar@@
Armutsbekämpfung
leg
irresponsible
Null@@
approximation
exhibitors
genossen
flags
A6
ulen
teuren
angegriffen
lehr@@
studien
jet@@
DEN@@
enthaltene
Press@@
Rum@@
nam@@
reichhaltiges
Anstrengung
5,000
überarbeiteten
spezielles
exemplary
gladly
Vizepräsidenten
But
Terme
pflicht
Befürworter
vorzustellen
infrastruktur
berei@@
ème
vieren
handel@@
eigens
Unterhaltungs@@
azione
Indiens
restraint
Zuhause
empfehlenswert
aktualisierten
tured
Kalifornien
MIN@@
Rechtsrahmens
atin
IES
ausgewiesen
dle
Familienzimmer
restricting
Trieb@@
ICEcat
festlegt
zucht
care@@
FEMIP
ovo
betra@@
aris
auc@@
Stücke
forty
Í@@
climb
klingt
lady
256
traveling
diplomatische
Kazakhstan
mortgage
gewicht
condemnation
equitable
entr@@
professionell
attraktiver
3.3
capitalist
Meinungs@@
Arbeiter@@
offshore
Electronics
exporters
Füle
Vorzüge
ppt
Zyperns
gg
Feira
Internetanschluss
14,@@
Silver
Sozialdemokratischen
Vorgänger
spezieller
8th
temp@@
Hunde
polite
Investitionsvorhaben
Evans
bürgerlichen
surpluses
bene
fts
MT
alignment
Lok@@
Gerichtsverfahren
gang@@
sens
Begleit@@
horizontalen
verträgen
Crew
gewohnt
unterschieden
duplication
lasse
pflege
Bewegungs@@
07.@@
VAL@@
locals
zeugen
monument
Klimaschutz@@
indirekte
sponsored
appoint
Beförderungs@@
Sicherheitsmaßnahmen
dep@@
extraction
gliches
Kommunikation@@
ÜBER
käme
priv@@
verse
mische
durchgeführte
kehrt
Finanzinstitutionen
platte
coun@@
Rahmenbeschluss
Set@@
tropischen
drought
deliberations
Vogel@@
depression
prevailing
haut
overlap
kunde
coloured
Schriftsteller
Jugendherberge
prinzipiell
IEN
shoot
Telecom
exklusiv
Stoff
selb@@
interessierte
dokument
klassi@@
kontinuierlichen
playground
Rechts-
Bildungs-
brach
ile
breath
Getränken
Turnier
bloß
recipients
rel
hur@@
influenza
epi@@
reinforcement
Kambodscha
9th
Neapel
aufrichtig
tubes
Londoner
Location
Toulouse
за@@
copying
RAW
Fox
packing
Maß@@
pero
O.@@
zeigten
Waffe
asp@@
MER@@
Beschäftigungsstrategie
somebody
rän@@
focal
insel
Gates
than@@
Blumen@@
wohn@@
iz
Freiburg
dat
anonymous
eting
Cohn
Bauer
rough
sacrifice
musi@@
erwartete
cen@@
Stalin
Besuche
Lad@@
dozens
combinations
Christus
Andrew
reformieren
erung@@
archaeological
fielen
kanal
surprisingly
refuge
audits
grenzt
abgewickelt
stuck
usable
Stich@@
smell
Verwirrung
Detail@@
Platten@@
fashionable
stipulated
ли@@
arm@@
umliegenden
maximalen
thesis
spr@@
Änderungsantrags
profitability
kommunikation
influential
intensified
öse
spirits
interfere
showers
sein@@
Schaltfläche
11th
geografische
circles
jenem
Rin@@
Produktpalette
enthusiasts
Falls
gegründete
Blu
3.000
slots
höre
GN@@
legalen
consuming
gerichtete
cornerstone
Basque
menden
strain
fers
LAN@@
maize
MAN@@
IDE
Zauber
Ericsson
columns
harvest
1949
KA
169
Forst@@
XX@@
08.@@
Fac@@
steine
modernste
eras
zurückzukehren
Klassen@@
verdeutlichen
precondition
Nicaragua
Me
wholeheartedly
Publi@@
explanatory
egg
kollektiven
particles
entzieht
ausschließen
demonstrieren
Trainer
console
ency
wheat
bankruptcy
behindertenfreundliche
Plenartagung
Leitfaden
isierung
kungen
zuverlässigen
Knowledge
thema
cruise
Abgaben
1959
idyllic
Securities
Hydro@@
IF
Unterbrechung
Eingreifen
eilen
Hilfsmittel
sicheres
Vieh@@
gestrigen
beziehe
Sex
113
Transfer@@
Verweis
RELATIONS
angelegenheiten
Virgin
legitimen
schaut
complies
Nationale
та@@
redress
Fördermittel
Jahre@@
pipes
tastes
authorization
letting
pes@@
komm@@
deepen
fiction
Dampfbad
DOS
Römischen
konstru@@
ento
mitgliedern
use@@
bewährt
Informationstechnologie
beabsichtigen
Bendit
bills
Nürnberg
körper
dus
seasons
Müll@@
Mineral@@
Torres
blockieren
inischen
Sozialausschuss
Schichten
D.@@
Wall@@
These
COST
spon@@
Reserven
Way
mel
Opportunities
Roboter
govern
embrace
Cent
eEurope
93@@
celebrations
extensions
Spre@@
Stolz
friendship
Arbeitsgruppen
retreat
aufträge
fik@@
touched
Edit
GEN
speedy
lus@@
grows
remembered
ading
az
immune
path@@
blan@@
Arbeitslosen
ples
meer
spannende
MD@@
predecessor
vaccines
typ@@
Gordon
pler
ald
Assoziierungsprozess
Easy
ystem
kas@@
jüdischen
Date
cake
zeugnissen
brush
yt@@
Küsten
erbare
mten
redundancies
1940
exportiert
subway
Demonstrationen
weitreichende
relatives
glas
DH@@
Mais
ö
ECA
shifting
befördert
composer
MM@@
sim@@
Philippines
einladen
samen
feeds
font
Steck@@
Finanzmärkten
Fitness@@
artigen
Equality
feinen
600@@
Bratislava
Maßgabe
Streifen
Aung
Jacob
Zeilen
María
cocktails
venues
Schokolade
quanti@@
identisch
fam@@
Luftraum
365
beispiel@@
stärke
cip@@
transmit
störungen
Geschäfts-
expressions
verschwunden
vorschlägen
herausgegeben
ecommerce
Voice
Advocate
hrung
beri@@
1.8
TEC
vertraulich
Gonzalez
Kreditkarten@@
zurückgehen
Niger
Dampf@@
vielerlei
Interessen@@
Anschein
Nit@@
Arzneimittel@@
aufgreifen
Toten
Bäume
komplizierte
prima
g.
SER@@
owe
fließt
Schwachstellen
Finanzinstrumente
ITT@@
Steve
you@@
Autor@@
körperliche
Stationen
eligibility
Verschärfung
zweifelsohne
norm
verbreiteten
Akteur
Virtu@@
Nas@@
Book@@
debatte
pocket
Bestehen
übertragung
verkehr@@
ened
Klein-
Electric
Kunststoff
Holocaust
thresholds
nose
clips
reunification
Pauschal@@
ausdrückliche
enh@@
blin@@
tätige
IZ@@
erstattet
Rating
Warenverkehr
civilisation
ECT
fat@@
tragischen
endsten
Ortschaft
kündigte
östlich
Kenia
spezifisch
én@@
sinn
Heinz
saison
ped
Venture
Marseille
Neu
0,00
Haushaltsdisziplin
stab@@
beru@@
das@@
vs
ça
discovering
migrant
eme
fische
computing
Gesetz@@
Tanz
ahn@@
vorher@@
staatlich
detrimental
Ortes
rings
USE
facilitates
mad
bilanz
Banquet
Zugänglichkeit
Batterien
Amtssprachen
patented
pubs
nachstehenden
strich
XIV
Two
stilvolle
Us
Sounds
wöchentlich
rö@@
benden
Württemberg
konsultieren
Club@@
Scoreboard
stopping
töten
herangezogen
ZF
destructive
veto
RC
Unternehmertum
Schwelle
geehrten
Sper@@
bomb
reconcile
King@@
Atem@@
design@@
weakened
gelieferten
Fenster@@
disorders
ANT
Flucht
radikale
Barb@@
iled
consolidating
traditioneller
kohärenten
ening
Epi@@
lichere
Fluss@@
Zuweisung
Ameri@@
Bavarian
Buyer
Stavros
tournaments
400@@
älter
Lis@@
BY
reminder
neck
übergehen
Christoph
unds
1920
drin@@
regulator
Kreise
cosmetics
Diskriminierungen
Zeugen
Invasion
Soft@@
Terrassen
UP
suicide
main@@
widersprechen
nachstehend
Gegenseitigkeit
alleviate
instructed
champion
Verde
Servers
kleinste
Karlsruhe
Reis
Briten
congestion
endo@@
ony@@
jahren
easing
Finger
wein
Berechnungen
mö@@
consumed
unterziehen
Protokolle
When
aufzufordern
westlich
.&apos;
eingeführten
Ausnahmeregelungen
consciousness
finanzierte
Fertigstellung
Inhalts
Kollektion
stro
Mitchell
epidemic
loyalty
fassung
slowdown
rab@@
appealing
excessively
lamps
shoe
creatures
Staatssekretärin
Bier@@
kund@@
loose
konsequente
pressed
beitrittswilligen
pollutants
deuten
unklar
Haushaltslinie
0.2
borrowing
hafter
Tö@@
Rüstungs@@
Novotel
ICH
inability
ausgesch@@
gesund
umfassenderen
Equal
Investition@@
illicit
guys
dortigen
steering
suggesting
lib@@
begegnet
ı
sinstrument
zulässigen
270
cautious
1929
Fas@@
Scanner
mana
trau@@
Pressefreiheit
Initi@@
hn@@
Kamer@@
Gesundheit@@
JPEG
einzelstaatliche
Moder@@
tahun
ließe
1933
infections
Cot@@
tou@@
predict
führungen
ausgehandelt
ICC
City@@
vic
insi@@
Wild
advocated
ermordet
Reports
pluralism
volcanic
arri@@
Vertrieb@@
absent
Forschungsin@@
Style
petition
Georgian
auswirkt
mond
übliche
formationen
Mode@@
hinten
widerspricht
zäh@@
vorgebracht
zertifiziert
Computern
Sw@@
Erbes
legungs@@
Ray
techni@@
Angel@@
Investor
tzen
Aero@@
MS@@
resumption
Motivation
Existenz@@
alter@@
Angel
anni
ECSC
Gefährdung
aman
Informatik
legs
67@@
uk@@
streams
engineer
Fitnessraum
Jer@@
fleisch
cellar
typen
9.00
umge@@
singing
Survey
Visum
wood@@
Bestandsaufnahme
chambre
Freundschaft
Kolonial@@
todo
Maustaste
brick
Pferde
erneuten
cleaned
CM
Billionen
By@@
neuem
Expansion
Generalsekretärs
worüber
vergangen
abdecken
gated
Opel
proceeds
payable
Abweichungen
designation
fathers
cookie
xx
amounting
Marin@@
produ@@
auses
Functioning
Artenvielfalt
identi@@
Talent
klagen
Anzahlung
Güter@@
Brenner
illustrate
fünften
simultaneous
eder
größen
FE
Wellen
enza
Nichteinhaltung
lab
Rol@@
glaubwürdig
Getreide@@
etz
verständigen
Sili@@
shirt
ès
yl
progressively
Konzerne
Alter@@
leid
Reb@@
sail
aw@@
fem@@
Sätze
Finanzmitteln
Kommissionsdienststellen
VB
Sonderbeauftragten
empire
Medikamenten
lus
Ausschreibungen
wachstum
zuzulassen
Nutzungsbedingungen
Finanzhilfen
Informationssystem
verwen@@
farben
sozialistischen
physics
dismantling
ish@@
fikation
Automotive
Tester
Muslime
fallenden
arisen
Mitgefühl
Lab
schätzungsweise
umweltfreundliche
zyklus
lowering
facilitation
geistige
hierher
Lower
Palermo
obligatorischen
supposedly
coat
BASF
preview
Lü@@
nicely
Mund
ν@@
mp
hereby
Trenn@@
Inverkehrbringen
ppy
drück@@
kov
Amp@@
edges
produzenten
charts
Brunnen
ressourcen
0.3
behinderte
Adjustment
unsatisfactory
Zugeständnisse
logs
Rechtfertigung
habits
Look
elaborate
ansteigen
Ratspräsidentin
amounted
Titan
vertrete
Save
analysing
gabe
metre
siedlung
bewerben
iles
Bordeaux
IA@@
Gui@@
GF@@
Schulungs@@
lebih
glei@@
authoritarian
Kaffe@@
ausreicht
unterhält
Lob
shipped
anticipate
verbleiben
aming
legend
Geiste
steller
Document
templates
Sprecher
Parc
Stell@@
Bezugs@@
Esp@@
Films
Unruhen
compliant
glio
Hemmnisse
Baumwolle
antibiotics
itas
darlegen
privati@@
1947
vorgegebenen
designate
Präzision
versorgungs@@
struggling
kost@@
Verkauf@@
rum@@
weekends
F1
enjoyment
Kultur-
Cypriot
betten
motors
reißen
Planungs@@
Misch@@
Forschungen
freund@@
lohn@@
Siedlung
tations
Nummern
engeren
otto
pay@@
realm
Schwei@@

clip
vergleichbaren
Mauern
Haushaltspolitik
somm@@
Mittelalter
dun@@
tü@@
TV@@
Inflations@@
beliebig
Proteste
4,5
201@@
erfreulich
exhaust
20.000
zuteil
hinnehmbar
Det@@
besprechen
unternehmer
Shar@@
terminate
122
honey
tex
Fortschritts
manufactures
Grau@@
constituted
Paare
sebene
dahinter
CU@@
129
county
fak@@
AMA
cot
Publishing
RATES
activation
BIL@@
Tagungs@@
INE
romantischen
vernichtet
Komp@@
rolled
EuGH
Industrieländern
geopolitical
vorankommen
hate
ń@@
Niederlage
logisch
locate
unen
Archi@@
zügen
Überschneidungen
black@@
Immo
petit
kurz@@
TT
itation
crowd
downturn
denkbar
vorzusehen
Feind
Staatsminister
yards
Flüsse
Silber@@
leur
tlichen
Inland
Sorten
spann@@
Termini
Routen
staates
A3@@
jed@@
luft
Entwicklungsfonds
finalised
Nevada
wash
Francis
jun@@
markts
ahr@@
Kopien
haf@@
accounted
hilfsbereit
weitergeben
administered
arom@@
Pause
Automation
rak@@
Seri@@
abortion
ASEM
legale
Überraschung
Kroatiens
Wiedergabe
Bungalows
auszuwählen
minimise
Bürgerkrieg
außen@@
Airconditioning
dringen
neighborhood
classi@@
inn
attributes
decentralised
Rechtsstreit
Gö@@
onischen
Navigations@@
erstklassigen
Abwesenheit
cket
landwirtschaftlicher
49@@
ima@@
overcoming
complain
11.30
compounds
Kohle@@
Marktführer
spark
arte
Twin
Stillstand
ZI@@
prop@@
Baum
sth@@
Festland
invented
Tätigkeits@@
shocks
biomass
fizi@@
4.2
sse@@
journeys
Besonderheit
Famili@@
disadvantages
58@@
Ble@@
GT
Miles
spei@@
tent
Ron@@
Westeuropa
9396
Zahl@@
manuell
guardian
Ehren@@
Erscheinung
rever@@
AEUV
saf@@
verbietet
Summen
bizarre
cafe
refunds
Spo@@
massages
accomodation
bedeutend
про@@
ories
partei@@
Küchen@@
anzugeben
encrypted
ausarbeiten
weiterzu@@
Ermessen
aba
Angehörige
Brücken
emi@@
baum
palette
counted
rejecting
seventh
Fak@@
Küh@@
EGKS
pes
sog.
Hyde
Änderungsvorschläge
Jagd
mann@@
ssigen
hatred
Kritiker
catastrophe
Mün@@
Bonino
cloning
UCLAF
Davos
electro@@
bie@@
SIM@@
Self
Übersetz@@
kollektive
gical
würdige
Perl
assembled
Rekord@@
Luftqualität
Urlauber
Futtermittel@@
Rückführung
oos
defizit
Gange
angestrebten
bloße
sol
prüf@@
Philippinen
Lieb@@
milli@@
eli
evolved
J.@@
Yemen
Hauptsitz
licheren
api@@
steil
Ultra@@
Oscar
ceramic
Kontakten
smile
sers
unzähligen
extra@@
outlets
sulphur
ungssystem
ю@@
02.@@
Gegenzug
produc@@
Disziplin
Entwürfe
irregular
mask
gelagert
Aussteller
schiffen
NAFO
jak
supplemented
lectures
uten
odds
Seine
Figur
simplicity
ý@@
Portugals
Unfällen
einschließt
ettes
Bundesministerium
gay
nern
balconies
2D
beigetreten
Cap
compression
plasma
vage
lok@@
sung
kus
palm
Patienten@@
32@@
Beitrags
smuggling
Spielzeug
werbung
Underground
Grün
Herunterladen
seriousness
Hot
siv
Sieger
einzubringen
lebten
kingdom
anzuschließen
verantwortungs@@
zufriedenstellende
Oomen
wel
räum@@
oll@@
koordinierten
EMA
regul@@
Einkauf
distort
unterstrich
seltene
hai
Besten
B6
Bashir
schätze
Janeiro
Lithuanian
.europa.eu
brake
330
auszugleichen
fantastische
Meinungsverschiedenheiten
Adapter
Schwung
ITS
Race
news@@
sek@@
Lieutenant
Leistungsverhältnis
ausdrücken
Tuscan
mei@@
Missionen
replies
presently
jetzige
überflüssig
einheitlicher
Tours
gewöhnlichen
FYROM
werdet
restriktive
strenger
warmth
RAL
Poul
Paolo
Rechtsmittel
php
kleinsten
etablieren
Ingenieure
tut@@
wettbewerb
winding
technologien
findest
domini@@
comprise
Betonung
änder
mentioning
endete
mainland
versenden
mende
leute
Mehr
Unterbringung
onal
cool@@
reciprocity
Feder@@
isoliert
predictable
Bayer
mitt@@
agenturen
erendes
ktoren
phot@@
abo@@
erstaunlich
tak@@
Profit
kehrte
1,3
Mt
Auschecken
MSN
Lehne
resp@@
ereien
Bananen@@
gien
138
derungen
Anton
wahlen
CB@@
sied@@
Diego
einzuschränken
unterteilt
Europaeischen
veranstalten
Linke
Schande
Personenverkehr
Champion
SR@@
sky@@
Roll@@
Lago
künstlerische
Rav@@
Schn@@
Tschechien
publishers
abide
wissenschaft
migratory
ukrainischen
situationen
proz@@
Haushaltsverfahren
Buchungen
Da
jen@@
schade
ATM
grapes
check@@
enhancement
wissensbasierten
Lieder
paramount
Regen
Cru@@
Skandal
warn
zuge@@
cell@@
Kha@@
Zeichnungen
Teilung
repressive
Schwellenländer
Religionsfreiheit
hö@@
Head@@
bilateraler
nation@@
ket@@
Grundsatz@@
consecutive
contradictory
konfiguriert
Freundlichkeit
abstract
geist
beherrschen
wellbeing
chenen
waffen
endo
hike
MAS@@
explizit
Streichung
performs
loo@@
FF
schli@@
Erk@@
slope
begeistern
Bruno
Fortführung
thrust
Footprint
Barón
155
kompetente
lichung
profit@@
kins
Gewebe
zy
Immobilie
GA@@
Drittstaatsangehörigen
verluste
licht@@
Tirol
Louvre
sentenced
Millenniums
ergreift
Imaging
objection
viol@@
Nova
COM@@
rests
bekundet
Geldern
readmission
absor@@
Menüs
Conciliation
KUKA
но
Show@@
bla@@
erstellten
SEPA
reli@@
verbänden
lls
Futtermitteln
beiträge
Einverständnis
privately
befolgen
corrupt
Universum
Werkzeug@@
betrachte
interinstitutionellen
wort
athletes
Sep@@
Probe
NG@@
3355
überraschen
ă@@
übermäßig
atemberaubenden
courageous
A320
duly
mend
MR@@
Bekenntnis
Cham@@
ison
housed
Guard
tages
floating
Host
Francesco
castles
String
dancing
gier
Chernobyl
bemerkenswert
jel@@
Geheimnis
Einhalt
FM
Sitzungs@@
küste
graduates
stisch
getätigt
Verb@@
pixels
stamp
electorate
renew
Begegnung
bedacht
Geschäftsbereich
Sit@@
García
modernising
DSLR
anche
Stütz@@
wski
Racing
Under
atie
matched
DivX
Zusammenschluß
geschaffenen
murdered
Berufe
clears
marina
hits
Fujifilm
corporation
Gastgeber
steigerung
Regierungsführung
flooding
ZUR
datenbank
POS@@
Bath
recep@@
riders
Books
Pen
ň@@
darzustellen
Archive
Merkmal
Eiffel
insulation
gebotenen
suspicion
Cir@@
Amtes
sunshine
ergänzende
bequemen
BT
meng@@
investitionen
gedrängt
Langzeit@@
Schatz@@
By
215@@
ography
Proc@@
Mandriva
Crespo
patience
zte
exzellenten
noting
Ansch@@
illustrated
sozioökonomischen
receiver
lingu@@
imbalance
erschließen
sorted
Brava
misuse
virtu@@
circum@@
Crisis
EU28
Grafik@@
vertretenen
indirekten
Firewall
einzubinden
touristische
jahres
Umsatz@@
woher
rang
energisch
Men
Fuerteventura
dynamism
investigating
brothers
152
GUI
bedding
änderung
aud
Drei
Ubuntu
до@@
show@@
postpone
liebt
parish
Ängste
acquiring
persist
systemic
celebrating
wildlife
ehr
respondents
writes
durchlaufen
versteckt
leer
dedication
invention
reiz@@
Ang@@
generelle
eindringlich
mikro@@
wealthy
1951
gewinnung
intervals
hervorragender
hauses
tam@@
englisch
Port@@
generiert
notwithstanding
phasing
Balkanstaaten
quer@@
jenes
Rundfunk@@
relies
jahrelang
radically
tant
Planning
angel@@
cha@@
twentieth
begünstigen
Login
reminds
supportive
IIa
transform@@
browsing
Imp@@
Num@@
läufe
Coun@@
hellen
Meere
lot@@
Kohäsions@@
dringenden
ambiance
konfigurieren
happiness
Past@@
lite
Seh@@
Fertigkeiten
EMAS
verbracht
sensi@@
Forestry
Bereichs
Amazon
ellen@@
1960s
Perspective
distributor
Bele@@
globalisierten
Abhilfe
shar@@
versa
geres
anfällig
doubled
Süß@@
zugänglichen
Pipeline
Emotionen
Unternehmer@@
Geschlecht
ologischer
entgehen
Neb@@
etliche
zubereitet
verhält
beliefs
supplements
deploy
aia
Studi@@
unterschiede
Größenordnung
Apartamentos
Hund
blau
Senate
ental
T.@@
Fru@@
être
100,000
cables
Wohnraum
Inf@@
satellites
Mai@@
Umstrukturierungs@@
evolving
sportlichen
MIL@@
Haushaltsbehörde
Evolution
graph
vorgegangen
ASPs
Italienisch
Muster@@
politician
Mem@@
desires
vorgang
Erfindung
Gedächtnis
separaten
altes
attendance
verdoppelt
OB@@
Major
intelligenten
Let@@
Inter
bestmöglichen
thereafter
Erschließung
Tuberkulose
abzuhalten
revitali@@
debattieren
Grill
spartner
Haartrockner
Wahlkreis
Kremlin
DT
Wechselkurs@@
freilich
Ruijten
Gon@@
gesp@@
Muttersprache
Ohren
Marktanteile
ò@@
Gemeinschaftsinitiative
intern@@
nen@@
exploration
OEM
Layer
Risk
viewer
bing
ysi@@
emit@@
Belgrad
genehmigte
ungewöhnlich
alisierte
ausführ@@
Auszahlung
dra
Luz
Namibia
Fabrik
schie@@
Abzug
Träume
neglected
Adri@@
wehren
DRC
Pferd
vorlegt
motoren
degradation
Bos@@
rendering
wiederhergestellt
Übergangs
Highlights
Produktionen
ear
ministeriums
ś@@
Intensität
istisch
entwerfen
balancing
Cin@@
Einsätze
Großbritanniens
Stable
growers
Lade@@
verfolgten
Niederlassungen
ergebenden
Wählern
grosser
recital
Böge
generieren
Haftungs@@
formulate
Dollars
Betrugs@@
ACE
trafen
Erwähnung
Work@@
belasten
zten
Friedensprozeß
künftiger
Cancun
film@@
adresse
anas
kindly
dow@@
ordin@@
Quartet
hä@@
vergrößert
Groups
Tenerife
gle
inspire
Conduct
Modi@@
levy
Tragweite
irre@@
rewards
undergo
zug@@
modernization
bottles
vine
Erstattung
Tiger
Erzeuger@@
3.4
DIS@@
bekräftigte
Fazilität
298
CV@@
disclose
л
allo
loyal
dynamisch
INT@@
circa
Vancouver
aktualisierte
Bewerbung
Land-
Indikator
musst
reciprocal
verpassen
wahrzunehmen
POL@@
liger
harmonisiert
Besitz@@
unberührt
Minister@@
auszudehnen
cious
sponsor
benutzer@@
wp
Frühstücksraum
Fire@@
predominantly
Kohlenstoff@@
Kasachstan
Buchten
illustrates
Little
Cle@@
Wetten
responds
phen@@
disturbing
Sixth
compressed
EU-
hieß
cep@@
recipe
touches
96@@
elled
größtmögliche
eingehender
reads
humane
Rindfleisch@@
AI@@
Oper@@
Pre
Privatwirtschaft
ologi@@
Todesfälle
undergoing
Azur
Spalte
Arabischen
desperate
küh@@
kopiert
Verhandlung
enswert
verfassungs@@
Katastrophenschutz
Wortes
Stille
enberg
hten
rape
zugs@@
Mord
Gross@@
Zeitschriften
Marathon
verlauf
Spra@@
großzügigen
spheres
host@@
unt
casinos
zuweilen
corners
lichkeits@@
mentions
heu@@
tasting
Arbeitsmarktes
tari@@
einseitige
04.@@
Flughafens
cigarette
towers
Implementation
heb@@
Schwarz
Produktivitäts@@
getrieben
optimism
vielfalt
marginal
zunichte
Oh
niemanden
empfinden
helicopter
ICS
His
Durchmesser
gebrachten
RFID
nec@@
Sauberkeit
servieren
Glasgow
copied
hergestellten
Als
Atomwaffen
Aktivierung
liqui@@
unvergessliche
Gesundheitsfürsorge
Lorenzo
diplom@@
logische
Befugnis
Fassade
Haushalten
flagship
swing
interiors
Hart@@
ampli@@
unwind
ausserhalb
PO
gischer
ession@@
stil@@
diagnostic
opponent
lav
gefüllt
Schlag@@
variant
analytical
0,7
Votum
Spezialist
Ped@@
welding
Sitze
analyze
fora
Pressekonferenz
Disk
Boulevard
cant@@
Edward
Ironing
spunkte
Entwicklungs-
Wikipedia
unjustified
kanäle
Easter
Re
Gaming
unannehmbar
ckten
basket
freiwilliger
Gesamtbetrag
де@@
cot@@
DL@@
DB@@
admittedly
keln
Lockerung
Log
Brexit
SA.@@
Computers
trou@@
bibliothek
Quell@@
neighbour
Präsentationen
processors
Ulrich
marvellous
organe
leeren
verlegt
Majorca
Ladies
plateau
kürz@@
Var
Schrift
Donau@@
Warn@@
AGB
sinkt
zeugnisse
cited
projections
jacuzzi
band@@
iti@@
promotions
publisher
cafés
Relais
rage
differs
ères
iti
Wanderung
lass
со@@
enstein
Circle
familien@@
usti@@
concentrations
bedenkt
kü@@
herd
app
prompted
vorgetragen
Arm
16,@@
weiss
Vorhandensein
Schröder
put@@
Ressourcen@@
grip
scheitern
Unterkünften
fatal
destined
legality

Finanzierung@@
implementiert
Emma
supermarket
Final
senses
accord
lon
kanische
tolerate
zitiere
Parti@@
absorption
González
1980er
vorhergehenden
religions
saves
ausgeschöpft
Rwanda
aerospace
IAS
ätzen
encia
ASE
geschätzten
Nahrungsmittelhilfe
Loc@@
gram
Military
reci@@
Friedensprozesses
opted
imm@@
liberale
kick
Wiederaufbau@@
sache
Einsicht
C6
marketplace
ská
describing
hinausgeht
aca
bestimmung
Emperor
aforementioned
banner
Vill@@
Sub
Anordnung
Herangehensweise
1955
spektrum
austausch
dium
Figuren
interpretiert
willi@@
folgten
billige
marketed
umbrella
6000
curious
Entlassungen
Führungskräfte
behave
recognizes
separ@@
Chávez
Erstellen
strikte
cooked
vre
1.7
tide
ESDP
Hochgeschwindigkeits@@
Lamfalussy
Turkmenistan
allen@@
counterfeit
dritter
Danuta
aufenthalt
1946
erstmalig
ftung
canal
Schatten@@
nan@@
ruf
̈
Vigo
zugeordnet
exterior
ETA
änden
Tschernobyl
gemein@@
Pocket
Stornierungen
Emission
Ausnahme@@
fel
ting@@
Frontera
wertes
bün@@
ktes
recipes
reiches
advisable
rendered
akt
she@@
Anbau@@
Weinen
Greenland
Partnerländer
ii
heit@@
radar
freeze
maßgeschneiderte
Jersey
LU@@
Lou@@
Kni@@
N.
glas@@
fürs
utilisation
slogan
Betreibern
schon@@
übersteigt
Ministern
iranische
resultierenden
fÃ
tac@@
chungen
dau@@
instrumental
Freiheits@@
exchanging
ordnungen
Megapixel
asen
CSR
Hamburger
attracting
Lom@@
Beau@@
completeness
Leicht@@
anza
Elektronik@@
ASS
korrekten
spir@@
assignment
rez
Eurodac
beam
Chr@@
landmark
sea@@
adjustable
reib@@
Beleuchtung
Liquidität
gesammelten
Nuendo
multinationals
Vertraulichkeit
CHT
Ziffern
wirtschaftspolitische
wirtschaftlichem
diver@@
Kant@@
Austausch@@
Geschäftsverkehr
erfolgten
EI
festgeschrieben
Erträge
Gothenburg
Verwaltungsaufwand
Objekten
chron@@
phen
betriebs@@
Minsk
bezeichnete
Viel@@
duplicate
Wasserversorgung
fürchten
anch@@
ric
Kreditkarten
So
Sheraton
glance
Erdöl
controllers
chtungs@@
assign
terroristische
interessen
spek@@
ciones
[...]
